{
    "0": "re",
    "1": "k",
    "2": "un",
    "3": "</w>",
    "4": "al",
    "5": "o</w>",
    "6": "ar",
    "7": "i</w>",
    "8": "m",
    "9": "n",
    "10": "z",
    "11": "u",
    "12": "d",
    "13": "in</w>",
    "14": "a</w>",
    "15": "an</w>",
    "16": "ma",
    "17": "as</w>",
    "18": "t",
    "19": "e",
    "20": "en</w>",
    "21": "la",
    "22": "g",
    "23": "b",
    "24": "er</w>",
    "25": "y",
    "26": "s",
    "27": "i",
    "28": "er",
    "29": "on</w>",
    "30": "in",
    "31": "ro",
    "32": "o",
    "33": "a",
    "34": "f",
    "35": "p",
    "36": "en",
    "37": "de",
    "38": "an",
    "39": "ra",
    "40": "mar",
    "41": "us</w>",
    "42": "u</w>",
    "43": "am",
    "44": "is</w>",
    "45": "j",
    "46": "ch",
    "47": "r",
    "48": "v",
    "49": "le",
    "50": "el",
    "51": "man",
    "52": "l",
    "53": "ti",
    "54": "h",
    "55": "el</w>",
    "56": "sh",
    "57": "y</w>",
    "58": "k</w>",
    "59": "se",
    "60": "at",
    "61": "or",
    "62": "ha",
    "63": "c",
    "64": "ab",
    "65": "si",
    "66": "ri",
    "67": "bo",
    "68": "ar</w>",
    "69": "w",
    "70": "ta",
    "71": "di",
    "72": "os</w>",
    "73": "bu",
    "74": "as",
    "75": "par",
    "76": "mo",
    "77": "mu",
    "78": "g</w>",
    "79": "te",
    "80": "ka</w>",
    "81": "ers</w>",
    "82": "sa",
    "83": "at</w>",
    "84": "vi",
    "85": "ne",
    "86": "es</w>",
    "87": "ing</w>",
    "88": "lu",
    "89": "su",
    "90": "car",
    "91": "ba",
    "92": "man</w>",
    "93": "ti</w>",
    "94": "bar",
    "95": "t</w>",
    "96": "n</w>",
    "97": "z</w>",
    "98": "na",
    "99": "be",
    "100": "co",
    "101": "ge",
    "102": "bi",
    "103": "l</w>",
    "104": "is",
    "105": "b</w>",
    "106": "on",
    "107": "cor",
    "108": "gu",
    "109": "ol",
    "110": "ov</w>",
    "111": "ya</w>",
    "112": "s</w>",
    "113": "da</w>",
    "114": "al</w>",
    "115": "du",
    "116": "ag",
    "117": "ia</w>",
    "118": "li",
    "119": "ka",
    "120": "me",
    "121": "har",
    "122": "ke</w>",
    "123": "mi",
    "124": "e</w>",
    "125": "am</w>",
    "126": "per",
    "127": "sch",
    "128": "mon",
    "129": "m</w>",
    "130": "im",
    "131": "il",
    "132": "ley</w>",
    "133": "to</w>",
    "134": "ton</w>",
    "135": "ak",
    "136": "ri</w>",
    "137": "em",
    "138": "ad",
    "139": "pe",
    "140": "ber",
    "141": "ta</w>",
    "142": "ina</w>",
    "143": "son</w>",
    "144": "p</w>",
    "145": "ana</w>",
    "146": "st",
    "147": "da",
    "148": "pa",
    "149": "mal",
    "150": "ko",
    "151": "f</w>",
    "152": "ru",
    "153": "di</w>",
    "154": "ver",
    "155": "na</w>",
    "156": "x",
    "157": "ke",
    "158": "te</w>",
    "159": "con",
    "160": "ano</w>",
    "161": "berg</w>",
    "162": "ine</w>",
    "163": "le</w>",
    "164": "ic</w>",
    "165": "ed</w>",
    "166": "os",
    "167": "bal",
    "168": "ac",
    "169": "to",
    "170": "es",
    "171": "ville</w>",
    "172": "sar",
    "173": "mor",
    "174": "mc",
    "175": "ate</w>",
    "176": "ma</w>",
    "177": "de</w>",
    "178": "can",
    "179": "ur",
    "180": "ko</w>",
    "181": "d</w>",
    "182": "ed",
    "183": "po",
    "184": "au",
    "185": "ku",
    "186": "gh",
    "187": "om",
    "188": "h</w>",
    "189": "ra</w>",
    "190": "qu",
    "191": "tu",
    "192": "cu",
    "193": "é</w>",
    "194": "ca",
    "195": "bor",
    "196": "der",
    "197": "ju",
    "198": "ter",
    "199": "ap",
    "200": "é",
    "201": "th",
    "202": "gar",
    "203": "bel",
    "204": "ou",
    "205": "um</w>",
    "206": "pre",
    "207": "ki",
    "208": "ba</w>",
    "209": "tri",
    "210": "r</w>",
    "211": "ch</w>",
    "212": "go",
    "213": "il</w>",
    "214": "it",
    "215": "do",
    "216": "lo",
    "217": "q",
    "218": "mer",
    "219": "gi",
    "220": "he",
    "221": "c</w>",
    "222": "sk",
    "223": "ani</w>",
    "224": "ki</w>",
    "225": "den",
    "226": "ben",
    "227": "tar",
    "228": "ans</w>",
    "229": "mil",
    "230": "2",
    "231": "ni",
    "232": "br",
    "233": "oc",
    "234": "kar",
    "235": "ga",
    "236": "san",
    "237": "ai</w>",
    "238": "ates</w>",
    "239": "ger",
    "240": "sp",
    "241": "ts</w>",
    "242": "ini</w>",
    "243": "pu",
    "244": "x</w>",
    "245": "den</w>",
    "246": "ie</w>",
    "247": "sal",
    "248": "az",
    "249": "land</w>",
    "250": "hi",
    "251": "ting</w>",
    "252": "ner</w>",
    "253": "ler</w>",
    "254": "one</w>",
    "255": "by</w>",
    "256": "wa",
    "257": "we",
    "258": "sub",
    "259": "val",
    "260": "op",
    "261": "jo",
    "262": "fu",
    "263": "pro",
    "264": "shi",
    "265": "ay</w>",
    "266": "bur",
    "267": "sen",
    "268": "ol</w>",
    "269": "se</w>",
    "270": "ten",
    "271": "ism</w>",
    "272": "no",
    "273": "mat",
    "274": "inter",
    "275": "fa",
    "276": "lan",
    "277": "ho",
    "278": "tor",
    "279": "ic",
    "280": "hu",
    "281": "za</w>",
    "282": "ram",
    "283": "min",
    "284": "ser",
    "285": "ker",
    "286": "et</w>",
    "287": "so",
    "288": "her",
    "289": "au</w>",
    "290": "ev",
    "291": "ja",
    "292": "pi",
    "293": "ino</w>",
    "294": "or</w>",
    "295": "v</w>",
    "296": "ah</w>",
    "297": "ok",
    "298": "ci",
    "299": "ey</w>",
    "300": "ren",
    "301": "it</w>",
    "302": "ant</w>",
    "303": "kan",
    "304": "ford</w>",
    "305": "cal",
    "306": "for",
    "307": "ter</w>",
    "308": "del",
    "309": "ul",
    "310": "ec",
    "311": "w</w>",
    "312": "ur</w>",
    "313": "ne</w>",
    "314": "ard</w>",
    "315": "men",
    "316": "si</w>",
    "317": "us",
    "318": "over",
    "319": "wi",
    "320": "af",
    "321": "em</w>",
    "322": "sc",
    "323": "ge</w>",
    "324": "av",
    "325": "ada</w>",
    "326": "th</w>",
    "327": "gen",
    "328": "gr",
    "329": "dis",
    "330": "mac",
    "331": "nor",
    "332": "war",
    "333": "bon",
    "334": "gal",
    "335": "field</w>",
    "336": "dar",
    "337": "sa</w>",
    "338": "ang</w>",
    "339": "chi</w>",
    "340": "super",
    "341": "id",
    "342": "char",
    "343": "j</w>",
    "344": "sam",
    "345": "va</w>",
    "346": "col",
    "347": "ling</w>",
    "348": "ir",
    "349": "kin",
    "350": "ker</w>",
    "351": "kin</w>",
    "352": "ot</w>",
    "353": "mel",
    "354": "co</w>",
    "355": "der</w>",
    "356": "jan",
    "357": "ens</w>",
    "358": "les</w>",
    "359": "pan",
    "360": "hal",
    "361": "lam",
    "362": "idae</w>",
    "363": "tr",
    "364": "fe",
    "365": "my",
    "366": "cap",
    "367": "ja</w>",
    "368": "ata</w>",
    "369": "ak</w>",
    "370": "kh",
    "371": "era</w>",
    "372": "ac</w>",
    "373": "id</w>",
    "374": "li</w>",
    "375": "pol",
    "376": "ell</w>",
    "377": "ite</w>",
    "378": "hy",
    "379": "ari</w>",
    "380": "var",
    "381": "sen</w>",
    "382": "ated</w>",
    "383": "ang",
    "384": "ons</w>",
    "385": "ven",
    "386": "ous</w>",
    "387": "ot",
    "388": "ski</w>",
    "389": "cre",
    "390": "ova</w>",
    "391": "ating</w>",
    "392": "ip",
    "393": "pal",
    "394": "ham",
    "395": "under",
    "396": "pa</w>",
    "397": "hol",
    "398": "ala</w>",
    "399": "ing",
    "400": "va",
    "401": "pin",
    "402": "je",
    "403": "far",
    "404": "ella</w>",
    "405": "fer",
    "406": "ty",
    "407": "chi",
    "408": "sel",
    "409": "able</w>",
    "410": "ten</w>",
    "411": "ian</w>",
    "412": "ov",
    "413": "nar",
    "414": "bach</w>",
    "415": "han",
    "416": "gri",
    "417": "ir</w>",
    "418": "fr",
    "419": "eg",
    "420": "fre",
    "421": "ga</w>",
    "422": "tur",
    "423": "bre",
    "424": "ay",
    "425": "la</w>",
    "426": "sol",
    "427": "bo</w>",
    "428": "kal",
    "429": "ban",
    "430": "hor",
    "431": "tra",
    "432": "ze</w>",
    "433": "lar",
    "434": "che",
    "435": "ane</w>",
    "436": "ica</w>",
    "437": "well</w>",
    "438": "so</w>",
    "439": "sand",
    "440": "bi</w>",
    "441": "yan</w>",
    "442": "mis",
    "443": "ze",
    "444": "ex",
    "445": "ye",
    "446": "io</w>",
    "447": "kam",
    "448": "ken",
    "449": "don",
    "450": "ah",
    "451": "kon",
    "452": "ty</w>",
    "453": "ger</w>",
    "454": "ev</w>",
    "455": "wood</w>",
    "456": "als</w>",
    "457": "rec",
    "458": "ly",
    "459": "ology</w>",
    "460": "iz",
    "461": "pen",
    "462": "ly</w>",
    "463": "tic</w>",
    "464": "ick</w>",
    "465": "com",
    "466": "ks</w>",
    "467": "out",
    "468": "tre",
    "469": "ve",
    "470": "hen",
    "471": "lin",
    "472": "ph",
    "473": "zi",
    "474": "ry",
    "475": "be</w>",
    "476": "don</w>",
    "477": "wa</w>",
    "478": "ji</w>",
    "479": "ted</w>",
    "480": "ings</w>",
    "481": "ash",
    "482": "dr",
    "483": "ena</w>",
    "484": "lin</w>",
    "485": "sun",
    "486": "do</w>",
    "487": "less</w>",
    "488": "ad</w>",
    "489": "cas",
    "490": "tan",
    "491": "wal",
    "492": "ig",
    "493": "ura</w>",
    "494": "et",
    "495": "mer</w>",
    "496": "all",
    "497": "ob",
    "498": "q</w>",
    "499": "ola</w>",
    "500": "ep",
    "501": "ale</w>",
    "502": "tro",
    "503": "ys</w>",
    "504": "bol",
    "505": "ong</w>",
    "506": "ny</w>",
    "507": "kit",
    "508": "ton",
    "509": "bas",
    "510": "ali",
    "511": "tal",
    "512": "ober",
    "513": "no</w>",
    "514": "and",
    "515": "gra",
    "516": "bir",
    "517": "eu",
    "518": "ae</w>",
    "519": "mol",
    "520": "bra",
    "521": "gre",
    "522": "bat",
    "523": "hel",
    "524": "mann</w>",
    "525": "win",
    "526": "ita</w>",
    "527": "fi",
    "528": "ara</w>",
    "529": "ama</w>",
    "530": "ou</w>",
    "531": "st</w>",
    "532": "sky</w>",
    "533": "bou",
    "534": "kat",
    "535": "\"",
    "536": "ation</w>",
    "537": "fl",
    "538": "pat",
    "539": "ites</w>",
    "540": "sh</w>",
    "541": "um",
    "542": "ham</w>",
    "543": "ny",
    "544": "sville</w>",
    "545": "ö",
    "546": "sil",
    "547": "que</w>",
    "548": "om</w>",
    "549": "gor",
    "550": "pra",
    "551": "aw",
    "552": "vel",
    "553": "ce</w>",
    "554": "ds</w>",
    "555": "sur",
    "556": "gol",
    "557": "dy</w>",
    "558": "of",
    "559": "ye</w>",
    "560": "may",
    "561": "dem",
    "562": "á",
    "563": "ines</w>",
    "564": "ent</w>",
    "565": "aceae</w>",
    "566": "20",
    "567": "bl",
    "568": "sy",
    "569": "ek</w>",
    "570": "ona</w>",
    "571": "ator</w>",
    "572": "tel",
    "573": "ji",
    "574": "ea</w>",
    "575": "dev",
    "576": "ies</w>",
    "577": "ek",
    "578": "bro",
    "579": "yu",
    "580": "dan",
    "581": "osaurus</w>",
    "582": "dor",
    "583": "tom",
    "584": "the",
    "585": "vol",
    "586": "stra",
    "587": "re</w>",
    "588": "ding</w>",
    "589": "pri",
    "590": "des",
    "591": "han</w>",
    "592": "ela</w>",
    "593": "tam",
    "594": "bet",
    "595": "ni</w>",
    "596": "5",
    "597": "ins</w>",
    "598": "ss</w>",
    "599": "dy",
    "600": "heim</w>",
    "601": "micro",
    "602": "hyper",
    "603": "cha</w>",
    "604": "els</w>",
    "605": "mur",
    "606": "son",
    "607": "dal",
    "608": "pur",
    "609": "hi</w>",
    "610": "ky</w>",
    "611": "nu",
    "612": "gel",
    "613": "og",
    "614": "lor",
    "615": "men</w>",
    "616": "age</w>",
    "617": "ken</w>",
    "618": "ness</w>",
    "619": "pr",
    "620": "ali</w>",
    "621": "elli</w>",
    "622": "ps</w>",
    "623": "bri",
    "624": "bun",
    "625": "ami</w>",
    "626": "jun",
    "627": "wil",
    "628": "kn",
    "629": "kor",
    "630": "mun",
    "631": "bis",
    "632": "bin",
    "633": "4",
    "634": "nam",
    "635": "pla",
    "636": "ment</w>",
    "637": "ore</w>",
    "638": "jo</w>",
    "639": "shi</w>",
    "640": "vo",
    "641": "ha</w>",
    "642": "ingen</w>",
    "643": "ary</w>",
    "644": "sin",
    "645": "ab</w>",
    "646": "din",
    "647": "ut",
    "648": "fri",
    "649": "by",
    "650": "sn",
    "651": "ori</w>",
    "652": "sor",
    "653": "van",
    "654": "inger</w>",
    "655": "str",
    "656": "sta</w>",
    "657": "kir",
    "658": "bé",
    "659": "tus</w>",
    "660": "ei",
    "661": "bert</w>",
    "662": "mont</w>",
    "663": "mes",
    "664": "ches</w>",
    "665": "anti",
    "666": "6",
    "667": "ses</w>",
    "668": "red",
    "669": "ded</w>",
    "670": "ent",
    "671": "dra",
    "672": "ung</w>",
    "673": "1",
    "674": "burg</w>",
    "675": "por",
    "676": "ist</w>",
    "677": "elle</w>",
    "678": "tis</w>",
    "679": "ee</w>",
    "680": "yo",
    "681": "ington</w>",
    "682": "š",
    "683": "ene</w>",
    "684": "ón</w>",
    "685": "cher",
    "686": "sha",
    "687": "ales</w>",
    "688": "bay",
    "689": "aki</w>",
    "690": "vil",
    "691": "ann",
    "692": "kov</w>",
    "693": "king</w>",
    "694": "he</w>",
    "695": "line</w>",
    "696": "3",
    "697": "dec",
    "698": "worth</w>",
    "699": "mi</w>",
    "700": "dic",
    "701": "od",
    "702": "kil",
    "703": "kas",
    "704": "ani",
    "705": "uni",
    "706": "cat",
    "707": "gan",
    "708": "ach",
    "709": "illa</w>",
    "710": "sk</w>",
    "711": "sch</w>",
    "712": "bil",
    "713": "ere</w>",
    "714": "mo</w>",
    "715": "ry</w>",
    "716": "ff</w>",
    "717": "dam",
    "718": "yn</w>",
    "719": "ney</w>",
    "720": "ä",
    "721": "rat",
    "722": "ky",
    "723": "long",
    "724": "mont",
    "725": "cha",
    "726": "ō",
    "727": "are</w>",
    "728": "art</w>",
    "729": "sab",
    "730": "un</w>",
    "731": "po</w>",
    "732": "sti",
    "733": "ca</w>",
    "734": "me</w>",
    "735": "ass",
    "736": "hou",
    "737": "poly",
    "738": "mam",
    "739": "dale</w>",
    "740": "eman</w>",
    "741": "gam",
    "742": "tin",
    "743": "len",
    "744": "inc",
    "745": "10",
    "746": "kel",
    "747": "su</w>",
    "748": "zo",
    "749": "dou",
    "750": "ron",
    "751": "cen",
    "752": "bit",
    "753": "dur",
    "754": "bla",
    "755": "cer",
    "756": "pel",
    "757": "pon",
    "758": "ber</w>",
    "759": "kur",
    "760": "ver</w>",
    "761": "ho</w>",
    "762": "che</w>",
    "763": "vir",
    "764": "nat",
    "765": "ea",
    "766": "pic",
    "767": "tics</w>",
    "768": "ns</w>",
    "769": "rom",
    "770": "nov",
    "771": "kra",
    "772": "ss",
    "773": "star",
    "774": "pap",
    "775": "ck</w>",
    "776": "dun",
    "777": "nic",
    "778": "nes",
    "779": "est",
    "780": "ran",
    "781": "á</w>",
    "782": "ora</w>",
    "783": "pur</w>",
    "784": "shar",
    "785": "ello</w>",
    "786": "mus",
    "787": "shin",
    "788": "zen",
    "789": "all</w>",
    "790": "off</w>",
    "791": "die</w>",
    "792": "tia</w>",
    "793": "bab",
    "794": "per</w>",
    "795": "hom",
    "796": "des</w>",
    "797": "bad",
    "798": "je</w>",
    "799": "bul",
    "800": "mul",
    "801": "din</w>",
    "802": "cla",
    "803": "anda</w>",
    "804": "ade</w>",
    "805": "pl",
    "806": "fo",
    "807": "bs</w>",
    "808": "cher</w>",
    "809": "ston</w>",
    "810": "hand",
    "811": "zi</w>",
    "812": "gen</w>",
    "813": "wat",
    "814": "wy",
    "815": "gan</w>",
    "816": "fla",
    "817": "cl",
    "818": "ari",
    "819": "tw",
    "820": "zu",
    "821": "sha</w>",
    "822": "sia</w>",
    "823": "cou",
    "824": "wh",
    "825": "ow",
    "826": "shu",
    "827": "jam",
    "828": "rou",
    "829": "cel",
    "830": "gun",
    "831": "za",
    "832": "and</w>",
    "833": "way</w>",
    "834": "lands</w>",
    "835": "ties</w>",
    "836": "hay",
    "837": "cro",
    "838": "jan</w>",
    "839": "pe</w>",
    "840": "ius</w>",
    "841": "ro</w>",
    "842": "ics</w>",
    "843": "tes</w>",
    "844": "í",
    "845": "non",
    "846": "ve</w>",
    "847": "chat",
    "848": "kom",
    "849": "neu",
    "850": "eng",
    "851": "ida</w>",
    "852": "ín</w>",
    "853": "sson</w>",
    "854": "sl",
    "855": "ó",
    "856": "ros</w>",
    "857": "sw",
    "858": "up",
    "859": "kap",
    "860": "eta</w>",
    "861": "gur",
    "862": "sky",
    "863": "tha</w>",
    "864": "stein</w>",
    "865": "ster</w>",
    "866": "sta",
    "867": "bau",
    "868": "back",
    "869": "zo</w>",
    "870": "fin",
    "871": "stu",
    "872": "fal",
    "873": "ium</w>",
    "874": "flor",
    "875": "onia</w>",
    "876": "gru",
    "877": "cy",
    "878": "arm",
    "879": "mag",
    "880": "til",
    "881": "ese</w>",
    "882": "cam",
    "883": "tz</w>",
    "884": "vin",
    "885": "lev",
    "886": "ero</w>",
    "887": "ai",
    "888": "kun",
    "889": "dre",
    "890": "yan",
    "891": "feld</w>",
    "892": "ei</w>",
    "893": "out</w>",
    "894": "town</w>",
    "895": "ise</w>",
    "896": "í</w>",
    "897": "let</w>",
    "898": "key</w>",
    "899": "ap</w>",
    "900": "mid",
    "901": "dian</w>",
    "902": "lo</w>",
    "903": "pas",
    "904": "black",
    "905": "osa</w>",
    "906": "ity</w>",
    "907": "ey",
    "908": "ès</w>",
    "909": "wo",
    "910": "ila</w>",
    "911": "ist",
    "912": "tru",
    "913": "wer",
    "914": "ria</w>",
    "915": "py",
    "916": "att",
    "917": "aka</w>",
    "918": "hem",
    "919": "res</w>",
    "920": "ats</w>",
    "921": "lit",
    "922": "dom",
    "923": "ette</w>",
    "924": "gon",
    "925": "ren</w>",
    "926": "ula</w>",
    "927": "vas",
    "928": "gro",
    "929": "som",
    "930": "ima</w>",
    "931": "kar</w>",
    "932": "ery</w>",
    "933": "bru",
    "934": "gau",
    "935": "ç",
    "936": "sau",
    "937": "7",
    "938": "oli</w>",
    "939": "1</w>",
    "940": "go</w>",
    "941": "star</w>",
    "942": "ists</w>",
    "943": "gn",
    "944": "ised</w>",
    "945": "ya",
    "946": "ked</w>",
    "947": "kers</w>",
    "948": "op</w>",
    "949": "ality</w>",
    "950": "ther",
    "951": "tol",
    "952": "dh",
    "953": "nieder",
    "954": "eau</w>",
    "955": "án</w>",
    "956": "ich</w>",
    "957": "sou",
    "958": "dia</w>",
    "959": "pun",
    "960": "jar",
    "961": "pul",
    "962": "kan</w>",
    "963": "bu</w>",
    "964": "pop",
    "965": "wen",
    "966": "fil",
    "967": "she",
    "968": "skaya</w>",
    "969": "ant",
    "970": "lat",
    "971": "sat",
    "972": "ā",
    "973": "cour",
    "974": "jen",
    "975": "kol",
    "976": "hum",
    "977": "gir",
    "978": "bos",
    "979": "tte</w>",
    "980": "nas",
    "981": "cra",
    "982": "ner",
    "983": "pec",
    "984": "pil",
    "985": "eri</w>",
    "986": "the</w>",
    "987": "its</w>",
    "988": "we</w>",
    "989": "led</w>",
    "990": "est</w>",
    "991": "(",
    "992": "formula_",
    "993": "ically</w>",
    "994": "ste",
    "995": "shah",
    "996": "gil",
    "997": "ole</w>",
    "998": "air",
    "999": "hur",
    "1000": "ges</w>",
    "1001": "ching</w>",
    "1002": "ms</w>",
    "1003": "ls</w>",
    "1004": "ars</w>",
    "1005": "cad",
    "1006": "im</w>",
    "1007": "ance</w>",
    "1008": "water",
    "1009": "cur",
    "1010": "land",
    "1011": "yi</w>",
    "1012": "13",
    "1013": "tal</w>",
    "1014": "wald</w>",
    "1015": "hall",
    "1016": "tt",
    "1017": "kri",
    "1018": "new",
    "1019": "sters</w>",
    "1020": "rol",
    "1021": "yam",
    "1022": "sad",
    "1023": "ado</w>",
    "1024": "mari",
    "1025": "cr",
    "1026": "rie</w>",
    "1027": "sey</w>",
    "1028": "ators</w>",
    "1029": "ul</w>",
    "1030": "dae</w>",
    "1031": "ball",
    "1032": "ño</w>",
    "1033": "ž",
    "1034": "ström</w>",
    "1035": "cin",
    "1036": "play",
    "1037": "mom",
    "1038": "ell",
    "1039": "chil",
    "1040": "ović</w>",
    "1041": "chin",
    "1042": "met",
    "1043": "chal",
    "1044": "ci</w>",
    "1045": "ère</w>",
    "1046": "pit",
    "1047": "dorf</w>",
    "1048": "ran</w>",
    "1049": "ow</w>",
    "1050": "das</w>",
    "1051": "sing</w>",
    "1052": "del</w>",
    "1053": "ders</w>",
    "1054": "lie</w>",
    "1055": "ram</w>",
    "1056": "ó</w>",
    "1057": "ws</w>",
    "1058": "cri",
    "1059": "sac",
    "1060": "net</w>",
    "1061": "tor</w>",
    "1062": "ée</w>",
    "1063": "fa</w>",
    "1064": "med",
    "1065": "gi</w>",
    "1066": "ther</w>",
    "1067": "yu</w>",
    "1068": "ide</w>",
    "1069": "thi",
    "1070": "tica</w>",
    "1071": "lan</w>",
    "1072": "ard",
    "1073": "dan</w>",
    "1074": "ł",
    "1075": "ef",
    "1076": "ce",
    "1077": "jer",
    "1078": "ini",
    "1079": "yn",
    "1080": "multi",
    "1081": "ato</w>",
    "1082": "gh</w>",
    "1083": "les",
    "1084": "ō</w>",
    "1085": "ning</w>",
    "1086": "camp",
    "1087": "north",
    "1088": "ters</w>",
    "1089": "lem",
    "1090": "ec</w>",
    "1091": "ster",
    "1092": "arch",
    "1093": "dol",
    "1094": "ć</w>",
    "1095": "ong",
    "1096": "fun",
    "1097": "ire</w>",
    "1098": "lou",
    "1099": "eli",
    "1100": "å",
    "1101": "eville</w>",
    "1102": "dra</w>",
    "1103": "sher",
    "1104": "hara</w>",
    "1105": "sas",
    "1106": "stre",
    "1107": "rac",
    "1108": "yo</w>",
    "1109": "top",
    "1110": "mes</w>",
    "1111": "mit",
    "1112": "gla",
    "1113": "ess</w>",
    "1114": "sing",
    "1115": "sig",
    "1116": "hat",
    "1117": "fur",
    "1118": "ema</w>",
    "1119": "etti</w>",
    "1120": "vic",
    "1121": "ff",
    "1122": "ck",
    "1123": "up</w>",
    "1124": "head</w>",
    "1125": "see</w>",
    "1126": "burn</w>",
    "1127": "fish</w>",
    "1128": "ves</w>",
    "1129": "side</w>",
    "1130": "fi</w>",
    "1131": "bank</w>",
    "1132": "ians</w>",
    "1133": "plan",
    "1134": "mach",
    "1135": "lee</w>",
    "1136": "sm",
    "1137": "istic</w>",
    "1138": "cul",
    "1139": "ven</w>",
    "1140": "yer</w>",
    "1141": "tions</w>",
    "1142": "zen</w>",
    "1143": "trans",
    "1144": "nit",
    "1145": "oni</w>",
    "1146": "alism</w>",
    "1147": "tive</w>",
    "1148": "ement</w>",
    "1149": "lim",
    "1150": "horn</w>",
    "1151": "shing</w>",
    "1152": "stadt</w>",
    "1153": "bern",
    "1154": "sem",
    "1155": "ré",
    "1156": "pir",
    "1157": "ux</w>",
    "1158": "whit",
    "1159": "kho",
    "1160": "gs</w>",
    "1161": "ser</w>",
    "1162": "oli",
    "1163": "zer",
    "1164": "ku</w>",
    "1165": "wick</w>",
    "1166": "ble</w>",
    "1167": "wol",
    "1168": "shan",
    "1169": "bell",
    "1170": "sid",
    "1171": "ille</w>",
    "1172": "bha",
    "1173": "tem",
    "1174": "kle",
    "1175": "kes</w>",
    "1176": "ae",
    "1177": "gu</w>",
    "1178": "sham",
    "1179": "aga</w>",
    "1180": "kel</w>",
    "1181": "hir",
    "1182": "ts",
    "1183": "hoo",
    "1184": "č",
    "1185": "mas",
    "1186": "amp",
    "1187": "järvi</w>",
    "1188": "kō",
    "1189": "mé",
    "1190": "ill",
    "1191": "of</w>",
    "1192": ")</w>",
    "1193": "\"</w>",
    "1194": "4</w>",
    "1195": "air</w>",
    "1196": "more</w>",
    "1197": "stone</w>",
    "1198": "ones</w>",
    "1199": "mark</w>",
    "1200": "ice</w>",
    "1201": "saf",
    "1202": "bin</w>",
    "1203": "bury</w>",
    "1204": "uk</w>",
    "1205": "du</w>",
    "1206": "fran",
    "1207": "ally</w>",
    "1208": "enti",
    "1209": "anus</w>",
    "1210": "aba</w>",
    "1211": "bus</w>",
    "1212": "borough</w>",
    "1213": "tele",
    "1214": "ying</w>",
    "1215": "eng</w>",
    "1216": "ents</w>",
    "1217": "are",
    "1218": "pes",
    "1219": "aer",
    "1220": "ization</w>",
    "1221": "ids</w>",
    "1222": "eli</w>",
    "1223": "sburg</w>",
    "1224": "sz",
    "1225": "tat",
    "1226": "od</w>",
    "1227": "fel",
    "1228": "nan",
    "1229": "pay",
    "1230": "rum",
    "1231": "hr</w>",
    "1232": "mah",
    "1233": "ez</w>",
    "1234": "chu",
    "1235": "lun",
    "1236": "lea",
    "1237": "tic",
    "1238": "yne</w>",
    "1239": "zer</w>",
    "1240": "sham</w>",
    "1241": "ans",
    "1242": "py</w>",
    "1243": "ations</w>",
    "1244": "south",
    "1245": "quar",
    "1246": "mas</w>",
    "1247": "dri",
    "1248": "tai",
    "1249": "ix</w>",
    "1250": "14",
    "1251": "nau",
    "1252": "8",
    "1253": "sis</w>",
    "1254": "sim",
    "1255": "king",
    "1256": "head",
    "1257": "abad</w>",
    "1258": "ju</w>",
    "1259": "sley</w>",
    "1260": "kh</w>",
    "1261": "aj",
    "1262": "gy",
    "1263": "vin</w>",
    "1264": "ric",
    "1265": "sec",
    "1266": "tab",
    "1267": "tau",
    "1268": "len</w>",
    "1269": "mic",
    "1270": "itz</w>",
    "1271": "cy</w>",
    "1272": "adel",
    "1273": "kot",
    "1274": "wood",
    "1275": "nag",
    "1276": "ach</w>",
    "1277": "kha",
    "1278": "vis",
    "1279": "uk",
    "1280": "olo</w>",
    "1281": "ade",
    "1282": "tsu",
    "1283": ",</w>",
    "1284": "house</w>",
    "1285": "set</w>",
    "1286": "van</w>",
    "1287": "sin</w>",
    "1288": "ray</w>",
    "1289": "stan</w>",
    "1290": "eh</w>",
    "1291": "fe</w>",
    "1292": "ele</w>",
    "1293": "tie</w>",
    "1294": "amar",
    "1295": "12",
    "1296": "ron</w>",
    "1297": "ence</w>",
    "1298": "ill</w>",
    "1299": "formes</w>",
    "1300": "ox",
    "1301": "alist</w>",
    "1302": "bec",
    "1303": "qui",
    "1304": "oe</w>",
    "1305": "ors</w>",
    "1306": "lio</w>",
    "1307": "eland</w>",
    "1308": "yl",
    "1309": "anta</w>",
    "1310": "form",
    "1311": "bing</w>",
    "1312": "bourne</w>",
    "1313": "end",
    "1314": "sten",
    "1315": "chy</w>",
    "1316": "ides</w>",
    "1317": "yar",
    "1318": "gy</w>",
    "1319": "sed</w>",
    "1320": "gal</w>",
    "1321": "hu</w>",
    "1322": "tu</w>",
    "1323": "sp</w>",
    "1324": "ska</w>",
    "1325": "anc",
    "1326": "rang",
    "1327": "shire</w>",
    "1328": "cab",
    "1329": "lon",
    "1330": "cop",
    "1331": "tap",
    "1332": "fen",
    "1333": "ud</w>",
    "1334": "pad",
    "1335": "leg",
    "1336": "eva</w>",
    "1337": "dil",
    "1338": "hell",
    "1339": "ile</w>",
    "1340": "wel",
    "1341": "port",
    "1342": "bran",
    "1343": "medi",
    "1344": "chel",
    "1345": "maj",
    "1346": "yp",
    "1347": "fer</w>",
    "1348": "mir",
    "1349": "kr",
    "1350": "hus",
    "1351": "nes</w>",
    "1352": "ug",
    "1353": "bush",
    "1354": "ez",
    "1355": "sea",
    "1356": "ologist</w>",
    "1357": "vit",
    "1358": "bag",
    "1359": "dog",
    "1360": "ori",
    "1361": "sy</w>",
    "1362": "lov",
    "1363": "stri",
    "1364": "rin",
    "1365": "oo",
    "1366": "sus</w>",
    "1367": "bow",
    "1368": "oh",
    "1369": "rad",
    "1370": "ensis</w>",
    "1371": "cast",
    "1372": "cho",
    "1373": "kad",
    "1374": "lia</w>",
    "1375": "bus",
    "1376": "luc",
    "1377": "arn",
    "1378": "aj</w>",
    "1379": "ich",
    "1380": "tim",
    "1381": "low",
    "1382": "gas",
    "1383": "awa</w>",
    "1384": "zz",
    "1385": "iro</w>",
    "1386": "kaz",
    "1387": "back</w>",
    "1388": "our</w>",
    "1389": "ii</w>",
    "1390": "sum</w>",
    "1391": "ut</w>",
    "1392": "mad",
    "1393": "ever",
    "1394": "mou",
    "1395": "ink</w>",
    "1396": "bour",
    "1397": "mans</w>",
    "1398": "west",
    "1399": "kai</w>",
    "1400": "shan</w>",
    "1401": "ok</w>",
    "1402": "mark",
    "1403": "ll",
    "1404": "hydro",
    "1405": "clo",
    "1406": "goo",
    "1407": "sap",
    "1408": "sex",
    "1409": "sian</w>",
    "1410": "fy</w>",
    "1411": "tel</w>",
    "1412": "zed</w>",
    "1413": "green",
    "1414": "thal</w>",
    "1415": "pha",
    "1416": "ple",
    "1417": "30",
    "1418": "ik</w>",
    "1419": "nad",
    "1420": "ely</w>",
    "1421": "dro",
    "1422": "beck</w>",
    "1423": "iz</w>",
    "1424": "let",
    "1425": "pp",
    "1426": "tran",
    "1427": "dd</w>",
    "1428": "oka</w>",
    "1429": "stad</w>",
    "1430": "ants</w>",
    "1431": "ik",
    "1432": "ical</w>",
    "1433": "oma</w>",
    "1434": "gl",
    "1435": "ath",
    "1436": "neuro",
    "1437": "đ",
    "1438": "stor",
    "1439": "sher</w>",
    "1440": "ame</w>",
    "1441": "hin",
    "1442": "blu",
    "1443": "fab",
    "1444": "chen",
    "1445": "lus</w>",
    "1446": "chev",
    "1447": "aria</w>",
    "1448": "dé",
    "1449": "gang",
    "1450": "ö</w>",
    "1451": "wal</w>",
    "1452": "oy</w>",
    "1453": "ler",
    "1454": "ish</w>",
    "1455": "ear",
    "1456": "dar</w>",
    "1457": "ces</w>",
    "1458": "tos</w>",
    "1459": "eck</w>",
    "1460": "dal</w>",
    "1461": "atus</w>",
    "1462": "ep</w>",
    "1463": "ania</w>",
    "1464": "nev",
    "1465": "duc",
    "1466": "jin",
    "1467": "snow",
    "1468": "tour",
    "1469": "cross",
    "1470": "hed",
    "1471": "hon",
    "1472": "sla",
    "1473": "ois</w>",
    "1474": "blan",
    "1475": "ste</w>",
    "1476": "bang",
    "1477": "ati</w>",
    "1478": "sheim</w>",
    "1479": "zel",
    "1480": "ros",
    "1481": "ão</w>",
    "1482": "tak",
    "1483": "ves",
    "1484": "dus</w>",
    "1485": "iner</w>",
    "1486": "sberg</w>",
    "1487": "hil",
    "1488": "bud",
    "1489": "sé",
    "1490": "nik</w>",
    "1491": "pier",
    "1492": "dau",
    "1493": "ock</w>",
    "1494": "jag",
    "1495": "aro</w>",
    "1496": "any</w>",
    "1497": "2</w>",
    "1498": "app",
    "1499": "win</w>",
    "1500": "port</w>",
    "1501": "bee</w>",
    "1502": "lets</w>",
    "1503": "shot</w>",
    "1504": "mar</w>",
    "1505": "ging</w>",
    "1506": "berry</w>",
    "1507": "osis</w>",
    "1508": "box</w>",
    "1509": "gate</w>",
    "1510": "pi</w>",
    "1511": "borg</w>",
    "1512": "sho",
    "1513": "ex</w>",
    "1514": "dru",
    "1515": "bell</w>",
    "1516": "ain</w>",
    "1517": "chem",
    "1518": "onic</w>",
    "1519": "bed</w>",
    "1520": "plat",
    "1521": "ologists</w>",
    "1522": "brook</w>",
    "1523": "enc",
    "1524": "nan</w>",
    "1525": "anne</w>",
    "1526": "ful</w>",
    "1527": "ili",
    "1528": "ş",
    "1529": "ops</w>",
    "1530": "ale",
    "1531": "kman</w>",
    "1532": "stein",
    "1533": "rich",
    "1534": "bles</w>",
    "1535": "val</w>",
    "1536": "ico</w>",
    "1537": "kos",
    "1538": "mon</w>",
    "1539": "ika</w>",
    "1540": "fle",
    "1541": "para",
    "1542": "gran",
    "1543": ")",
    "1544": "ase</w>",
    "1545": "bio",
    "1546": "tt</w>",
    "1547": "vs</w>",
    "1548": "adi",
    "1549": "kins</w>",
    "1550": "tion</w>",
    "1551": "coc",
    "1552": "uc",
    "1553": "vor",
    "1554": "ray",
    "1555": "ati",
    "1556": "ized</w>",
    "1557": "anism</w>",
    "1558": "ao</w>",
    "1559": "à</w>",
    "1560": "ome</w>",
    "1561": "ean</w>",
    "1562": "but",
    "1563": "ried</w>",
    "1564": "ı</w>",
    "1565": "bia</w>",
    "1566": "nia</w>",
    "1567": "bot",
    "1568": "izing</w>",
    "1569": "ü",
    "1570": "wad",
    "1571": "cham",
    "1572": "vers</w>",
    "1573": "khar",
    "1574": "cos",
    "1575": "isa</w>",
    "1576": "int</w>",
    "1577": "maha",
    "1578": "pak",
    "1579": "lau",
    "1580": "evich</w>",
    "1581": "gos",
    "1582": "sto</w>",
    "1583": "lu</w>",
    "1584": "wil</w>",
    "1585": "oi</w>",
    "1586": "gö",
    "1587": "wester",
    "1588": "tra</w>",
    "1589": "post",
    "1590": "gold",
    "1591": "stown</w>",
    "1592": "pers</w>",
    "1593": "chol",
    "1594": "bid",
    "1595": "jas",
    "1596": "lind",
    "1597": "lé",
    "1598": "esp",
    "1599": "tun",
    "1600": "dig",
    "1601": "bac",
    "1602": "lier</w>",
    "1603": "bra</w>",
    "1604": "kul",
    "1605": "hun",
    "1606": "gle</w>",
    "1607": "que",
    "1608": "kaw",
    "1609": "raj",
    "1610": "alization</w>",
    "1611": "net",
    "1612": "ib",
    "1613": "har</w>",
    "1614": "sav",
    "1615": "jon",
    "1616": "itt</w>",
    "1617": "è",
    "1618": "lom",
    "1619": "oz",
    "1620": "ères</w>",
    "1621": "kov",
    "1622": "kum",
    "1623": "inho</w>",
    "1624": "fat",
    "1625": "call",
    "1626": "vau",
    "1627": "brand",
    "1628": "old</w>",
    "1629": "can</w>",
    "1630": "end</w>",
    "1631": "if</w>",
    "1632": "3</w>",
    "1633": "ace</w>",
    "1634": "wing</w>",
    "1635": "sea</w>",
    "1636": "book</w>",
    "1637": "tical</w>",
    "1638": "point</w>",
    "1639": "bridge</w>",
    "1640": "km</w>",
    "1641": "num",
    "1642": "eu</w>",
    "1643": "zar",
    "1644": "ft</w>",
    "1645": "ability</w>",
    "1646": "eth",
    "1647": "ouse</w>",
    "1648": "usa</w>",
    "1649": "main",
    "1650": "fully</w>",
    "1651": "lec",
    "1652": "16",
    "1653": "ball</w>",
    "1654": "spor",
    "1655": "hal</w>",
    "1656": "rag",
    "1657": "sio</w>",
    "1658": "ua</w>",
    "1659": "9",
    "1660": "vi</w>",
    "1661": "bb</w>",
    "1662": "gram</w>",
    "1663": "bar</w>",
    "1664": "alized</w>",
    "1665": "ban</w>",
    "1666": "alize</w>",
    "1667": "dos</w>",
    "1668": "anna</w>",
    "1669": "fs</w>",
    "1670": "kau",
    "1671": "sel</w>",
    "1672": "sc</w>",
    "1673": "tag",
    "1674": "bron",
    "1675": "bes",
    "1676": "burger</w>",
    "1677": "tier</w>",
    "1678": "ils</w>",
    "1679": "spe",
    "1680": "?",
    "1681": "rail",
    "1682": "anni</w>",
    "1683": "edo</w>",
    "1684": "will",
    "1685": "yang</w>",
    "1686": "oc</w>",
    "1687": "nas</w>",
    "1688": "bea",
    "1689": "ological</w>",
    "1690": "pu</w>",
    "1691": "sei</w>",
    "1692": "row",
    "1693": "mass",
    "1694": "pis",
    "1695": "shin</w>",
    "1696": "disc",
    "1697": "gar</w>",
    "1698": "bel</w>",
    "1699": "bed",
    "1700": "sted</w>",
    "1701": "god",
    "1702": "oun",
    "1703": "ship",
    "1704": "ario</w>",
    "1705": "aa</w>",
    "1706": "ath</w>",
    "1707": "!",
    "1708": "sul",
    "1709": "glen",
    "1710": "chen</w>",
    "1711": "cit",
    "1712": "ä</w>",
    "1713": "én</w>",
    "1714": "ths</w>",
    "1715": "chic",
    "1716": "jar</w>",
    "1717": "dab",
    "1718": "bry",
    "1719": "lis",
    "1720": "lac",
    "1721": "gia</w>",
    "1722": "fac",
    "1723": "big",
    "1724": "ira</w>",
    "1725": "ering</w>",
    "1726": "pet",
    "1727": "lö",
    "1728": "ula",
    "1729": "brun",
    "1730": "mu</w>",
    "1731": "nis</w>",
    "1732": "ure</w>",
    "1733": "nel",
    "1734": "guar",
    "1735": "bauer</w>",
    "1736": "wan",
    "1737": "ques</w>",
    "1738": "bre</w>",
    "1739": "wan</w>",
    "1740": "cio</w>",
    "1741": "ess",
    "1742": "yoshi",
    "1743": "gren</w>",
    "1744": "eb",
    "1745": "ful",
    "1746": "lah</w>",
    "1747": "uma</w>",
    "1748": "anth",
    "1749": "jay",
    "1750": "mau",
    "1751": "sci",
    "1752": "radi",
    "1753": "spin",
    "1754": "var</w>",
    "1755": "scher</w>",
    "1756": "fan",
    "1757": "yev</w>",
    "1758": "ax</w>",
    "1759": "lop",
    "1760": "ovich</w>",
    "1761": "ern</w>",
    "1762": "ś",
    "1763": "nec",
    "1764": "illy</w>",
    "1765": "holm</w>",
    "1766": "anz",
    "1767": "gul",
    "1768": "zh",
    "1769": "ech",
    "1770": "enne</w>",
    "1771": "gab",
    "1772": "owski</w>",
    "1773": "elo</w>",
    "1774": "pom",
    "1775": "fro",
    "1776": "coo",
    "1777": "ij",
    "1778": "stan",
    "1779": "dz",
    "1780": "rand",
    "1781": "esville</w>",
    "1782": "nin",
    "1783": "gem",
    "1784": "mim",
    "1785": "kou",
    "1786": "bc</w>",
    "1787": "her</w>",
    "1788": "gas</w>",
    "1789": "ash</w>",
    "1790": "water</w>",
    "1791": "ago</w>",
    "1792": "war</w>",
    "1793": "sun</w>",
    "1794": "bit</w>",
    "1795": "maker</w>",
    "1796": "woman</w>",
    "1797": "alia</w>",
    "1798": "uni</w>",
    "1799": "ias</w>",
    "1800": "enberg</w>",
    "1801": "inge</w>",
    "1802": "heter",
    "1803": "ned</w>",
    "1804": "tian</w>",
    "1805": "our",
    "1806": "chu</w>",
    "1807": "ater</w>",
    "1808": "ative</w>",
    "1809": "hill</w>",
    "1810": "ometer</w>",
    "1811": "ree</w>",
    "1812": "ag</w>",
    "1813": "bird</w>",
    "1814": "los</w>",
    "1815": "gle",
    "1816": "news",
    "1817": "berger</w>",
    "1818": "ring</w>",
    "1819": "mm</w>",
    "1820": "ido</w>",
    "1821": "clu",
    "1822": "mp",
    "1823": "fort</w>",
    "1824": "ier</w>",
    "1825": "com</w>",
    "1826": "rian</w>",
    "1827": "web",
    "1828": "ben</w>",
    "1829": "amp</w>",
    "1830": "izes</w>",
    "1831": "meth",
    "1832": "ache</w>",
    "1833": "bled</w>",
    "1834": "min</w>",
    "1835": "anger</w>",
    "1836": "wind",
    "1837": "sal</w>",
    "1838": "pm</w>",
    "1839": "boo",
    "1840": "ić</w>",
    "1841": "gaz",
    "1842": "wi</w>",
    "1843": "ras</w>",
    "1844": "15",
    "1845": "jac",
    "1846": "kl",
    "1847": "bon</w>",
    "1848": "bam",
    "1849": "gener",
    "1850": "tail",
    "1851": "tors</w>",
    "1852": "ie",
    "1853": "arc",
    "1854": "moh",
    "1855": "thor",
    "1856": "cu</w>",
    "1857": "rij",
    "1858": "chenko</w>",
    "1859": "shak",
    "1860": "high",
    "1861": "pp</w>",
    "1862": "open",
    "1863": "blo",
    "1864": "ps",
    "1865": "rock",
    "1866": "fication</w>",
    "1867": "esa</w>",
    "1868": "ams</w>",
    "1869": "nem",
    "1870": "ima",
    "1871": "cli",
    "1872": "fair",
    "1873": "dle</w>",
    "1874": "combe</w>",
    "1875": "stal",
    "1876": "home",
    "1877": "peri",
    "1878": "hl</w>",
    "1879": "flu",
    "1880": "tum",
    "1881": "pé",
    "1882": "ish",
    "1883": "nc",
    "1884": "nam</w>",
    "1885": "eo</w>",
    "1886": "rus",
    "1887": "bah</w>",
    "1888": "flat",
    "1889": "hei",
    "1890": "fol",
    "1891": "ize</w>",
    "1892": "lei",
    "1893": "ú</w>",
    "1894": "tre</w>",
    "1895": "jor",
    "1896": "ante</w>",
    "1897": "una</w>",
    "1898": "kis",
    "1899": "wall",
    "1900": "enter",
    "1901": "mill",
    "1902": "jet",
    "1903": "bal</w>",
    "1904": "deb",
    "1905": "ys",
    "1906": "comp",
    "1907": "qi</w>",
    "1908": "stead</w>",
    "1909": "dream",
    "1910": "icus</w>",
    "1911": "sog",
    "1912": "ais</w>",
    "1913": "nar</w>",
    "1914": "bie</w>",
    "1915": "sm</w>",
    "1916": "vel</w>",
    "1917": "ax",
    "1918": "tul",
    "1919": "aga",
    "1920": "ñ",
    "1921": "chan",
    "1922": "rh",
    "1923": "té",
    "1924": "ern",
    "1925": "nin</w>",
    "1926": "eri",
    "1927": "kok",
    "1928": "une</w>",
    "1929": "yed</w>",
    "1930": "dt</w>",
    "1931": "sug",
    "1932": "christ",
    "1933": "hausen</w>",
    "1934": "ial</w>",
    "1935": "slu",
    "1936": "ack</w>",
    "1937": "ems</w>",
    "1938": "hard",
    "1939": "aldo</w>",
    "1940": "ş</w>",
    "1941": "gie</w>",
    "1942": "chor",
    "1943": "beg",
    "1944": "sang",
    "1945": "rit",
    "1946": "brom",
    "1947": "mik",
    "1948": "hea",
    "1949": "zon</w>",
    "1950": "tz",
    "1951": "puri</w>",
    "1952": "oba</w>",
    "1953": "ów</w>",
    "1954": "sten</w>",
    "1955": "nis",
    "1956": "zan</w>",
    "1957": "kowski</w>",
    "1958": "hn</w>",
    "1959": "stro",
    "1960": "band",
    "1961": "cow",
    "1962": "cru",
    "1963": "vo</w>",
    "1964": "thi</w>",
    "1965": "oy",
    "1966": "irs</w>",
    "1967": "avi",
    "1968": "iko</w>",
    "1969": "iry</w>",
    "1970": "hä",
    "1971": "mich",
    "1972": "buck",
    "1973": "ble",
    "1974": "tang",
    "1975": "hog",
    "1976": "zan",
    "1977": "ks",
    "1978": "gui",
    "1979": "dd",
    "1980": "boy",
    "1981": "nh",
    "1982": "tta</w>",
    "1983": "sli",
    "1984": "pou",
    "1985": "oux</w>",
    "1986": "ange</w>",
    "1987": "pav",
    "1988": "was</w>",
    "1989": "8</w>",
    "1990": "use</w>",
    "1991": "has</w>",
    "1992": "dance</w>",
    "1993": "-</w>",
    "1994": "fau",
    "1995": "tv</w>",
    "1996": "lines</w>",
    "1997": "fly</w>",
    "1998": "low</w>",
    "1999": "away</w>",
    "2000": "tens</w>",
    "2001": "40</w>",
    "2002": "stones</w>",
    "2003": "boy</w>",
    "2004": "birds</w>",
    "2005": "mel</w>",
    "2006": "books</w>",
    "2007": "work",
    "2008": "amer",
    "2009": "red</w>",
    "2010": "sons</w>",
    "2011": "dat",
    "2012": "tum</w>",
    "2013": "san</w>",
    "2014": "bet</w>",
    "2015": "jin</w>",
    "2016": "soul",
    "2017": "ometry</w>",
    "2018": "af</w>",
    "2019": "fu</w>",
    "2020": "meg",
    "2021": "way",
    "2022": "dor</w>",
    "2023": "tail</w>",
    "2024": "band</w>",
    "2025": "leon",
    "2026": "aur",
    "2027": "lock</w>",
    "2028": "arti",
    "2029": "pes</w>",
    "2030": "hat</w>",
    "2031": "las</w>",
    "2032": "iri",
    "2033": "ances</w>",
    "2034": "board</w>",
    "2035": "hoh",
    "2036": "lion</w>",
    "2037": "my</w>",
    "2038": "cir",
    "2039": "cho</w>",
    "2040": "pot",
    "2041": "abi</w>",
    "2042": "0",
    "2043": "ving</w>",
    "2044": "tically</w>",
    "2045": "ably</w>",
    "2046": "tea",
    "2047": "equ",
    "2048": "kara</w>",
    "2049": "ently</w>",
    "2050": "maxim",
    "2051": "zy",
    "2052": "rs</w>",
    "2053": "ory</w>",
    "2054": "cc</w>",
    "2055": "pr</w>",
    "2056": "burgh</w>",
    "2057": "anga</w>",
    "2058": "spar",
    "2059": "tion",
    "2060": "winter",
    "2061": "jack",
    "2062": "kim",
    "2063": "hot",
    "2064": "sty",
    "2065": "ography</w>",
    "2066": "raj</w>",
    "2067": "ede</w>",
    "2068": "swa",
    "2069": "tri</w>",
    "2070": "sof",
    "2071": "ices</w>",
    "2072": "oso</w>",
    "2073": "sworth</w>",
    "2074": "cry",
    "2075": "ann</w>",
    "2076": "osaur</w>",
    "2077": "iter</w>",
    "2078": "strat",
    "2079": "tan</w>",
    "2080": "xen",
    "2081": "syn",
    "2082": "broad",
    "2083": "kid",
    "2084": "tham</w>",
    "2085": "oro</w>",
    "2086": "fic",
    "2087": "gian</w>",
    "2088": "sts</w>",
    "2089": "yar</w>",
    "2090": "lic",
    "2091": "kab",
    "2092": "â",
    "2093": "hos",
    "2094": "dini</w>",
    "2095": "cle",
    "2096": "oa</w>",
    "2097": "step",
    "2098": "shima</w>",
    "2099": "tist</w>",
    "2100": "emi",
    "2101": "alis</w>",
    "2102": "ý</w>",
    "2103": "tit",
    "2104": "mov</w>",
    "2105": "run",
    "2106": "mcc",
    "2107": "ets</w>",
    "2108": "nie</w>",
    "2109": "dead",
    "2110": "hn",
    "2111": "hetero",
    "2112": "got",
    "2113": "wur",
    "2114": "lav",
    "2115": "sai</w>",
    "2116": "gin</w>",
    "2117": "sens</w>",
    "2118": "bhu",
    "2119": "stru",
    "2120": "lish</w>",
    "2121": "jal",
    "2122": "ue</w>",
    "2123": "aud</w>",
    "2124": "law",
    "2125": "iller</w>",
    "2126": "ía</w>",
    "2127": "illo</w>",
    "2128": "phy",
    "2129": "qua</w>",
    "2130": "ento</w>",
    "2131": "loc",
    "2132": "box",
    "2133": "nicol",
    "2134": "naz",
    "2135": "ana",
    "2136": "chur",
    "2137": "ds",
    "2138": "agn",
    "2139": "rap",
    "2140": "ix",
    "2141": "sym",
    "2142": "ichi</w>",
    "2143": "liber",
    "2144": "kas</w>",
    "2145": "gom",
    "2146": "sman</w>",
    "2147": "ine",
    "2148": "zar</w>",
    "2149": "bü",
    "2150": "berg",
    "2151": "one",
    "2152": "gall",
    "2153": "oor</w>",
    "2154": "ente</w>",
    "2155": "lon</w>",
    "2156": "och",
    "2157": "nell</w>",
    "2158": "amba</w>",
    "2159": "nay</w>",
    "2160": "ont",
    "2161": "ghan</w>",
    "2162": "gou",
    "2163": "isi",
    "2164": "bhar",
    "2165": "gra</w>",
    "2166": "mei</w>",
    "2167": "jad",
    "2168": "boro</w>",
    "2169": "nab",
    "2170": "boc",
    "2171": "ř",
    "2172": "enz",
    "2173": "shō",
    "2174": "gin",
    "2175": "art",
    "2176": "eda</w>",
    "2177": "tac",
    "2178": "cav",
    "2179": "vad",
    "2180": "hü",
    "2181": "má",
    "2182": "hl",
    "2183": "endorf</w>",
    "2184": "chau",
    "2185": "oos</w>",
    "2186": "hein",
    "2187": "wies",
    "2188": "igny</w>",
    "2189": "cau",
    "2190": "squ",
    "2191": "tsch",
    "2192": "rel</w>",
    "2193": "aurus</w>",
    "2194": "mem",
    "2195": "tti</w>",
    "2196": "det</w>",
    "2197": "cus",
    "2198": "agu",
    "2199": "asp",
    "2200": "hai",
    "2201": "baz",
    "2202": "maz",
    "2203": "not",
    "2204": "nen",
    "2205": "beau",
    "2206": "ă",
    "2207": "chuk</w>",
    "2208": "shim",
    "2209": "wani</w>",
    "2210": "bak",
    "2211": "vu",
    "2212": "yasu",
    "2213": "sbach</w>",
    "2214": "dson</w>",
    "2215": "lett</w>",
    "2216": "sv",
    "2217": "rab",
    "2218": ".</w>",
    "2219": "day</w>",
    "2220": "work</w>",
    "2221": "5</w>",
    "2222": "6</w>",
    "2223": "own</w>",
    "2224": "9</w>",
    "2225": "born</w>",
    "2226": "table</w>",
    "2227": "non</w>",
    "2228": "heads</w>",
    "2229": "ship</w>",
    "2230": "ander</w>",
    "2231": "bay</w>",
    "2232": "rho",
    "2233": "uses</w>",
    "2234": "try</w>",
    "2235": "ion</w>",
    "2236": "ddy</w>",
    "2237": "param",
    "2238": "nom",
    "2239": "rate</w>",
    "2240": "sr</w>",
    "2241": "cd</w>",
    "2242": "boards</w>",
    "2243": "ling",
    "2244": "log",
    "2245": "rem",
    "2246": "enko</w>",
    "2247": "lil",
    "2248": "thom",
    "2249": "quin</w>",
    "2250": "vander",
    "2251": "cl</w>",
    "2252": "tin</w>",
    "2253": "mouth</w>",
    "2254": "smen</w>",
    "2255": "xi",
    "2256": "met</w>",
    "2257": "lay</w>",
    "2258": "lake</w>",
    "2259": "ares</w>",
    "2260": "monoc",
    "2261": "shaw</w>",
    "2262": "girl</w>",
    "2263": "rhe",
    "2264": "sv</w>",
    "2265": "link</w>",
    "2266": "bars</w>",
    "2267": "cia</w>",
    "2268": "mate</w>",
    "2269": "tar</w>",
    "2270": "yah</w>",
    "2271": "qi",
    "2272": "ssa</w>",
    "2273": "ono</w>",
    "2274": "guin",
    "2275": "prof",
    "2276": "aged</w>",
    "2277": "stam",
    "2278": "bois</w>",
    "2279": "tas</w>",
    "2280": "chrom",
    "2281": "cos</w>",
    "2282": "ring",
    "2283": "sto",
    "2284": "vand",
    "2285": "ward</w>",
    "2286": "indi",
    "2287": "sle",
    "2288": "stat",
    "2289": "-",
    "2290": "fore",
    "2291": "ă</w>",
    "2292": "rep",
    "2293": "emi</w>",
    "2294": "tering</w>",
    "2295": "lach</w>",
    "2296": "iled</w>",
    "2297": "ein",
    "2298": "ure",
    "2299": "stef",
    "2300": "down",
    "2301": "wis",
    "2302": "tism</w>",
    "2303": "ith</w>",
    "2304": "saw",
    "2305": "sby</w>",
    "2306": "az</w>",
    "2307": "euro",
    "2308": "hass",
    "2309": "oto</w>",
    "2310": "kal</w>",
    "2311": "gun</w>",
    "2312": "fire",
    "2313": "silver",
    "2314": "ui</w>",
    "2315": "hout</w>",
    "2316": "etz</w>",
    "2317": "zel</w>",
    "2318": "wes",
    "2319": "thur",
    "2320": "pré",
    "2321": "tō",
    "2322": "zam",
    "2323": "wyn</w>",
    "2324": "ots</w>",
    "2325": "qua",
    "2326": "ast</w>",
    "2327": "peter",
    "2328": "pin</w>",
    "2329": "atu",
    "2330": "oo</w>",
    "2331": "kon</w>",
    "2332": "mä",
    "2333": "dic</w>",
    "2334": "ng</w>",
    "2335": "bail",
    "2336": "df</w>",
    "2337": "mb</w>",
    "2338": "scor",
    "2339": "crow",
    "2340": "wich</w>",
    "2341": "kes",
    "2342": "with",
    "2343": "sit",
    "2344": "wick",
    "2345": "ī</w>",
    "2346": "org",
    "2347": "oe",
    "2348": "dam</w>",
    "2349": "plu",
    "2350": "sid</w>",
    "2351": "stab",
    "2352": "gat",
    "2353": "glo",
    "2354": "comm",
    "2355": "flam",
    "2356": "ographic</w>",
    "2357": "mess",
    "2358": "phal",
    "2359": "lay",
    "2360": "zes</w>",
    "2361": "etta</w>",
    "2362": "eno</w>",
    "2363": "à",
    "2364": "dis</w>",
    "2365": "sei",
    "2366": "arth",
    "2367": "anas</w>",
    "2368": "mud",
    "2369": "soc",
    "2370": "ě",
    "2371": "ito</w>",
    "2372": "ged</w>",
    "2373": "voc",
    "2374": "dou</w>",
    "2375": "zai</w>",
    "2376": "ped</w>",
    "2377": "soci",
    "2378": "ffy</w>",
    "2379": "vik</w>",
    "2380": "yas",
    "2381": "bic",
    "2382": "kou</w>",
    "2383": "counter",
    "2384": "match",
    "2385": "pam",
    "2386": "tron</w>",
    "2387": "és</w>",
    "2388": "vul",
    "2389": "pt",
    "2390": "kann",
    "2391": "bai",
    "2392": "ley",
    "2393": "pip",
    "2394": "ments</w>",
    "2395": "lyn",
    "2396": "emer",
    "2397": "exp",
    "2398": "/",
    "2399": "quad",
    "2400": "spir",
    "2401": "tha",
    "2402": "kee</w>",
    "2403": "rick</w>",
    "2404": "roman",
    "2405": "apa</w>",
    "2406": "now",
    "2407": "how",
    "2408": "yas</w>",
    "2409": "lingen</w>",
    "2410": "clem",
    "2411": "isation</w>",
    "2412": "mani</w>",
    "2413": "wor",
    "2414": "quin",
    "2415": "clar",
    "2416": "than",
    "2417": "hé",
    "2418": "ome",
    "2419": "rosen",
    "2420": "tari",
    "2421": "poli",
    "2422": "ung",
    "2423": "ead</w>",
    "2424": "lian</w>",
    "2425": "ru</w>",
    "2426": "gon</w>",
    "2427": "tus",
    "2428": "ici</w>",
    "2429": "agon</w>",
    "2430": "kett</w>",
    "2431": "pent",
    "2432": "sour",
    "2433": "proto",
    "2434": "hep",
    "2435": "alised</w>",
    "2436": "oul",
    "2437": "hul",
    "2438": "capit",
    "2439": "aux</w>",
    "2440": "cac",
    "2441": "cus</w>",
    "2442": "sie</w>",
    "2443": "sey",
    "2444": "speed",
    "2445": "ador</w>",
    "2446": "vis</w>",
    "2447": "vé",
    "2448": "unga</w>",
    "2449": "eum</w>",
    "2450": "carol",
    "2451": "ign",
    "2452": "hit",
    "2453": "villa",
    "2454": "wag",
    "2455": "å</w>",
    "2456": "ense</w>",
    "2457": "phi",
    "2458": "petro",
    "2459": "key",
    "2460": "ast",
    "2461": "mck",
    "2462": "chlor",
    "2463": "zzi</w>",
    "2464": "uri",
    "2465": "zor",
    "2466": "oss</w>",
    "2467": "kari</w>",
    "2468": "fox",
    "2469": "kawa</w>",
    "2470": "agar</w>",
    "2471": "marc",
    "2472": "ere",
    "2473": "etto</w>",
    "2474": "brick",
    "2475": "phil",
    "2476": "iv",
    "2477": "ï",
    "2478": "nikov</w>",
    "2479": "moto</w>",
    "2480": "fis",
    "2481": "dit",
    "2482": "ries</w>",
    "2483": "isi</w>",
    "2484": "wu",
    "2485": "joki</w>",
    "2486": "kay",
    "2487": "shen",
    "2488": "rö",
    "2489": "moo",
    "2490": "vid",
    "2491": "rein",
    "2492": "ppe</w>",
    "2493": "farm",
    "2494": "kla",
    "2495": "hr",
    "2496": "ert</w>",
    "2497": "ort</w>",
    "2498": "itz",
    "2499": "cum",
    "2500": "hs</w>",
    "2501": "tika</w>",
    "2502": "yte</w>",
    "2503": "ond</w>",
    "2504": "itan</w>",
    "2505": "magn",
    "2506": "tetra",
    "2507": "sus",
    "2508": "tad",
    "2509": "2k",
    "2510": "ket</w>",
    "2511": "suke</w>",
    "2512": "ë</w>",
    "2513": "ú",
    "2514": "rod",
    "2515": "aya</w>",
    "2516": "pea",
    "2517": "lal",
    "2518": "kop",
    "2519": "mani",
    "2520": "dera</w>",
    "2521": "anton",
    "2522": "gues</w>",
    "2523": "vy",
    "2524": "yon",
    "2525": "uddin</w>",
    "2526": "nil",
    "2527": "ire",
    "2528": "fou",
    "2529": "anes</w>",
    "2530": "sdorf</w>",
    "2531": "eh",
    "2532": "vill",
    "2533": "kem",
    "2534": "hö",
    "2535": "(</w>",
    "2536": "making</w>",
    "2537": "fall</w>",
    "2538": "form</w>",
    "2539": "then</w>",
    "2540": "works</w>",
    "2541": "his</w>",
    "2542": "),</w>",
    "2543": "list</w>",
    "2544": "7</w>",
    "2545": "vale</w>",
    "2546": "20</w>",
    "2547": "take</w>",
    "2548": "rich</w>",
    "2549": "grass</w>",
    "2550": "50</w>",
    "2551": "dc</w>",
    "2552": "car</w>",
    "2553": "play</w>",
    "2554": "stock</w>",
    "2555": "66</w>",
    "2556": "wise</w>",
    "2557": "balls</w>",
    "2558": "room</w>",
    "2559": "ever</w>",
    "2560": "faz",
    "2561": "river",
    "2562": "zone</w>",
    "2563": "anti</w>",
    "2564": "via</w>",
    "2565": "schi",
    "2566": "sach",
    "2567": "asa</w>",
    "2568": "gog",
    "2569": "fan</w>",
    "2570": "ng",
    "2571": "boat</w>",
    "2572": "sets</w>",
    "2573": "sit</w>",
    "2574": "rite</w>",
    "2575": "lies</w>",
    "2576": "dies</w>",
    "2577": "cm</w>",
    "2578": "ef</w>",
    "2579": "mat</w>",
    "2580": "aes",
    "2581": "fin</w>",
    "2582": "oid</w>",
    "2583": "angel",
    "2584": "ité</w>",
    "2585": "tai</w>",
    "2586": "dge</w>",
    "2587": "pen</w>",
    "2588": "pt</w>",
    "2589": "abe</w>",
    "2590": "ping</w>",
    "2591": "ily</w>",
    "2592": "esis</w>",
    "2593": "ute</w>",
    "2594": "beat</w>",
    "2595": "md</w>",
    "2596": "bug",
    "2597": "iw",
    "2598": "shed</w>",
    "2599": "aris</w>",
    "2600": "pand",
    "2601": "genic</w>",
    "2602": "adi</w>",
    "2603": "electro",
    "2604": "sar</w>",
    "2605": "auto",
    "2606": "dine</w>",
    "2607": "dupl",
    "2608": "arians</w>",
    "2609": "master</w>",
    "2610": "dell</w>",
    "2611": "eb</w>",
    "2612": "og</w>",
    "2613": "lane</w>",
    "2614": "anian</w>",
    "2615": "tec",
    "2616": "bundes",
    "2617": "sion</w>",
    "2618": "onian</w>",
    "2619": "cp</w>",
    "2620": "escu</w>",
    "2621": "tsi",
    "2622": "jani</w>",
    "2623": "chir",
    "2624": "klu",
    "2625": "rey",
    "2626": "dens</w>",
    "2627": "otti</w>",
    "2628": "bro</w>",
    "2629": "gad",
    "2630": "inga</w>",
    "2631": "mp</w>",
    "2632": "ously</w>",
    "2633": "tall",
    "2634": "ll</w>",
    "2635": "ingly</w>",
    "2636": "dom</w>",
    "2637": "zing</w>",
    "2638": "cass",
    "2639": "jima</w>",
    "2640": "vas</w>",
    "2641": "20s</w>",
    "2642": "lab",
    "2643": "rever",
    "2644": "aly</w>",
    "2645": "guill",
    "2646": "hen</w>",
    "2647": "lith",
    "2648": "worm</w>",
    "2649": "00",
    "2650": "hab",
    "2651": "colon",
    "2652": "neph",
    "2653": "verse</w>",
    "2654": "fit",
    "2655": "yoshi</w>",
    "2656": "ios</w>",
    "2657": "lip",
    "2658": "pos",
    "2659": "rier</w>",
    "2660": "keeper</w>",
    "2661": "ail</w>",
    "2662": "sü",
    "2663": "ades</w>",
    "2664": "loo",
    "2665": "grand",
    "2666": "oku</w>",
    "2667": "tet</w>",
    "2668": "assen</w>",
    "2669": "amin",
    "2670": "horn",
    "2671": "kemp",
    "2672": "ardi</w>",
    "2673": "tj",
    "2674": "inas</w>",
    "2675": "aar",
    "2676": "demon",
    "2677": "kreis</w>",
    "2678": "vet</w>",
    "2679": "uz",
    "2680": "mart",
    "2681": "avi</w>",
    "2682": "rot",
    "2683": "ises</w>",
    "2684": "nagar</w>",
    "2685": "odi",
    "2686": "alla</w>",
    "2687": "bos</w>",
    "2688": "alu",
    "2689": "loch</w>",
    "2690": "tou",
    "2691": "ema",
    "2692": "rad</w>",
    "2693": "onga</w>",
    "2694": "thal",
    "2695": "til</w>",
    "2696": "ume</w>",
    "2697": "ott</w>",
    "2698": "vara</w>",
    "2699": "cd",
    "2700": "pli",
    "2701": "frog",
    "2702": "eson</w>",
    "2703": "dee</w>",
    "2704": "dad",
    "2705": "gies</w>",
    "2706": "carab",
    "2707": "jes",
    "2708": "gham</w>",
    "2709": "[",
    "2710": "yeh</w>",
    "2711": "sek</w>",
    "2712": "chy",
    "2713": "atta</w>",
    "2714": "akes</w>",
    "2715": "uno</w>",
    "2716": "ako</w>",
    "2717": "outs</w>",
    "2718": "leys</w>",
    "2719": "ovo</w>",
    "2720": "flo",
    "2721": "olis</w>",
    "2722": "aw</w>",
    "2723": "bane</w>",
    "2724": "gio</w>",
    "2725": "cov",
    "2726": "bas</w>",
    "2727": "aries</w>",
    "2728": "ava</w>",
    "2729": "brit",
    "2730": "ost",
    "2731": "rati",
    "2732": "emia</w>",
    "2733": "ratt",
    "2734": "ums</w>",
    "2735": "hra</w>",
    "2736": "ê",
    "2737": "centr",
    "2738": "sever",
    "2739": "mr",
    "2740": "leh",
    "2741": "moon",
    "2742": "cyber",
    "2743": "fem",
    "2744": "ric</w>",
    "2745": "ind",
    "2746": "tani</w>",
    "2747": "spring",
    "2748": "dio</w>",
    "2749": "dre</w>",
    "2750": "uch",
    "2751": "gus</w>",
    "2752": "mali",
    "2753": "ville",
    "2754": "ett</w>",
    "2755": "sett</w>",
    "2756": "cic",
    "2757": "ettes</w>",
    "2758": "imi</w>",
    "2759": "alp",
    "2760": "ods</w>",
    "2761": "rum</w>",
    "2762": "roc",
    "2763": "né",
    "2764": "nap",
    "2765": "ered</w>",
    "2766": "anka</w>",
    "2767": "teer</w>",
    "2768": "aman</w>",
    "2769": "essen",
    "2770": "bly</w>",
    "2771": "say",
    "2772": "ero",
    "2773": "bium</w>",
    "2774": "archae",
    "2775": "tius</w>",
    "2776": "alo</w>",
    "2777": "shal",
    "2778": "dijk</w>",
    "2779": "wijk</w>",
    "2780": "weis",
    "2781": "thr",
    "2782": "uta</w>",
    "2783": "andre",
    "2784": "sud",
    "2785": "bah",
    "2786": "allo</w>",
    "2787": "wang",
    "2788": "dly</w>",
    "2789": "shab",
    "2790": "dj",
    "2791": "ridg",
    "2792": "hag",
    "2793": "ña</w>",
    "2794": "ano",
    "2795": "inian</w>",
    "2796": "elling</w>",
    "2797": "ref",
    "2798": "dul",
    "2799": "vish",
    "2800": "igu",
    "2801": "kash",
    "2802": "take",
    "2803": "bes</w>",
    "2804": "uru</w>",
    "2805": "ols</w>",
    "2806": "toll",
    "2807": "jak</w>",
    "2808": "dha",
    "2809": "bara</w>",
    "2810": "quer",
    "2811": "ched</w>",
    "2812": "night",
    "2813": "franc",
    "2814": "imp",
    "2815": "yama</w>",
    "2816": "ación</w>",
    "2817": "ait",
    "2818": "block",
    "2819": "arsen",
    "2820": "real",
    "2821": "kak",
    "2822": "chand",
    "2823": "onne</w>",
    "2824": "urus</w>",
    "2825": "toc",
    "2826": "inus</w>",
    "2827": "ragh",
    "2828": "twe",
    "2829": "inn",
    "2830": "fing</w>",
    "2831": "ota</w>",
    "2832": "fish",
    "2833": "fern",
    "2834": "wit",
    "2835": "dia",
    "2836": "alex",
    "2837": "fru",
    "2838": "ı",
    "2839": "lea</w>",
    "2840": "enza</w>",
    "2841": "eus</w>",
    "2842": "orum</w>",
    "2843": ",",
    "2844": "strom</w>",
    "2845": "auer</w>",
    "2846": "zie</w>",
    "2847": "lang",
    "2848": "ingo</w>",
    "2849": "vy</w>",
    "2850": "jos",
    "2851": "nir",
    "2852": "rub",
    "2853": "zak",
    "2854": "zab",
    "2855": "zy</w>",
    "2856": "lux",
    "2857": "sf",
    "2858": "dak</w>",
    "2859": "stol",
    "2860": "ayev</w>",
    "2861": "oids</w>",
    "2862": "gers</w>",
    "2863": "pus",
    "2864": "fingen</w>",
    "2865": "kali",
    "2866": "sant",
    "2867": "aca</w>",
    "2868": "quist</w>",
    "2869": "hop",
    "2870": "zell</w>",
    "2871": "yuki</w>",
    "2872": "nen</w>",
    "2873": "alten",
    "2874": "eux</w>",
    "2875": "iformes</w>",
    "2876": "dov",
    "2877": "ris</w>",
    "2878": "chak</w>",
    "2879": "ara",
    "2880": "fus",
    "2881": "ī",
    "2882": "bourg</w>",
    "2883": "bur</w>",
    "2884": "stur",
    "2885": "kuk",
    "2886": "set",
    "2887": "saurus</w>",
    "2888": "inen</w>",
    "2889": "laur",
    "2890": "unter",
    "2891": "ija</w>",
    "2892": "his",
    "2893": "hec",
    "2894": "izer</w>",
    "2895": "र</w>",
    "2896": "brown",
    "2897": "bom",
    "2898": "schwe",
    "2899": "bt</w>",
    "2900": "adam",
    "2901": "off",
    "2902": "doc",
    "2903": "taka",
    "2904": "odon</w>",
    "2905": "cn",
    "2906": "hiro",
    "2907": "umi</w>",
    "2908": "bren",
    "2909": "sag",
    "2910": "haz",
    "2911": "isen</w>",
    "2912": "fag",
    "2913": "corn",
    "2914": "hohen",
    "2915": "tico</w>",
    "2916": "vall",
    "2917": "jim",
    "2918": "nord",
    "2919": "fon",
    "2920": "lum",
    "2921": "xin",
    "2922": "aar</w>",
    "2923": "kow",
    "2924": "ković</w>",
    "2925": "inda</w>",
    "2926": "rob",
    "2927": "abu",
    "2928": "kang",
    "2929": "groß",
    "2930": "see",
    "2931": "tric",
    "2932": "pres",
    "2933": "kro",
    "2934": "cycl",
    "2935": "quet</w>",
    "2936": "blin",
    "2937": "kei",
    "2938": "bler</w>",
    "2939": "zat</w>",
    "2940": "stin</w>",
    "2941": "nim",
    "2942": "dag",
    "2943": "gow",
    "2944": "swil</w>",
    "2945": "jou",
    "2946": "gler</w>",
    "2947": "kk",
    "2948": "ahi",
    "2949": "kai",
    "2950": "nik",
    "2951": "ša</w>",
    "2952": "chap",
    "2953": "yi",
    "2954": "storp</w>",
    "2955": "world</w>",
    "2956": "long</w>",
    "2957": "ox</w>",
    "2958": "fire</w>",
    "2959": "gay</w>",
    "2960": "test</w>",
    "2961": "cs</w>",
    "2962": "12</w>",
    "2963": "size</w>",
    "2964": "makers</w>",
    "2965": "80</w>",
    "2966": "300</w>",
    "2967": "000</w>",
    "2968": "front</w>",
    "2969": "stream</w>",
    "2970": "fed</w>",
    "2971": "kim</w>",
    "2972": "aq",
    "2973": "genesis</w>",
    "2974": "thing</w>",
    "2975": "tons</w>",
    "2976": "=",
    "2977": "atom",
    "2978": "site</w>",
    "2979": "dim</w>",
    "2980": "wind</w>",
    "2981": "lights</w>",
    "2982": "arch</w>",
    "2983": "style</w>",
    "2984": "storms</w>",
    "2985": "sass",
    "2986": "cone</w>",
    "2987": "ens",
    "2988": "sell</w>",
    "2989": "liqu",
    "2990": "brow",
    "2991": "dish</w>",
    "2992": "ming</w>",
    "2993": "chin</w>",
    "2994": "...</w>",
    "2995": "stev",
    "2996": "gier</w>",
    "2997": "jn</w>",
    "2998": "braz",
    "2999": "jack</w>",
    "3000": "ethn",
    "3001": "song</w>",
    "3002": "mak</w>",
    "3003": "burgh",
    "3004": "lit</w>",
    "3005": "con</w>",
    "3006": "marks</w>",
    "3007": "nor</w>",
    "3008": "gat</w>",
    "3009": "kron",
    "3010": "bli",
    "3011": "shaft</w>",
    "3012": "virus</w>",
    "3013": "sions</w>",
    "3014": "tory</w>",
    "3015": "ery",
    "3016": "mono",
    "3017": "ank</w>",
    "3018": "lili",
    "3019": "arian</w>",
    "3020": "ph</w>",
    "3021": "lock",
    "3022": "fur</w>",
    "3023": "tim</w>",
    "3024": "ia",
    "3025": "sna",
    "3026": "dl</w>",
    "3027": "dea</w>",
    "3028": "esta</w>",
    "3029": "kala</w>",
    "3030": "ours</w>",
    "3031": "sic",
    "3032": "landers</w>",
    "3033": "lander</w>",
    "3034": "marin",
    "3035": "shes</w>",
    "3036": "bek</w>",
    "3037": "ellen</w>",
    "3038": "ichiro</w>",
    "3039": "ʻ",
    "3040": "ridge</w>",
    "3041": "ores</w>",
    "3042": "minu",
    "3043": "dum</w>",
    "3044": "xi</w>",
    "3045": "pet</w>",
    "3046": "sps</w>",
    "3047": "ion",
    "3048": "fee</w>",
    "3049": "yon</w>",
    "3050": "inf",
    "3051": "world",
    "3052": "log</w>",
    "3053": "swe",
    "3054": "ising</w>",
    "3055": "sign",
    "3056": "wen</w>",
    "3057": "gos</w>",
    "3058": "poc",
    "3059": "rod</w>",
    "3060": "anu</w>",
    "3061": "schle",
    "3062": "sible</w>",
    "3063": "iki</w>",
    "3064": "wiki",
    "3065": "gens</w>",
    "3066": "acc",
    "3067": "án",
    "3068": "apo",
    "3069": "backs</w>",
    "3070": "amide</w>",
    "3071": "trin",
    "3072": "odes</w>",
    "3073": "dac",
    "3074": "än",
    "3075": "ove</w>",
    "3076": "uri</w>",
    "3077": "four",
    "3078": "grun",
    "3079": "sse</w>",
    "3080": "viol",
    "3081": "lah",
    "3082": "essen</w>",
    "3083": "vell",
    "3084": "ns",
    "3085": "bip",
    "3086": "oman</w>",
    "3087": "df",
    "3088": "dahl</w>",
    "3089": "ancy</w>",
    "3090": "½</w>",
    "3091": "yer",
    "3092": "ß</w>",
    "3093": "twi",
    "3094": "neur",
    "3095": "mut",
    "3096": "reg",
    "3097": "antes</w>",
    "3098": "pus</w>",
    "3099": "lid</w>",
    "3100": "zee</w>",
    "3101": "tr</w>",
    "3102": "alizing</w>",
    "3103": "è</w>",
    "3104": "ç</w>",
    "3105": "qa",
    "3106": "ob</w>",
    "3107": "esh",
    "3108": "hart</w>",
    "3109": "school",
    "3110": "lessness</w>",
    "3111": "thes</w>",
    "3112": "oda</w>",
    "3113": "lady",
    "3114": "bat</w>",
    "3115": "angi",
    "3116": "ular</w>",
    "3117": "guy",
    "3118": "cf</w>",
    "3119": "cool",
    "3120": "mg</w>",
    "3121": "aq</w>",
    "3122": "igo</w>",
    "3123": "lund</w>",
    "3124": "sting</w>",
    "3125": "seg",
    "3126": "tos",
    "3127": "hydr",
    "3128": "isms</w>",
    "3129": "alc",
    "3130": "bok</w>",
    "3131": "olig",
    "3132": "aber",
    "3133": "ration</w>",
    "3134": "ا",
    "3135": "pore</w>",
    "3136": "steg",
    "3137": "mayr</w>",
    "3138": "kö",
    "3139": "cock</w>",
    "3140": "sai",
    "3141": "bash",
    "3142": "iga</w>",
    "3143": "mie</w>",
    "3144": "roy",
    "3145": "kley</w>",
    "3146": "minster</w>",
    "3147": "mary",
    "3148": "ris",
    "3149": "ting",
    "3150": "ske",
    "3151": "sno",
    "3152": "ware</w>",
    "3153": "chet</w>",
    "3154": "well",
    "3155": "shap",
    "3156": "eless</w>",
    "3157": "acanth",
    "3158": "mania</w>",
    "3159": "part",
    "3160": "assi",
    "3161": "11",
    "3162": "né</w>",
    "3163": "gb</w>",
    "3164": "uli</w>",
    "3165": "jab",
    "3166": "pal</w>",
    "3167": "shri",
    "3168": "ature</w>",
    "3169": "zia</w>",
    "3170": "bloom",
    "3171": "buc",
    "3172": "anos</w>",
    "3173": "prun",
    "3174": "wool",
    "3175": "wild",
    "3176": "chino</w>",
    "3177": "hari</w>",
    "3178": "milit",
    "3179": "fitz",
    "3180": "iron",
    "3181": "oz</w>",
    "3182": "wy</w>",
    "3183": "lak</w>",
    "3184": "uro</w>",
    "3185": "ose</w>",
    "3186": "joh",
    "3187": "mal</w>",
    "3188": "nur",
    "3189": "pho",
    "3190": "jah</w>",
    "3191": "khu",
    "3192": "anu",
    "3193": "dino</w>",
    "3194": "tau</w>",
    "3195": "а</w>",
    "3196": "grac",
    "3197": "other",
    "3198": "human",
    "3199": "brain",
    "3200": "homme</w>",
    "3201": "ashi",
    "3202": "lav</w>",
    "3203": "kot</w>",
    "3204": "nu</w>",
    "3205": "shu</w>",
    "3206": "dani",
    "3207": "beek</w>",
    "3208": "laun",
    "3209": "wid",
    "3210": "stop",
    "3211": "vos</w>",
    "3212": "inka</w>",
    "3213": "ticism</w>",
    "3214": "ements</w>",
    "3215": "ft",
    "3216": "mini",
    "3217": "sop",
    "3218": "moor",
    "3219": "ech</w>",
    "3220": "zu</w>",
    "3221": "voor",
    "3222": "fron",
    "3223": "iler</w>",
    "3224": "sec</w>",
    "3225": "shir",
    "3226": "jä",
    "3227": "serv",
    "3228": "hun</w>",
    "3229": "ček</w>",
    "3230": "hm</w>",
    "3231": "yville</w>",
    "3232": "emen</w>",
    "3233": "fl</w>",
    "3234": "nou",
    "3235": "buri</w>",
    "3236": "aqu",
    "3237": "mos</w>",
    "3238": "jum",
    "3239": "lamp",
    "3240": "acu",
    "3241": "show",
    "3242": "hide",
    "3243": "tionist</w>",
    "3244": "giri</w>",
    "3245": "cron",
    "3246": "domin",
    "3247": "cros",
    "3248": "font",
    "3249": "gee</w>",
    "3250": "shel",
    "3251": ":",
    "3252": "ilia</w>",
    "3253": "wash",
    "3254": "guer",
    "3255": "opa</w>",
    "3256": "los",
    "3257": "ony</w>",
    "3258": "aker</w>",
    "3259": "tril",
    "3260": "dir",
    "3261": "kwa",
    "3262": "tey</w>",
    "3263": "oph",
    "3264": "nel</w>",
    "3265": "aru",
    "3266": "elia</w>",
    "3267": "schul",
    "3268": "gard</w>",
    "3269": "oud</w>",
    "3270": "atory</w>",
    "3271": "inck</w>",
    "3272": "bey",
    "3273": "alisation</w>",
    "3274": "master",
    "3275": "stand",
    "3276": "break",
    "3277": "sti</w>",
    "3278": "ind</w>",
    "3279": "lie",
    "3280": "fos",
    "3281": "mang",
    "3282": "kur</w>",
    "3283": "ital",
    "3284": "år",
    "3285": "lius</w>",
    "3286": "ener",
    "3287": "akh",
    "3288": "sak",
    "3289": "masa",
    "3290": "bir</w>",
    "3291": "ining</w>",
    "3292": "kha</w>",
    "3293": "fulness</w>",
    "3294": "lyn</w>",
    "3295": "rani</w>",
    "3296": ".",
    "3297": "aut</w>",
    "3298": "carr",
    "3299": "ick",
    "3300": "ading</w>",
    "3301": "aph",
    "3302": "bass",
    "3303": "fo</w>",
    "3304": "hill",
    "3305": "illi",
    "3306": "vac",
    "3307": "bog",
    "3308": "ovi",
    "3309": "agan</w>",
    "3310": "iss</w>",
    "3311": "psych",
    "3312": "rem</w>",
    "3313": "ogo</w>",
    "3314": "tman</w>",
    "3315": "rea</w>",
    "3316": "yd</w>",
    "3317": "yal</w>",
    "3318": "ture</w>",
    "3319": "sma</w>",
    "3320": "ely",
    "3321": "rin</w>",
    "3322": "eae</w>",
    "3323": "tur</w>",
    "3324": "thin",
    "3325": "nir</w>",
    "3326": "mí",
    "3327": "ðr</w>",
    "3328": "pd</w>",
    "3329": "pig",
    "3330": "kat</w>",
    "3331": "uch</w>",
    "3332": "kaf",
    "3333": "sup",
    "3334": "then",
    "3335": "gaard</w>",
    "3336": "lud",
    "3337": "cano</w>",
    "3338": "toshi",
    "3339": "gg</w>",
    "3340": "haus</w>",
    "3341": "thro",
    "3342": "mt",
    "3343": "det",
    "3344": "kass",
    "3345": "ssy</w>",
    "3346": "gny</w>",
    "3347": "tik</w>",
    "3348": "kah",
    "3349": "dai",
    "3350": "а",
    "3351": "has",
    "3352": "lus",
    "3353": "stro</w>",
    "3354": "alam",
    "3355": "pos</w>",
    "3356": "yl</w>",
    "3357": "fam",
    "3358": "itsu</w>",
    "3359": "cay",
    "3360": "gov",
    "3361": "spi",
    "3362": "escap",
    "3363": "kka</w>",
    "3364": "aero",
    "3365": "ross",
    "3366": "taro</w>",
    "3367": "song",
    "3368": "ambo</w>",
    "3369": "hem</w>",
    "3370": "cz",
    "3371": "kill",
    "3372": "jak",
    "3373": "hof</w>",
    "3374": "lai</w>",
    "3375": "dok",
    "3376": "def",
    "3377": "iser</w>",
    "3378": "sev",
    "3379": "vari",
    "3380": "epi",
    "3381": "dry",
    "3382": "nob",
    "3383": "cheng</w>",
    "3384": "dee",
    "3385": "park",
    "3386": "vre",
    "3387": "ais",
    "3388": "bby</w>",
    "3389": "eni</w>",
    "3390": "megal",
    "3391": "sche</w>",
    "3392": "ssen</w>",
    "3393": "heu",
    "3394": "vag",
    "3395": "spr",
    "3396": "nier</w>",
    "3397": "р",
    "3398": "ges",
    "3399": "suki</w>",
    "3400": "montal",
    "3401": "camer",
    "3402": "bb",
    "3403": "oni",
    "3404": "mm",
    "3405": "schö",
    "3406": "dur</w>",
    "3407": "о",
    "3408": "know",
    "3409": "nei",
    "3410": "kre",
    "3411": "ß",
    "3412": "idi",
    "3413": "zin</w>",
    "3414": "km",
    "3415": "izu</w>",
    "3416": "swar",
    "3417": "dh</w>",
    "3418": "eller</w>",
    "3419": "agne</w>",
    "3420": "noc",
    "3421": "tl</w>",
    "3422": "är",
    "3423": "miy",
    "3424": "fying</w>",
    "3425": "osaurs</w>",
    "3426": "leu",
    "3427": "ré</w>",
    "3428": "fot",
    "3429": "paw",
    "3430": "aden",
    "3431": "aru</w>",
    "3432": "gim",
    "3433": "yeong</w>",
    "3434": "ando</w>",
    "3435": "kari",
    "3436": "ison</w>",
    "3437": "loy",
    "3438": "what",
    "3439": "mö",
    "3440": "samp",
    "3441": "vig",
    "3442": "agen</w>",
    "3443": "kle</w>",
    "3444": "bble</w>",
    "3445": "ofen</w>",
    "3446": "grim",
    "3447": "fay",
    "3448": "nach</w>",
    "3449": "ayan</w>",
    "3450": "die",
    "3451": "ilo</w>",
    "3452": "was",
    "3453": "wski</w>",
    "3454": "chak",
    "3455": "yum",
    "3456": "dea",
    "3457": "alli</w>",
    "3458": "daw",
    "3459": "sek",
    "3460": "mai",
    "3461": "arab",
    "3462": "agh",
    "3463": "cun",
    "3464": "obo",
    "3465": "lette</w>",
    "3466": "hau",
    "3467": "tas",
    "3468": "uki</w>",
    "3469": "fuji",
    "3470": "œ",
    "3471": "kis</w>",
    "3472": "lar</w>",
    "3473": "gul</w>",
    "3474": "arri",
    "3475": "chner</w>",
    "3476": "bö",
    "3477": "pow",
    "3478": "ński</w>",
    "3479": "meh",
    "3480": "dg",
    "3481": "eun",
    "3482": "mand",
    "3483": "qa</w>",
    "3484": "hardt</w>",
    "3485": "eaux</w>",
    "3486": "gis",
    "3487": "ub",
    "3488": "ame",
    "3489": "nau</w>",
    "3490": "atra</w>",
    "3491": "kus",
    "3492": "gand",
    "3493": "rei",
    "3494": "ien</w>",
    "3495": "ghi</w>",
    "3496": "rington</w>",
    "3497": "fé",
    "3498": "kirchen</w>",
    "3499": "ík</w>",
    "3500": "khal",
    "3501": "hrer</w>",
    "3502": "lik</w>",
    "3503": "khi",
    "3504": "ique</w>",
    "3505": "shig",
    "3506": "kru",
    "3507": "omi</w>",
    "3508": "doll",
    "3509": "hang",
    "3510": "illes</w>",
    "3511": "zzy</w>",
    "3512": "omin",
    "3513": "storf</w>",
    "3514": "gour",
    "3515": "lik",
    "3516": "otte</w>",
    "3517": "encourt</w>",
    "3518": "scar",
    "3519": "kazu",
    "3520": "kand",
    "3521": "esh</w>",
    "3522": "oster",
    "3523": "ango</w>",
    "3524": "iya</w>",
    "3525": "emann</w>",
    "3526": "ø",
    "3527": "hiko</w>",
    "3528": "nette</w>",
    "3529": "ammi</w>",
    "3530": "mall",
    "3531": "ör",
    "3532": "chit",
    "3533": "ovsky</w>",
    "3534": "lew",
    "3535": "sum",
    "3536": "opoulos</w>",
    "3537": "fors</w>",
    "3538": "sele</w>",
    "3539": "grö",
    "3540": "onov</w>",
    "3541": "dik",
    "3542": "ková</w>",
    "3543": "'</w>",
    "3544": "\",</w>",
    "3545": "but</w>",
    "3546": "13</w>",
    "3547": "say</w>",
    "3548": "get</w>",
    "3549": "them</w>",
    "3550": "rock</w>",
    "3551": "ages</w>",
    "3552": "now</w>",
    "3553": "view</w>",
    "3554": "pad</w>",
    "3555": "space</w>",
    "3556": "plate</w>",
    "3557": "did</w>",
    "3558": "17</w>",
    "3559": "23</w>",
    "3560": "]</w>",
    "3561": "she</w>",
    "3562": "park</w>",
    "3563": "law</w>",
    "3564": "force</w>",
    "3565": "court</w>",
    "3566": "19</w>",
    "3567": "10</w>",
    "3568": "time</w>",
    "3569": "acts</w>",
    "3570": "singer</w>",
    "3571": "mc</w>",
    "3572": "wall</w>",
    "3573": "washing</w>",
    "3574": "hard</w>",
    "3575": "group</w>",
    "3576": "thus</w>",
    "3577": "pens</w>",
    "3578": "won</w>",
    "3579": "bush</w>",
    "3580": "roll</w>",
    "3581": "gang</w>",
    "3582": "anz</w>",
    "3583": "thorpe</w>",
    "3584": "pron",
    "3585": "eden</w>",
    "3586": "wings</w>",
    "3587": "kings</w>",
    "3588": "thy</w>",
    "3589": "16</w>",
    "3590": "light</w>",
    "3591": "far</w>",
    "3592": "hand</w>",
    "3593": "aling</w>",
    "3594": "aire</w>",
    "3595": "51</w>",
    "3596": "’</w>",
    "3597": "tree</w>",
    "3598": "core</w>",
    "3599": "44</w>",
    "3600": "54</w>",
    "3601": "omatic</w>",
    "3602": "otto</w>",
    "3603": "grams</w>",
    "3604": "forth</w>",
    "3605": "shell</w>",
    "3606": "3d</w>",
    "3607": "pole</w>",
    "3608": "diam",
    "3609": "sphere</w>",
    "3610": "wave</w>",
    "3611": "static</w>",
    "3612": "fields</w>",
    "3613": "imus</w>",
    "3614": "toid</w>",
    "3615": "pash",
    "3616": "taki</w>",
    "3617": "aman",
    "3618": "ullah</w>",
    "3619": "savi",
    "3620": "reich</w>",
    "3621": "6th</w>",
    "3622": "3rd</w>",
    "3623": "br</w>",
    "3624": "foot</w>",
    "3625": "bottom</w>",
    "3626": "ì</w>",
    "3627": "egg",
    "3628": "beard</w>",
    "3629": "64</w>",
    "3630": "tip</w>",
    "3631": "xx</w>",
    "3632": "eren</w>",
    "3633": "steen</w>",
    "3634": "lain</w>",
    "3635": "rio</w>",
    "3636": "mine</w>",
    "3637": "drop</w>",
    "3638": "oh</w>",
    "3639": "suit</w>",
    "3640": "castle</w>",
    "3641": "von</w>",
    "3642": "fit</w>",
    "3643": "cars</w>",
    "3644": "game</w>",
    "3645": "ural</w>",
    "3646": "jam</w>",
    "3647": "onym</w>",
    "3648": "yat</w>",
    "3649": "rid</w>",
    "3650": "cath",
    "3651": "row</w>",
    "3652": "boys</w>",
    "3653": "devi",
    "3654": "nova</w>",
    "3655": "meter</w>",
    "3656": "tails</w>",
    "3657": "blac",
    "3658": "prov",
    "3659": "53</w>",
    "3660": "hex",
    "3661": "stands</w>",
    "3662": "viruses</w>",
    "3663": "dane</w>",
    "3664": "ross</w>",
    "3665": "archaean</w>",
    "3666": "thermo",
    "3667": "semi",
    "3668": "bone</w>",
    "3669": "olin</w>",
    "3670": "mechan",
    "3671": "paw</w>",
    "3672": "tiv",
    "3673": "aid</w>",
    "3674": "eur</w>",
    "3675": "gging</w>",
    "3676": "yor",
    "3677": "ave</w>",
    "3678": "andy</w>",
    "3679": "sexual</w>",
    "3680": "monde</w>",
    "3681": "walker</w>",
    "3682": "ored</w>",
    "3683": "uss</w>",
    "3684": "mail</w>",
    "3685": "sians</w>",
    "3686": "ywood</w>",
    "3687": "meta",
    "3688": "grave</w>",
    "3689": "photo",
    "3690": "gut</w>",
    "3691": "tax",
    "3692": "ml</w>",
    "3693": "fels</w>",
    "3694": "grey",
    "3695": "xia</w>",
    "3696": "zhi</w>",
    "3697": "ège</w>",
    "3698": "bull",
    "3699": "hana</w>",
    "3700": "dot</w>",
    "3701": "roy</w>",
    "3702": "med</w>",
    "3703": "geo",
    "3704": "cap</w>",
    "3705": "camp</w>",
    "3706": "mez",
    "3707": "anic</w>",
    "3708": "nov</w>",
    "3709": "jon</w>",
    "3710": "rat</w>",
    "3711": "raz",
    "3712": "rico</w>",
    "3713": "matic</w>",
    "3714": "orth",
    "3715": "sively</w>",
    "3716": "physi",
    "3717": "ads</w>",
    "3718": "icity</w>",
    "3719": "fc</w>",
    "3720": "fies</w>",
    "3721": "ects</w>",
    "3722": "shall</w>",
    "3723": "mod",
    "3724": "ssi</w>",
    "3725": "pool</w>",
    "3726": "ced</w>",
    "3727": "equi",
    "3728": "cola</w>",
    "3729": "poe",
    "3730": "bling</w>",
    "3731": "bold</w>",
    "3732": "aging</w>",
    "3733": "prol",
    "3734": "motor",
    "3735": "hai</w>",
    "3736": "fold</w>",
    "3737": "dges</w>",
    "3738": "wire</w>",
    "3739": "lug",
    "3740": "class",
    "3741": "trac",
    "3742": "eco</w>",
    "3743": "lis</w>",
    "3744": "nd</w>",
    "3745": "mov",
    "3746": "mv</w>",
    "3747": "nä",
    "3748": "zoni</w>",
    "3749": "pac",
    "3750": "door",
    "3751": "owing</w>",
    "3752": "ticus</w>",
    "3753": "mittel",
    "3754": "und</w>",
    "3755": "dah",
    "3756": "delic",
    "3757": "olite</w>",
    "3758": "nina</w>",
    "3759": "00m</w>",
    "3760": "ð",
    "3761": "ór</w>",
    "3762": "jos</w>",
    "3763": "ym",
    "3764": "wes</w>",
    "3765": "hans",
    "3766": "atton</w>",
    "3767": "sam</w>",
    "3768": "tina</w>",
    "3769": "haw",
    "3770": "bers</w>",
    "3771": "esse</w>",
    "3772": "glad",
    "3773": "pas</w>",
    "3774": "hoe</w>",
    "3775": "alities</w>",
    "3776": "elled</w>",
    "3777": "nt</w>",
    "3778": "book",
    "3779": "bergen</w>",
    "3780": "schen",
    "3781": "dive</w>",
    "3782": "steel",
    "3783": "phot",
    "3784": "thu",
    "3785": "kamp</w>",
    "3786": "vert</w>",
    "3787": "ening</w>",
    "3788": "lei</w>",
    "3789": "fir",
    "3790": "jit</w>",
    "3791": "wing",
    "3792": "overs</w>",
    "3793": "jong</w>",
    "3794": "path",
    "3795": "para</w>",
    "3796": "sco",
    "3797": "lur",
    "3798": "ging",
    "3799": "breast",
    "3800": "fall",
    "3801": "dir</w>",
    "3802": "horst</w>",
    "3803": "sou</w>",
    "3804": "tsu</w>",
    "3805": "kun</w>",
    "3806": "urs</w>",
    "3807": "tee</w>",
    "3808": "gey</w>",
    "3809": "rain",
    "3810": "aco</w>",
    "3811": "ous",
    "3812": "wn</w>",
    "3813": "mak",
    "3814": "wei</w>",
    "3815": "zhu",
    "3816": "sive</w>",
    "3817": "pim",
    "3818": "oth",
    "3819": "führer</w>",
    "3820": "schule</w>",
    "3821": "sah",
    "3822": "kyō</w>",
    "3823": "osi",
    "3824": "grin",
    "3825": "wei",
    "3826": "seth</w>",
    "3827": "tionary</w>",
    "3828": "brig",
    "3829": "ele",
    "3830": "cog",
    "3831": "leigh</w>",
    "3832": "orm",
    "3833": "roth",
    "3834": "swan",
    "3835": "tow",
    "3836": "ingham</w>",
    "3837": "dham</w>",
    "3838": "yat",
    "3839": "eley</w>",
    "3840": "eps</w>",
    "3841": "bai</w>",
    "3842": "tively</w>",
    "3843": "track",
    "3844": "chem</w>",
    "3845": "locks</w>",
    "3846": "cof",
    "3847": "swin",
    "3848": "burne</w>",
    "3849": "onom",
    "3850": "masa</w>",
    "3851": "hou</w>",
    "3852": "mb",
    "3853": "boarding</w>",
    "3854": "sr",
    "3855": "thier</w>",
    "3856": "evsky</w>",
    "3857": "ô</w>",
    "3858": "ún</w>",
    "3859": "bbs</w>",
    "3860": "shy</w>",
    "3861": "dians</w>",
    "3862": "anum</w>",
    "3863": "metro",
    "3864": "excit",
    "3865": "dant</w>",
    "3866": "ili</w>",
    "3867": "tyrann",
    "3868": "eil",
    "3869": "wyn",
    "3870": "circum",
    "3871": "eme",
    "3872": "rel",
    "3873": "tá",
    "3874": "mega",
    "3875": "tara</w>",
    "3876": "palaeo",
    "3877": "lite</w>",
    "3878": "een</w>",
    "3879": "mers</w>",
    "3880": "anese</w>",
    "3881": "lak",
    "3882": "mala</w>",
    "3883": "elier</w>",
    "3884": "epa</w>",
    "3885": "bun</w>",
    "3886": "arium</w>",
    "3887": "hes",
    "3888": "ames</w>",
    "3889": "jung</w>",
    "3890": "monte",
    "3891": "cand",
    "3892": "atlan",
    "3893": "ards</w>",
    "3894": "cas</w>",
    "3895": "lation</w>",
    "3896": "thes",
    "3897": "wend",
    "3898": "imperi",
    "3899": "wed",
    "3900": "anning</w>",
    "3901": "pian",
    "3902": "sheng</w>",
    "3903": "bart</w>",
    "3904": "jug",
    "3905": "vey</w>",
    "3906": "cel</w>",
    "3907": "acy</w>",
    "3908": "+",
    "3909": "agi</w>",
    "3910": "nez</w>",
    "3911": "berman</w>",
    "3912": "tay",
    "3913": "tann",
    "3914": "woo",
    "3915": "ig</w>",
    "3916": "pelt</w>",
    "3917": "neop",
    "3918": "nh</w>",
    "3919": "ump</w>",
    "3920": "0m</w>",
    "3921": "aran</w>",
    "3922": "thy",
    "3923": "bey</w>",
    "3924": "music",
    "3925": "after",
    "3926": "nich",
    "3927": "bier",
    "3928": "cie</w>",
    "3929": "trou",
    "3930": "ike</w>",
    "3931": "toshi</w>",
    "3932": "staf",
    "3933": ";",
    "3934": "lans</w>",
    "3935": "dow",
    "3936": "davi",
    "3937": "shop",
    "3938": "yam</w>",
    "3939": "nico</w>",
    "3940": "push",
    "3941": "neville</w>",
    "3942": "gm</w>",
    "3943": "bic</w>",
    "3944": "aci</w>",
    "3945": "veg",
    "3946": "best",
    "3947": "city",
    "3948": "ote</w>",
    "3949": "braw",
    "3950": "alder",
    "3951": "singen</w>",
    "3952": "eras</w>",
    "3953": "ding",
    "3954": "oes</w>",
    "3955": "anya</w>",
    "3956": "rey</w>",
    "3957": "kag",
    "3958": "mayer</w>",
    "3959": "eye",
    "3960": "lingu",
    "3961": "uz</w>",
    "3962": "rah",
    "3963": "uv",
    "3964": "scre",
    "3965": "zz</w>",
    "3966": "kram",
    "3967": "amo</w>",
    "3968": "east",
    "3969": "rox",
    "3970": "tium</w>",
    "3971": "bach",
    "3972": "alg",
    "3973": "18",
    "3974": "shiv",
    "3975": "yad",
    "3976": "adri",
    "3977": "stor</w>",
    "3978": "dá",
    "3979": "ith",
    "3980": "amal",
    "3981": "alb",
    "3982": "tand",
    "3983": "gna</w>",
    "3984": "tivity</w>",
    "3985": "allu",
    "3986": "sho</w>",
    "3987": "tionists</w>",
    "3988": "antly</w>",
    "3989": "mour",
    "3990": "imper",
    "3991": "dov</w>",
    "3992": "aine</w>",
    "3993": "bread",
    "3994": "clin",
    "3995": "aco",
    "3996": "100",
    "3997": "bure",
    "3998": "autom",
    "3999": "emakers</w>",
    "4000": "emo</w>",
    "4001": "psycho",
    "4002": "500",
    "4003": "story",
    "4004": "paleo",
    "4005": "jiang</w>",
    "4006": "dium</w>",
    "4007": "heart",
    "4008": "ozoa</w>",
    "4009": "hypo",
    "4010": "aps</w>",
    "4011": "wer</w>",
    "4012": "vian</w>",
    "4013": "beu",
    "4014": "endra</w>",
    "4015": "oned</w>",
    "4016": "tle</w>",
    "4017": "brec",
    "4018": "ester</w>",
    "4019": "mec",
    "4020": "evers</w>",
    "4021": "ately</w>",
    "4022": "ala",
    "4023": "dun</w>",
    "4024": "audi",
    "4025": "omi",
    "4026": "awar",
    "4027": "stedt</w>",
    "4028": "bot</w>",
    "4029": "sco</w>",
    "4030": "weiler</w>",
    "4031": "erman</w>",
    "4032": "pha</w>",
    "4033": "uso</w>",
    "4034": "igan</w>",
    "4035": "oles</w>",
    "4036": "tain",
    "4037": "morph",
    "4038": "osi</w>",
    "4039": "georgi",
    "4040": "vog",
    "4041": "lum</w>",
    "4042": "roo",
    "4043": "lism</w>",
    "4044": "colom",
    "4045": "sas</w>",
    "4046": "seau</w>",
    "4047": "paci",
    "4048": "lol",
    "4049": "tation</w>",
    "4050": "gorg",
    "4051": "eur",
    "4052": "baum</w>",
    "4053": "rose",
    "4054": "bé</w>",
    "4055": "hob",
    "4056": "lich</w>",
    "4057": "drum",
    "4058": "gr</w>",
    "4059": "kt</w>",
    "4060": "sl</w>",
    "4061": "omas</w>",
    "4062": "if",
    "4063": "even",
    "4064": "tura</w>",
    "4065": "oxy",
    "4066": "sne",
    "4067": "okon",
    "4068": "gram",
    "4069": "tro</w>",
    "4070": "timo</w>",
    "4071": "greeng",
    "4072": "kovsky</w>",
    "4073": "itta</w>",
    "4074": "lap",
    "4075": "aye</w>",
    "4076": "mé</w>",
    "4077": "io",
    "4078": "vik",
    "4079": "phy</w>",
    "4080": "wed</w>",
    "4081": "lid",
    "4082": "zoa</w>",
    "4083": "prin",
    "4084": "cc",
    "4085": "zet",
    "4086": "gé",
    "4087": "ault</w>",
    "4088": "ender</w>",
    "4089": "alists</w>",
    "4090": "wana</w>",
    "4091": "hos</w>",
    "4092": "jian</w>",
    "4093": "hann",
    "4094": "omb</w>",
    "4095": "inae</w>",
    "4096": "agni</w>",
    "4097": "bk</w>",
    "4098": "game",
    "4099": "nyk</w>",
    "4100": "dot",
    "4101": "pant",
    "4102": "tc</w>",
    "4103": "tong",
    "4104": "virtu",
    "4105": "spur",
    "4106": "hash",
    "4107": "isch",
    "4108": "cook",
    "4109": "rine</w>",
    "4110": "sler</w>",
    "4111": "koll",
    "4112": "alus</w>",
    "4113": "tala</w>",
    "4114": "aa",
    "4115": "qur",
    "4116": "bann",
    "4117": "eph",
    "4118": "ld",
    "4119": "ongo</w>",
    "4120": "att</w>",
    "4121": "pod",
    "4122": "ord",
    "4123": "enstein</w>",
    "4124": "scheid</w>",
    "4125": "edy</w>",
    "4126": "hiro</w>",
    "4127": "wolf",
    "4128": "luci",
    "4129": "ecker",
    "4130": "dim",
    "4131": "bari</w>",
    "4132": "stran",
    "4133": "sri",
    "4134": "lers</w>",
    "4135": "pharmac",
    "4136": "cec",
    "4137": "zig",
    "4138": "heimer</w>",
    "4139": "vira</w>",
    "4140": "span",
    "4141": "с",
    "4142": "vre</w>",
    "4143": "holm",
    "4144": "gne</w>",
    "4145": "ete</w>",
    "4146": "dif",
    "4147": "lton</w>",
    "4148": "stere",
    "4149": "zano</w>",
    "4150": "tek</w>",
    "4151": "gho",
    "4152": "witt",
    "4153": "и",
    "4154": "ahi</w>",
    "4155": "navar",
    "4156": "stanis",
    "4157": "anto</w>",
    "4158": "chet",
    "4159": "castell",
    "4160": "rant</w>",
    "4161": "rup",
    "4162": "ardi",
    "4163": "dos",
    "4164": "stom",
    "4165": "acies</w>",
    "4166": "tian",
    "4167": "nitz</w>",
    "4168": "cock",
    "4169": "anim",
    "4170": "int",
    "4171": "elec",
    "4172": "eser</w>",
    "4173": "spot",
    "4174": "ail",
    "4175": "aku</w>",
    "4176": "geis",
    "4177": "ide",
    "4178": "yasu</w>",
    "4179": "unes</w>",
    "4180": "thar",
    "4181": "lae</w>",
    "4182": "mot",
    "4183": "asan</w>",
    "4184": "jaf",
    "4185": "oko</w>",
    "4186": "sphen",
    "4187": "nid",
    "4188": "deh</w>",
    "4189": "ofer</w>",
    "4190": "aja</w>",
    "4191": "parti",
    "4192": "spon",
    "4193": "champ",
    "4194": "won",
    "4195": "yō</w>",
    "4196": "iles</w>",
    "4197": "uchi</w>",
    "4198": "vä",
    "4199": "omy",
    "4200": "hammar</w>",
    "4201": "gn</w>",
    "4202": "ğ",
    "4203": "caer",
    "4204": "goy",
    "4205": "ân",
    "4206": "dum",
    "4207": "chab",
    "4208": "und",
    "4209": "yun",
    "4210": "enga</w>",
    "4211": "oye</w>",
    "4212": "bernar",
    "4213": "dak",
    "4214": "viv",
    "4215": "zza</w>",
    "4216": "khe",
    "4217": "edit",
    "4218": "aster",
    "4219": "itis</w>",
    "4220": "aram</w>",
    "4221": "ourt</w>",
    "4222": "base",
    "4223": "day",
    "4224": "ady</w>",
    "4225": "zers</w>",
    "4226": "kie",
    "4227": "ffer</w>",
    "4228": "doo",
    "4229": "wir",
    "4230": "jig",
    "4231": "achi</w>",
    "4232": "tis",
    "4233": "thel",
    "4234": "eles</w>",
    "4235": "sot",
    "4236": "aia</w>",
    "4237": "äl",
    "4238": "igh",
    "4239": "itas</w>",
    "4240": "pall",
    "4241": "eder</w>",
    "4242": "kü",
    "4243": "shul",
    "4244": "rex",
    "4245": "ū</w>",
    "4246": "vla",
    "4247": "sington</w>",
    "4248": "nett</w>",
    "4249": "wicz</w>",
    "4250": "eber",
    "4251": "ort",
    "4252": "ega</w>",
    "4253": "schu",
    "4254": "shre",
    "4255": "dark",
    "4256": "eria</w>",
    "4257": "blad</w>",
    "4258": "pf",
    "4259": "iden</w>",
    "4260": "dram",
    "4261": "atur",
    "4262": "albi",
    "4263": "kä",
    "4264": "elin</w>",
    "4265": "lek",
    "4266": "ack",
    "4267": "cot",
    "4268": "asca</w>",
    "4269": "ook</w>",
    "4270": "mei",
    "4271": "auri",
    "4272": "giu",
    "4273": "mati</w>",
    "4274": "ners</w>",
    "4275": "kumar</w>",
    "4276": "rish",
    "4277": "asco</w>",
    "4278": "stal</w>",
    "4279": "hart",
    "4280": "seid",
    "4281": "gros",
    "4282": "sö",
    "4283": "zier</w>",
    "4284": "hani</w>",
    "4285": "afa</w>",
    "4286": "roz",
    "4287": "oot</w>",
    "4288": "pey",
    "4289": "fow",
    "4290": "kus</w>",
    "4291": "ment",
    "4292": "otes</w>",
    "4293": "ligh",
    "4294": "kner</w>",
    "4295": "onians</w>",
    "4296": "kog",
    "4297": "unc",
    "4298": "rell</w>",
    "4299": "gli",
    "4300": "atti</w>",
    "4301": "sí",
    "4302": "aly",
    "4303": "koh",
    "4304": "е",
    "4305": "ganj</w>",
    "4306": "yle</w>",
    "4307": "ū",
    "4308": "mahi",
    "4309": "micha",
    "4310": "bani",
    "4311": "sob",
    "4312": "azz",
    "4313": "enger</w>",
    "4314": "amm",
    "4315": "châ",
    "4316": "jur",
    "4317": "liano</w>",
    "4318": "bitt</w>",
    "4319": "heim",
    "4320": "cler",
    "4321": "olus</w>",
    "4322": "cht</w>",
    "4323": "ise",
    "4324": "utt",
    "4325": "่</w>",
    "4326": "conn",
    "4327": "koo",
    "4328": "rans",
    "4329": "herr",
    "4330": "neo",
    "4331": "vr",
    "4332": "dong",
    "4333": "ander",
    "4334": "brunn</w>",
    "4335": "yya</w>",
    "4336": "unic",
    "4337": "hör",
    "4338": "isa",
    "4339": "ppa</w>",
    "4340": "gay",
    "4341": "yang",
    "4342": "akov</w>",
    "4343": "eke</w>",
    "4344": "kut",
    "4345": "bul</w>",
    "4346": "čić</w>",
    "4347": "oides</w>",
    "4348": "toku</w>",
    "4349": "ná",
    "4350": "simon",
    "4351": "ahan</w>",
    "4352": "ibo</w>",
    "4353": "ami",
    "4354": "nut",
    "4355": "gus",
    "4356": "ć",
    "4357": "itsch</w>",
    "4358": "zha",
    "4359": "jär",
    "4360": "sä",
    "4361": "nea",
    "4362": "sg",
    "4363": "vak",
    "4364": "chthys</w>",
    "4365": "ends</w>",
    "4366": "name</w>",
    "4367": "word</w>",
    "4368": "put</w>",
    "4369": "this</w>",
    "4370": ").</w>",
    "4371": ":</w>",
    "4372": "not</w>",
    "4373": "700</w>",
    "4374": "45</w>",
    "4375": "some</w>",
    "4376": "kind</w>",
    "4377": "\".</w>",
    "4378": "they</w>",
    "4379": "people</w>",
    "4380": "due</w>",
    "4381": "most</w>",
    "4382": "china</w>",
    "4383": "like</w>",
    "4384": "still</w>",
    "4385": "team</w>",
    "4386": "angle</w>",
    "4387": "sir</w>",
    "4388": "5th</w>",
    "4389": "weight</w>",
    "4390": "78</w>",
    "4391": "21</w>",
    "4392": "0</w>",
    "4393": "rain</w>",
    "4394": "ships</w>",
    "4395": "over</w>",
    "4396": "power</w>",
    "4397": "formations</w>",
    "4398": "groups</w>",
    "4399": "city</w>",
    "4400": "alan</w>",
    "4401": "obe</w>",
    "4402": "sara</w>",
    "4403": "crypto",
    "4404": "died</w>",
    "4405": "ended</w>",
    "4406": "41</w>",
    "4407": "apple</w>",
    "4408": "using</w>",
    "4409": "him</w>",
    "4410": "bill</w>",
    "4411": "alling</w>",
    "4412": "young</w>",
    "4413": "under</w>",
    "4414": "base</w>",
    "4415": "version</w>",
    "4416": "fat</w>",
    "4417": "bad</w>",
    "4418": "lot</w>",
    "4419": "structure</w>",
    "4420": "pest</w>",
    "4421": "face</w>",
    "4422": "15</w>",
    "4423": "state</w>",
    "4424": "nations</w>",
    "4425": "26</w>",
    "4426": "ways</w>",
    "4427": "sport</w>",
    "4428": "populated</w>",
    "4429": "shore</w>",
    "4430": "church</w>",
    "4431": "hold</w>",
    "4432": "wine</w>",
    "4433": "stand</w>",
    "4434": "workers</w>",
    "4435": "asia</w>",
    "4436": "stars</w>",
    "4437": "hall</w>",
    "4438": "top</w>",
    "4439": "games</w>",
    "4440": "gum</w>",
    "4441": "card</w>",
    "4442": "sees</w>",
    "4443": "14</w>",
    "4444": "dwell</w>",
    "4445": "body</w>",
    "4446": "18</w>",
    "4447": "gender</w>",
    "4448": "krus",
    "4449": "syl",
    "4450": "unn</w>",
    "4451": "graves</w>",
    "4452": "pie</w>",
    "4453": "ground</w>",
    "4454": "\"\"</w>",
    "4455": "\"\".</w>",
    "4456": "ending</w>",
    "4457": "55</w>",
    "4458": "chemistry</w>",
    "4459": "hair</w>",
    "4460": "charged</w>",
    "4461": "stated</w>",
    "4462": "sized</w>",
    "4463": "5s</w>",
    "4464": "amu</w>",
    "4465": "hit</w>",
    "4466": "organ</w>",
    "4467": "iran</w>",
    "4468": "aren</w>",
    "4469": "path</w>",
    "4470": "beds</w>",
    "4471": "fari",
    "4472": "feu",
    "4473": "ories</w>",
    "4474": "shah</w>",
    "4475": "fighters</w>",
    "4476": "fell</w>",
    "4477": "tner</w>",
    "4478": "azzi</w>",
    "4479": "4th</w>",
    "4480": "mash",
    "4481": "boot",
    "4482": "ask</w>",
    "4483": "pan</w>",
    "4484": "hole</w>",
    "4485": "yuan</w>",
    "4486": "map</w>",
    "4487": "peric",
    "4488": "tone</w>",
    "4489": "writer</w>",
    "4490": "\"-</w>",
    "4491": "39</w>",
    "4492": "shift</w>",
    "4493": "8th</w>",
    "4494": "46</w>",
    "4495": "active</w>",
    "4496": "$</w>",
    "4497": "channel</w>",
    "4498": "eter",
    "4499": "dog</w>",
    "4500": "masters</w>",
    "4501": "fights</w>",
    "4502": "spec",
    "4503": "chloride</w>",
    "4504": "lab</w>",
    "4505": "tech</w>",
    "4506": "gui</w>",
    "4507": "teens</w>",
    "4508": "deep</w>",
    "4509": "zeal",
    "4510": "tang</w>",
    "4511": "zhou</w>",
    "4512": "fled</w>",
    "4513": "collec",
    "4514": "paper",
    "4515": "boats</w>",
    "4516": "cross</w>",
    "4517": "fires</w>",
    "4518": "60s</w>",
    "4519": "”.</w>",
    "4520": "street</w>",
    "4521": "aci",
    "4522": "oven</w>",
    "4523": "pot</w>",
    "4524": "mit</w>",
    "4525": "corn</w>",
    "4526": "rous</w>",
    "4527": "sight</w>",
    "4528": "stick</w>",
    "4529": "luck</w>",
    "4530": "ride</w>",
    "4531": "butter",
    "4532": "48</w>",
    "4533": "onte</w>",
    "4534": "wet</w>",
    "4535": "angles</w>",
    "4536": "dec</w>",
    "4537": "diab",
    "4538": "helsing",
    "4539": "xen</w>",
    "4540": "passes</w>",
    "4541": "abra",
    "4542": "lining</w>",
    "4543": "trophic</w>",
    "4544": "hang</w>",
    "4545": "vice</w>",
    "4546": "lift</w>",
    "4547": "sat</w>",
    "4548": "febr",
    "4549": "yes</w>",
    "4550": "cope</w>",
    "4551": "nets</w>",
    "4552": "heel</w>",
    "4553": "coat</w>",
    "4554": "hood</w>",
    "4555": "chou",
    "4556": "fim</w>",
    "4557": "pee</w>",
    "4558": "erie</w>",
    "4559": "grounds</w>",
    "4560": "theism</w>",
    "4561": "ozu</w>",
    "4562": "evo",
    "4563": "pag",
    "4564": "idi</w>",
    "4565": "plane</w>",
    "4566": "genes</w>",
    "4567": "haven</w>",
    "4568": "tered</w>",
    "4569": "mol</w>",
    "4570": "kens</w>",
    "4571": "900</w>",
    "4572": "gel</w>",
    "4573": "yard</w>",
    "4574": "odia</w>",
    "4575": "film</w>",
    "4576": "conf",
    "4577": "titu",
    "4578": "voy",
    "4579": "wai",
    "4580": "mea</w>",
    "4581": "tres</w>",
    "4582": "miller</w>",
    "4583": "rna</w>",
    "4584": "lana</w>",
    "4585": "victor",
    "4586": "dm</w>",
    "4587": "inver",
    "4588": "rooms</w>",
    "4589": "sequ",
    "4590": "villa</w>",
    "4591": "fans</w>",
    "4592": "lui</w>",
    "4593": "uku</w>",
    "4594": "38</w>",
    "4595": "mia</w>",
    "4596": "espace</w>",
    "4597": "zilla</w>",
    "4598": "bug</w>",
    "4599": "skim",
    "4600": "drops</w>",
    "4601": "zig</w>",
    "4602": "polar</w>",
    "4603": "rus</w>",
    "4604": "mons</w>",
    "4605": "mac</w>",
    "4606": "dome</w>",
    "4607": "saud</w>",
    "4608": "decor",
    "4609": "theria</w>",
    "4610": "belle</w>",
    "4611": "yoko</w>",
    "4612": "ē",
    "4613": "tide</w>",
    "4614": "hail",
    "4615": "hippoc",
    "4616": "eon</w>",
    "4617": "osecond</w>",
    "4618": "riot</w>",
    "4619": "eo",
    "4620": "tio</w>",
    "4621": "max</w>",
    "4622": "quanti",
    "4623": "mill</w>",
    "4624": "ieu</w>",
    "4625": "borne</w>",
    "4626": "ophytes</w>",
    "4627": "emma</w>",
    "4628": "iting</w>",
    "4629": "downs</w>",
    "4630": "db</w>",
    "4631": "pepper",
    "4632": "meat",
    "4633": "defl",
    "4634": "test",
    "4635": "eled</w>",
    "4636": "boxes</w>",
    "4637": "ip</w>",
    "4638": "01</w>",
    "4639": "oras</w>",
    "4640": "–",
    "4641": "dah</w>",
    "4642": "beth</w>",
    "4643": "wig</w>",
    "4644": "ogue</w>",
    "4645": "esses</w>",
    "4646": "abduc",
    "4647": "lycop",
    "4648": "grove</w>",
    "4649": "dism</w>",
    "4650": "pick",
    "4651": "æthel",
    "4652": "bath</w>",
    "4653": "anders</w>",
    "4654": "yab",
    "4655": "ø</w>",
    "4656": "penny</w>",
    "4657": "omer",
    "4658": "nest</w>",
    "4659": "inu",
    "4660": "loo</w>",
    "4661": "amy</w>",
    "4662": "maa</w>",
    "4663": "iana</w>",
    "4664": "dad</w>",
    "4665": "tae</w>",
    "4666": "iu</w>",
    "4667": "moldov",
    "4668": "eanu</w>",
    "4669": "ô",
    "4670": "sve",
    "4671": "beng",
    "4672": "tick</w>",
    "4673": "feather</w>",
    "4674": "spitze</w>",
    "4675": "gp</w>",
    "4676": "utter</w>",
    "4677": "pour</w>",
    "4678": "zug",
    "4679": "pia</w>",
    "4680": "sall</w>",
    "4681": "iv</w>",
    "4682": "fk</w>",
    "4683": "bid</w>",
    "4684": "bahn</w>",
    "4685": "entation</w>",
    "4686": "eln</w>",
    "4687": "dora</w>",
    "4688": "0th</w>",
    "4689": "kata</w>",
    "4690": "cali",
    "4691": "alas",
    "4692": "cula</w>",
    "4693": "cw</w>",
    "4694": "dred</w>",
    "4695": "nick</w>",
    "4696": "keepers</w>",
    "4697": "bala</w>",
    "4698": "30s</w>",
    "4699": "pro</w>",
    "4700": "ranger</w>",
    "4701": "liga</w>",
    "4702": "öz",
    "4703": "chel</w>",
    "4704": "opp</w>",
    "4705": "ddle</w>",
    "4706": "offs</w>",
    "4707": "elton</w>",
    "4708": "hatt",
    "4709": "folk",
    "4710": "wang</w>",
    "4711": "eries</w>",
    "4712": "space",
    "4713": "comb</w>",
    "4714": "tata</w>",
    "4715": "posi",
    "4716": "hampton</w>",
    "4717": "’",
    "4718": "mation</w>",
    "4719": "acre</w>",
    "4720": "tians</w>",
    "4721": "dw",
    "4722": "iot</w>",
    "4723": "apis</w>",
    "4724": "tab</w>",
    "4725": "icon</w>",
    "4726": "dat</w>",
    "4727": "api</w>",
    "4728": "diana</w>",
    "4729": "50th</w>",
    "4730": "quil",
    "4731": "stad",
    "4732": "gl</w>",
    "4733": "rada</w>",
    "4734": "buda</w>",
    "4735": "ode</w>",
    "4736": "obi</w>",
    "4737": "vera</w>",
    "4738": "kyu</w>",
    "4739": "jet</w>",
    "4740": "taj",
    "4741": "eck",
    "4742": "jay</w>",
    "4743": "shō</w>",
    "4744": "cub",
    "4745": "riv",
    "4746": "alled</w>",
    "4747": "diya</w>",
    "4748": "domes",
    "4749": "free",
    "4750": "fertili",
    "4751": ">",
    "4752": "psittac",
    "4753": "organ",
    "4754": "analy",
    "4755": "refr",
    "4756": "ís</w>",
    "4757": "stu</w>",
    "4758": "nath</w>",
    "4759": "oly",
    "4760": "rung</w>",
    "4761": "amy",
    "4762": "pep",
    "4763": "jaya</w>",
    "4764": "oper",
    "4765": "rd</w>",
    "4766": "woods</w>",
    "4767": "malm</w>",
    "4768": "sala</w>",
    "4769": "ío</w>",
    "4770": "stun",
    "4771": "eld</w>",
    "4772": "lou</w>",
    "4773": "bility</w>",
    "4774": "shaw",
    "4775": "xes</w>",
    "4776": "cont",
    "4777": "kw",
    "4778": "gyeong",
    "4779": "roe</w>",
    "4780": "syndic",
    "4781": "kara",
    "4782": "kinder",
    "4783": "tort</w>",
    "4784": "tze</w>",
    "4785": "ode",
    "4786": "jing</w>",
    "4787": "ekman</w>",
    "4788": "ي</w>",
    "4789": "osauria</w>",
    "4790": "wald",
    "4791": "erl</w>",
    "4792": "dick</w>",
    "4793": "anal</w>",
    "4794": "vacc",
    "4795": "yad</w>",
    "4796": "moc",
    "4797": "ysis</w>",
    "4798": "ate",
    "4799": "èque</w>",
    "4800": "eul",
    "4801": "thorne</w>",
    "4802": "lington</w>",
    "4803": "baw",
    "4804": "kham",
    "4805": "brigh",
    "4806": "cole",
    "4807": "fare",
    "4808": "anor</w>",
    "4809": "sford</w>",
    "4810": "magh",
    "4811": "middle",
    "4812": "oke",
    "4813": "rick",
    "4814": "bridge",
    "4815": "wold</w>",
    "4816": "stow</w>",
    "4817": "thir",
    "4818": "upp",
    "4819": "eter</w>",
    "4820": "wim",
    "4821": "mus</w>",
    "4822": "fluctu",
    "4823": "bio</w>",
    "4824": "toh</w>",
    "4825": "pastor",
    "4826": "breit",
    "4827": "opus</w>",
    "4828": "rode</w>",
    "4829": "manu",
    "4830": "plain",
    "4831": "aug",
    "4832": "idal</w>",
    "4833": "metall",
    "4834": "string",
    "4835": "coffe",
    "4836": "ehouse</w>",
    "4837": "alem",
    "4838": "pods</w>",
    "4839": "dros</w>",
    "4840": "time",
    "4841": "amed</w>",
    "4842": "tice</w>",
    "4843": "guru</w>",
    "4844": "mai</w>",
    "4845": "tit</w>",
    "4846": "sina</w>",
    "4847": "vius</w>",
    "4848": "initi",
    "4849": "fm</w>",
    "4850": "garde</w>",
    "4851": "garh</w>",
    "4852": "islam",
    "4853": "sheh",
    "4854": "dang</w>",
    "4855": "kia</w>",
    "4856": "kr</w>",
    "4857": "puram</w>",
    "4858": "iro",
    "4859": "gs",
    "4860": "tana</w>",
    "4861": "vent</w>",
    "4862": "zana</w>",
    "4863": "oway</w>",
    "4864": "categor",
    "4865": "aton</w>",
    "4866": "cran",
    "4867": "aud",
    "4868": "moor</w>",
    "4869": "champ</w>",
    "4870": "metr",
    "4871": "eros</w>",
    "4872": "engo</w>",
    "4873": "bim",
    "4874": "fum",
    "4875": "inate</w>",
    "4876": "toler",
    "4877": "eds</w>",
    "4878": "ski",
    "4879": "cal</w>",
    "4880": "sympath",
    "4881": "ory",
    "4882": "tting</w>",
    "4883": "word",
    "4884": "optera</w>",
    "4885": "tress</w>",
    "4886": "ambu",
    "4887": "shou",
    "4888": "brock",
    "4889": "sci</w>",
    "4890": "wb</w>",
    "4891": "gir</w>",
    "4892": "mane</w>",
    "4893": "û",
    "4894": "neutr",
    "4895": "dé</w>",
    "4896": "dong</w>",
    "4897": "mee</w>",
    "4898": "hin</w>",
    "4899": "illumin",
    "4900": "otype</w>",
    "4901": "ə</w>",
    "4902": "jd</w>",
    "4903": "rath",
    "4904": "haplo",
    "4905": "pura</w>",
    "4906": "char</w>",
    "4907": "fr</w>",
    "4908": "cato</w>",
    "4909": "veness</w>",
    "4910": "tras</w>",
    "4911": "malin",
    "4912": "german",
    "4913": "teur</w>",
    "4914": "contempor",
    "4915": "eous</w>",
    "4916": "amphi",
    "4917": "ridae</w>",
    "4918": "arity</w>",
    "4919": "trum",
    "4920": "š</w>",
    "4921": "ü</w>",
    "4922": "kana</w>",
    "4923": "aji</w>",
    "4924": "este</w>",
    "4925": "hij",
    "4926": "mina</w>",
    "4927": "dze</w>",
    "4928": "в</w>",
    "4929": "и</w>",
    "4930": "л",
    "4931": "hawks</w>",
    "4932": "dari",
    "4933": "essa</w>",
    "4934": "copper",
    "4935": "gua</w>",
    "4936": "castel",
    "4937": "gem</w>",
    "4938": "spheric</w>",
    "4939": "nac",
    "4940": "switch",
    "4941": "lof",
    "4942": "tilla</w>",
    "4943": "bela</w>",
    "4944": "zio</w>",
    "4945": "brau",
    "4946": "tig",
    "4947": "vivi",
    "4948": "iman</w>",
    "4949": "tot",
    "4950": "duct</w>",
    "4951": "teh</w>",
    "4952": "yen",
    "4953": "ared</w>",
    "4954": "koski</w>",
    "4955": "miz",
    "4956": "ibi</w>",
    "4957": "ruz</w>",
    "4958": "roun",
    "4959": "bd</w>",
    "4960": "croft</w>",
    "4961": "erton</w>",
    "4962": "enzo</w>",
    "4963": "cyclo",
    "4964": "hong",
    "4965": "pered</w>",
    "4966": "christi",
    "4967": "hath",
    "4968": "shad",
    "4969": "ican</w>",
    "4970": "plot",
    "4971": "brecht</w>",
    "4972": "codice_",
    "4973": "yori</w>",
    "4974": "anch",
    "4975": "lated</w>",
    "4976": "barbar",
    "4977": "gea</w>",
    "4978": "scape</w>",
    "4979": "chrys",
    "4980": "bess",
    "4981": "kirk",
    "4982": "17",
    "4983": "bair",
    "4984": "î",
    "4985": "foss</w>",
    "4986": "nad</w>",
    "4987": "sty</w>",
    "4988": "tingen</w>",
    "4989": "gular</w>",
    "4990": "anni",
    "4991": "dman</w>",
    "4992": "owska</w>",
    "4993": "ń</w>",
    "4994": "buck</w>",
    "4995": "gert</w>",
    "4996": "raf</w>",
    "4997": "ilers</w>",
    "4998": "brou",
    "4999": "atal</w>",
    "5000": "sper",
    "5001": "dang",
    "5002": "rang</w>",
    "5003": "cr</w>",
    "5004": "bf</w>",
    "5005": "oti",
    "5006": "zim",
    "5007": "nation",
    "5008": "wat</w>",
    "5009": "cham</w>",
    "5010": "lep",
    "5011": "chas</w>",
    "5012": "ologically</w>",
    "5013": "clair",
    "5014": "dub",
    "5015": "gue</w>",
    "5016": "secre",
    "5017": "opathy</w>",
    "5018": "bick",
    "5019": "scru",
    "5020": "glos",
    "5021": "mutag",
    "5022": "ghts</w>",
    "5023": "finger",
    "5024": "idad</w>",
    "5025": "phen",
    "5026": "reson",
    "5027": "linger</w>",
    "5028": "scal",
    "5029": "bent",
    "5030": "musi",
    "5031": "nea</w>",
    "5032": "bei</w>",
    "5033": "velle</w>",
    "5034": "tenberg</w>",
    "5035": "meyer</w>",
    "5036": "acon",
    "5037": "exc",
    "5038": "vou",
    "5039": "chers</w>",
    "5040": "bok",
    "5041": "dina</w>",
    "5042": "chim",
    "5043": "oning</w>",
    "5044": "ib</w>",
    "5045": "gao</w>",
    "5046": "aded</w>",
    "5047": "swi",
    "5048": "dent</w>",
    "5049": "zations</w>",
    "5050": "mü",
    "5051": "agua</w>",
    "5052": "zil",
    "5053": "kunst",
    "5054": "icki</w>",
    "5055": "inet</w>",
    "5056": "fari</w>",
    "5057": "rist</w>",
    "5058": "tah</w>",
    "5059": "ós</w>",
    "5060": "spac",
    "5061": "arin</w>",
    "5062": "boun",
    "5063": "lass</w>",
    "5064": "jow",
    "5065": "žić</w>",
    "5066": "amen</w>",
    "5067": "frag",
    "5068": "forest",
    "5069": "vic</w>",
    "5070": "iras</w>",
    "5071": "dax</w>",
    "5072": "pah</w>",
    "5073": "esto</w>",
    "5074": "tua</w>",
    "5075": "plum",
    "5076": "orn</w>",
    "5077": "ables</w>",
    "5078": "td</w>",
    "5079": "unda</w>",
    "5080": "ytes</w>",
    "5081": "race",
    "5082": "ees</w>",
    "5083": "elis</w>",
    "5084": "giann",
    "5085": "tine</w>",
    "5086": "moun",
    "5087": "jil",
    "5088": "drop",
    "5089": "oan</w>",
    "5090": "queens",
    "5091": "guay",
    "5092": "lla</w>",
    "5093": "shahi</w>",
    "5094": "oste",
    "5095": "wada</w>",
    "5096": "lal</w>",
    "5097": "eat",
    "5098": "jor</w>",
    "5099": "lex</w>",
    "5100": "hawk",
    "5101": "elli",
    "5102": "brac",
    "5103": "flan",
    "5104": "barn",
    "5105": "kum</w>",
    "5106": "assa</w>",
    "5107": "shon",
    "5108": "brin",
    "5109": "shag",
    "5110": "burn",
    "5111": "marqu",
    "5112": "sor</w>",
    "5113": "dai</w>",
    "5114": "ces",
    "5115": "nuc",
    "5116": "abdul",
    "5117": "arma</w>",
    "5118": "inan</w>",
    "5119": "dez</w>",
    "5120": "ious</w>",
    "5121": "pta</w>",
    "5122": "dash</w>",
    "5123": "ratt</w>",
    "5124": "pass",
    "5125": "hurst</w>",
    "5126": "vail",
    "5127": "rit</w>",
    "5128": "materi",
    "5129": "æ",
    "5130": "dishon",
    "5131": "kiri</w>",
    "5132": "seh</w>",
    "5133": "wad</w>",
    "5134": "ulating</w>",
    "5135": "opter",
    "5136": "tein</w>",
    "5137": "iness</w>",
    "5138": "lings</w>",
    "5139": "endoc",
    "5140": "av</w>",
    "5141": "jana</w>",
    "5142": "mana</w>",
    "5143": "bina</w>",
    "5144": "aur</w>",
    "5145": "ttes</w>",
    "5146": "spra",
    "5147": "ometric</w>",
    "5148": "meer</w>",
    "5149": "waard</w>",
    "5150": "histor",
    "5151": "tiel</w>",
    "5152": "stud",
    "5153": "sids</w>",
    "5154": "gur</w>",
    "5155": "phobia</w>",
    "5156": "gum",
    "5157": "rop",
    "5158": "tain</w>",
    "5159": "aled</w>",
    "5160": "vat</w>",
    "5161": "constitu",
    "5162": "lough</w>",
    "5163": "olog",
    "5164": "quint",
    "5165": "س",
    "5166": "د</w>",
    "5167": "necro",
    "5168": "vez</w>",
    "5169": "revolu",
    "5170": "hotep</w>",
    "5171": "chia</w>",
    "5172": "chai</w>",
    "5173": "loe</w>",
    "5174": "reli",
    "5175": "vor</w>",
    "5176": "itra</w>",
    "5177": "abdel",
    "5178": "rians</w>",
    "5179": "mind",
    "5180": "gated</w>",
    "5181": "beat",
    "5182": "wak",
    "5183": "dling</w>",
    "5184": "40s</w>",
    "5185": "8s</w>",
    "5186": "madh",
    "5187": "tter</w>",
    "5188": "cup",
    "5189": "acia</w>",
    "5190": "nal</w>",
    "5191": "vaux</w>",
    "5192": "nc</w>",
    "5193": "peti",
    "5194": "thorn",
    "5195": "alter",
    "5196": "ety",
    "5197": "refu",
    "5198": "sik",
    "5199": "conver",
    "5200": "chow</w>",
    "5201": "whl</w>",
    "5202": "gari",
    "5203": "lipp",
    "5204": "ld</w>",
    "5205": "rela",
    "5206": "pl</w>",
    "5207": "sweat",
    "5208": "defen",
    "5209": "barr",
    "5210": "sfeld</w>",
    "5211": "aï",
    "5212": "awan</w>",
    "5213": "taka</w>",
    "5214": "pio</w>",
    "5215": "lations</w>",
    "5216": "rina</w>",
    "5217": "dering</w>",
    "5218": "adap",
    "5219": "tings</w>",
    "5220": "tok",
    "5221": "ales",
    "5222": "gaul",
    "5223": "khi</w>",
    "5224": "astra",
    "5225": "hauser</w>",
    "5226": "hagen</w>",
    "5227": "ò</w>",
    "5228": "fli",
    "5229": "fic</w>",
    "5230": "gett</w>",
    "5231": "jov",
    "5232": "nick",
    "5233": "cut",
    "5234": "contr",
    "5235": "oration</w>",
    "5236": "giac",
    "5237": "omin</w>",
    "5238": "pach",
    "5239": "too",
    "5240": "aam</w>",
    "5241": "sleep",
    "5242": "cem",
    "5243": "edi</w>",
    "5244": "sb</w>",
    "5245": "rubi",
    "5246": "shahr</w>",
    "5247": "zadeh</w>",
    "5248": "pred",
    "5249": "dey</w>",
    "5250": "hamn</w>",
    "5251": "zzle</w>",
    "5252": "tioned</w>",
    "5253": "crew",
    "5254": "benedic",
    "5255": "itti",
    "5256": "hia</w>",
    "5257": "ells</w>",
    "5258": "coon",
    "5259": "oji</w>",
    "5260": "feder",
    "5261": "rae</w>",
    "5262": "oceratops</w>",
    "5263": "bian</w>",
    "5264": "ssi",
    "5265": "ophores</w>",
    "5266": "katsu",
    "5267": "nica</w>",
    "5268": "tidae</w>",
    "5269": "raman</w>",
    "5270": "lod",
    "5271": "ht",
    "5272": "mari</w>",
    "5273": "onda</w>",
    "5274": "ske</w>",
    "5275": "gne",
    "5276": "pter",
    "5277": "ilis</w>",
    "5278": "spartei</w>",
    "5279": "xu",
    "5280": "sup</w>",
    "5281": "kaku</w>",
    "5282": "200",
    "5283": "gou</w>",
    "5284": "avo</w>",
    "5285": "utes</w>",
    "5286": "taxi",
    "5287": "chio</w>",
    "5288": "ogs</w>",
    "5289": "georg",
    "5290": "й</w>",
    "5291": "pati</w>",
    "5292": "tir",
    "5293": "carac",
    "5294": "cruci",
    "5295": "desi",
    "5296": "cade</w>",
    "5297": "inst",
    "5298": "zap",
    "5299": "stle</w>",
    "5300": "max",
    "5301": "tech",
    "5302": "ista</w>",
    "5303": "illon</w>",
    "5304": "rü",
    "5305": "rak</w>",
    "5306": "elem",
    "5307": "brid",
    "5308": "tivist</w>",
    "5309": "mix",
    "5310": "gai</w>",
    "5311": "eugen",
    "5312": "jol",
    "5313": "civil",
    "5314": "epe</w>",
    "5315": "nac</w>",
    "5316": "clip",
    "5317": "buch",
    "5318": "oki</w>",
    "5319": "shiki</w>",
    "5320": "kush",
    "5321": "bor</w>",
    "5322": "ecu",
    "5323": "chos",
    "5324": "gg",
    "5325": "oslav</w>",
    "5326": "leton</w>",
    "5327": "chron",
    "5328": "light",
    "5329": "vest",
    "5330": "marac",
    "5331": "samu",
    "5332": "brah",
    "5333": "apur</w>",
    "5334": "anist</w>",
    "5335": "emin",
    "5336": "uga</w>",
    "5337": "ślą",
    "5338": "crum",
    "5339": "tino</w>",
    "5340": "inqu",
    "5341": "shaf",
    "5342": "eti</w>",
    "5343": "aca",
    "5344": "turn",
    "5345": "dix</w>",
    "5346": "shun",
    "5347": "bill",
    "5348": "wonder",
    "5349": "mais",
    "5350": "ør",
    "5351": "tun</w>",
    "5352": "any",
    "5353": "ocki</w>",
    "5354": "yakov</w>",
    "5355": "onal</w>",
    "5356": "nex</w>",
    "5357": "ough",
    "5358": "mos",
    "5359": "math",
    "5360": "house",
    "5361": "plo",
    "5362": "tch",
    "5363": "bür",
    "5364": "stra</w>",
    "5365": "enz</w>",
    "5366": "wo</w>",
    "5367": "novel",
    "5368": "guchi</w>",
    "5369": "äki</w>",
    "5370": "rant",
    "5371": "owitz</w>",
    "5372": "fel</w>",
    "5373": "zzo</w>",
    "5374": "cloud",
    "5375": "scha",
    "5376": "petr",
    "5377": "urb",
    "5378": "direc",
    "5379": "abella</w>",
    "5380": "kee",
    "5381": "lí",
    "5382": "cata</w>",
    "5383": "у",
    "5384": "к",
    "5385": "н",
    "5386": "ь",
    "5387": "iaceae</w>",
    "5388": "mea",
    "5389": "fumar",
    "5390": "ophyta</w>",
    "5391": "ographer</w>",
    "5392": "vet",
    "5393": "rafi",
    "5394": "colle",
    "5395": "stron",
    "5396": "mis</w>",
    "5397": "vasil",
    "5398": "jaw",
    "5399": "strept",
    "5400": "eti",
    "5401": "saki</w>",
    "5402": "blau",
    "5403": "koop",
    "5404": "cob",
    "5405": "aller</w>",
    "5406": "deme",
    "5407": "bapti",
    "5408": "zip",
    "5409": "quel",
    "5410": "dhar",
    "5411": "michel",
    "5412": "frö",
    "5413": "alk",
    "5414": "franken",
    "5415": "ars",
    "5416": "gor</w>",
    "5417": "ired</w>",
    "5418": "aye",
    "5419": "eis",
    "5420": "ket",
    "5421": "tes",
    "5422": "lino</w>",
    "5423": "sier</w>",
    "5424": "eyn</w>",
    "5425": "andel</w>",
    "5426": "wart</w>",
    "5427": "smol",
    "5428": "meadow",
    "5429": "yellow",
    "5430": "thers</w>",
    "5431": "seur</w>",
    "5432": "bius</w>",
    "5433": "wig",
    "5434": "nings</w>",
    "5435": "bruck</w>",
    "5436": "das",
    "5437": "vania</w>",
    "5438": "wein",
    "5439": "fen</w>",
    "5440": "bend",
    "5441": "bech",
    "5442": "meng",
    "5443": "drac",
    "5444": "nath",
    "5445": "osauridae</w>",
    "5446": "mada</w>",
    "5447": "loids</w>",
    "5448": "amoto</w>",
    "5449": "oran</w>",
    "5450": "ake</w>",
    "5451": "turbo",
    "5452": "phon",
    "5453": "bré",
    "5454": "tigny</w>",
    "5455": "aha",
    "5456": "ziz",
    "5457": "evan</w>",
    "5458": "asi",
    "5459": "tiz",
    "5460": "iano</w>",
    "5461": "tsun",
    "5462": "ures</w>",
    "5463": "buk</w>",
    "5464": "ald</w>",
    "5465": "österreich",
    "5466": "gung",
    "5467": "edu",
    "5468": "derman</w>",
    "5469": "ddin</w>",
    "5470": "abe",
    "5471": "telev",
    "5472": "nj",
    "5473": "chang",
    "5474": "zal",
    "5475": "uris</w>",
    "5476": "hali",
    "5477": "tial</w>",
    "5478": "aram",
    "5479": "shad</w>",
    "5480": "ophile</w>",
    "5481": "eg</w>",
    "5482": "uel</w>",
    "5483": "sional</w>",
    "5484": "batt",
    "5485": "ingh",
    "5486": "ged",
    "5487": "ulla</w>",
    "5488": "amura</w>",
    "5489": "rall</w>",
    "5490": "dip",
    "5491": "lons</w>",
    "5492": "trun",
    "5493": "lix</w>",
    "5494": "fric",
    "5495": "40",
    "5496": "coun",
    "5497": "ark",
    "5498": "viri",
    "5499": "ull",
    "5500": "kura</w>",
    "5501": "odu",
    "5502": "vie",
    "5503": "eiro</w>",
    "5504": "riz</w>",
    "5505": "pist",
    "5506": "lene</w>",
    "5507": "hirom",
    "5508": "langen",
    "5509": "rid",
    "5510": "alpha",
    "5511": "clon",
    "5512": "escent</w>",
    "5513": "ud",
    "5514": "chas",
    "5515": "toko</w>",
    "5516": "sport",
    "5517": "ppers</w>",
    "5518": "chip",
    "5519": "vö",
    "5520": "sche",
    "5521": "noo",
    "5522": "hoch",
    "5523": "hof",
    "5524": "anza</w>",
    "5525": "thomas",
    "5526": "minim",
    "5527": "juli",
    "5528": "shausen</w>",
    "5529": "aten",
    "5530": "enn",
    "5531": "enac</w>",
    "5532": "arra",
    "5533": "thunder",
    "5534": "honey",
    "5535": "iny</w>",
    "5536": "dison</w>",
    "5537": "oura",
    "5538": "wara</w>",
    "5539": "aeus</w>",
    "5540": "zin",
    "5541": "zor</w>",
    "5542": "angen</w>",
    "5543": "hv",
    "5544": "ghi",
    "5545": "त</w>",
    "5546": "reich",
    "5547": "elson</w>",
    "5548": "shay",
    "5549": "jiro</w>",
    "5550": "lani</w>",
    "5551": "hito</w>",
    "5552": "hei</w>",
    "5553": "willi",
    "5554": "cheon</w>",
    "5555": "appa</w>",
    "5556": "burg",
    "5557": "gret</w>",
    "5558": "vari</w>",
    "5559": "eff</w>",
    "5560": "tona</w>",
    "5561": "tec</w>",
    "5562": "jaz",
    "5563": "kert</w>",
    "5564": "pá",
    "5565": "asi</w>",
    "5566": "person",
    "5567": "aline</w>",
    "5568": "prat",
    "5569": "zad</w>",
    "5570": "fili",
    "5571": "andi</w>",
    "5572": "aei</w>",
    "5573": "agawa</w>",
    "5574": "erland</w>",
    "5575": "ogan</w>",
    "5576": "oun</w>",
    "5577": "yers</w>",
    "5578": "deep",
    "5579": "issa</w>",
    "5580": "yeon</w>",
    "5581": "dō</w>",
    "5582": "angan</w>",
    "5583": "rov</w>",
    "5584": "dorff</w>",
    "5585": "atsu</w>",
    "5586": "oke</w>",
    "5587": "stede</w>",
    "5588": "zá",
    "5589": "atten",
    "5590": "emian</w>",
    "5591": "fn</w>",
    "5592": "kaz</w>",
    "5593": "ogen</w>",
    "5594": "jat",
    "5595": "loi</w>",
    "5596": "yur",
    "5597": "dara</w>",
    "5598": "agne",
    "5599": "ppi</w>",
    "5600": "tini</w>",
    "5601": "orig",
    "5602": "psy",
    "5603": "tho",
    "5604": "ktor</w>",
    "5605": "tier",
    "5606": "vu</w>",
    "5607": "rile</w>",
    "5608": "vier</w>",
    "5609": "cer</w>",
    "5610": "ías</w>",
    "5611": "ret</w>",
    "5612": "bn</w>",
    "5613": "holz</w>",
    "5614": "cyprin",
    "5615": "catal",
    "5616": "pug",
    "5617": "mob",
    "5618": "wac",
    "5619": "nip",
    "5620": "gau</w>",
    "5621": "khur",
    "5622": "shear",
    "5623": "bov",
    "5624": "braun",
    "5625": "glio</w>",
    "5626": "hya</w>",
    "5627": "chig",
    "5628": "asaki</w>",
    "5629": "bene",
    "5630": "sie",
    "5631": "stetten</w>",
    "5632": "twil</w>",
    "5633": "mün",
    "5634": "ym</w>",
    "5635": "ager</w>",
    "5636": "color",
    "5637": "fras",
    "5638": "kau</w>",
    "5639": "cag",
    "5640": "tn</w>",
    "5641": "vai",
    "5642": "astr",
    "5643": "eigen",
    "5644": "tach</w>",
    "5645": "veron",
    "5646": "scot",
    "5647": "wör",
    "5648": "cari",
    "5649": "niz",
    "5650": "mean",
    "5651": "oj",
    "5652": "aun",
    "5653": "chern",
    "5654": "bram",
    "5655": "lauter",
    "5656": "schel",
    "5657": "olan</w>",
    "5658": "roh",
    "5659": "ming",
    "5660": "oria</w>",
    "5661": "wic",
    "5662": "iman",
    "5663": "ė</w>",
    "5664": "ان</w>",
    "5665": "habi",
    "5666": "lent",
    "5667": "illac</w>",
    "5668": "pari",
    "5669": "ás</w>",
    "5670": "ener</w>",
    "5671": "ches",
    "5672": "ahara</w>",
    "5673": "lacer",
    "5674": "gyl",
    "5675": "koz",
    "5676": "kke</w>",
    "5677": "eir",
    "5678": "stau",
    "5679": "jel",
    "5680": "ried",
    "5681": "enberger</w>",
    "5682": "drag",
    "5683": "khin</w>",
    "5684": "encia</w>",
    "5685": "montan",
    "5686": "tson</w>",
    "5687": "pert</w>",
    "5688": "nun",
    "5689": "popul",
    "5690": "ık</w>",
    "5691": "afro",
    "5692": "leh</w>",
    "5693": "cé",
    "5694": "amata</w>",
    "5695": "ator",
    "5696": "filip",
    "5697": "ond",
    "5698": "isse</w>",
    "5699": "ophi",
    "5700": "umer",
    "5701": "alai</w>",
    "5702": "maq",
    "5703": "hora</w>",
    "5704": "baf",
    "5705": "dein",
    "5706": "beke</w>",
    "5707": "eed</w>",
    "5708": "spil",
    "5709": "chis",
    "5710": "sig</w>",
    "5711": "ær</w>",
    "5712": "rim",
    "5713": "tali</w>",
    "5714": "rata</w>",
    "5715": "nami",
    "5716": "mosk",
    "5717": "escens</w>",
    "5718": "rt",
    "5719": "thak",
    "5720": "chaz",
    "5721": "ongs</w>",
    "5722": "hoff",
    "5723": "nav",
    "5724": "you",
    "5725": "bart",
    "5726": "isma",
    "5727": "righ",
    "5728": "gav",
    "5729": "jec",
    "5730": "emic</w>",
    "5731": "sund</w>",
    "5732": "azu</w>",
    "5733": "liv",
    "5734": "jt",
    "5735": "chev</w>",
    "5736": "brat",
    "5737": "massi",
    "5738": "bidi</w>",
    "5739": "country",
    "5740": "aux",
    "5741": "vres</w>",
    "5742": "rog",
    "5743": "nig",
    "5744": "sak</w>",
    "5745": "uca</w>",
    "5746": "zhong",
    "5747": "anto",
    "5748": "catt",
    "5749": "sè",
    "5750": "arvi",
    "5751": "könig",
    "5752": "uwa</w>",
    "5753": "isy</w>",
    "5754": "acqu",
    "5755": "oak",
    "5756": "iton</w>",
    "5757": "avan</w>",
    "5758": "pau",
    "5759": "télé",
    "5760": "tei",
    "5761": "kuni",
    "5762": "mori",
    "5763": "rez",
    "5764": "sumi</w>",
    "5765": "matsu",
    "5766": "had",
    "5767": "uo</w>",
    "5768": "fluor",
    "5769": "ole",
    "5770": "aut",
    "5771": "willer</w>",
    "5772": "owa</w>",
    "5773": "flavi",
    "5774": "tham",
    "5775": "rome",
    "5776": "nie",
    "5777": "nup",
    "5778": "hyn",
    "5779": "anha</w>",
    "5780": "enti</w>",
    "5781": "zie",
    "5782": "kait",
    "5783": "sik</w>",
    "5784": "tib",
    "5785": "ink",
    "5786": "yong",
    "5787": "baj",
    "5788": "kina</w>",
    "5789": "dley</w>",
    "5790": "arai</w>",
    "5791": "deh",
    "5792": "ogi</w>",
    "5793": "chon</w>",
    "5794": "reis",
    "5795": "ont</w>",
    "5796": "alph",
    "5797": "anou",
    "5798": "annis</w>",
    "5799": "ffle</w>",
    "5800": "mk",
    "5801": "ël</w>",
    "5802": "azi",
    "5803": "slo",
    "5804": "boda</w>",
    "5805": "esque</w>",
    "5806": "kry",
    "5807": "п",
    "5808": "vidy",
    "5809": "suz",
    "5810": "hier",
    "5811": "zol",
    "5812": "oda",
    "5813": "ane",
    "5814": "woll",
    "5815": "ghe",
    "5816": "engel",
    "5817": "nol",
    "5818": "boul",
    "5819": "noy</w>",
    "5820": "ör</w>",
    "5821": "ira",
    "5822": "kv",
    "5823": "zuc",
    "5824": "bich",
    "5825": "ushi</w>",
    "5826": "ados</w>",
    "5827": "khor",
    "5828": "kava</w>",
    "5829": "inson</w>",
    "5830": "iza</w>",
    "5831": "kuz",
    "5832": "gü",
    "5833": "kost",
    "5834": "ysen</w>",
    "5835": "blood",
    "5836": "martin",
    "5837": "rhy",
    "5838": "ald",
    "5839": "jić</w>",
    "5840": "gian",
    "5841": "swind",
    "5842": "skiy</w>",
    "5843": "50",
    "5844": "yash",
    "5845": "edi",
    "5846": "xia",
    "5847": "ichthys</w>",
    "5848": "acha</w>",
    "5849": "yak",
    "5850": "eline</w>",
    "5851": "elet</w>",
    "5852": "ital</w>",
    "5853": "cp",
    "5854": "ondo</w>",
    "5855": "kac",
    "5856": "geer",
    "5857": "pn",
    "5858": "aid",
    "5859": "ore",
    "5860": "sau</w>",
    "5861": "jing",
    "5862": "ås</w>",
    "5863": "dney</w>",
    "5864": "schon",
    "5865": "sir",
    "5866": "ż",
    "5867": "rul",
    "5868": "ope</w>",
    "5869": "bous",
    "5870": "trip",
    "5871": "nesville</w>",
    "5872": "strup</w>",
    "5873": "venkat",
    "5874": "marij",
    "5875": "lm",
    "5876": "unbi",
    "5877": ".)</w>",
    "5878": "four</w>",
    "5879": "week</w>",
    "5880": "/</w>",
    "5881": "got</w>",
    "5882": "second</w>",
    "5883": "roman</w>",
    "5884": "start</w>",
    "5885": "22</w>",
    "5886": "winter</w>",
    "5887": "into</w>",
    "5888": "with</w>",
    "5889": "craft</w>",
    "5890": "arts</w>",
    "5891": "how</w>",
    "5892": "things</w>",
    "5893": ";</w>",
    "5894": "connect</w>",
    "5895": "had</w>",
    "5896": "tile</w>",
    "5897": "late</w>",
    "5898": "person</w>",
    "5899": "functions</w>",
    "5900": "scale</w>",
    "5901": "show</w>",
    "5902": "blocks</w>",
    "5903": "tly</w>",
    "5904": "dust</w>",
    "5905": "mass</w>",
    "5906": "acid</w>",
    "5907": "hot</w>",
    "5908": "life</w>",
    "5909": "times</w>",
    "5910": "been</w>",
    "5911": "eye</w>",
    "5912": "plus</w>",
    "5913": "evolution</w>",
    "5914": "free</w>",
    "5915": "once</w>",
    "5916": "turing</w>",
    "5917": "–</w>",
    "5918": "[</w>",
    "5919": "family</w>",
    "5920": "communications</w>",
    "5921": "million</w>",
    "5922": "60</w>",
    "5923": "queen</w>",
    "5924": "”</w>",
    "5925": "code",
    "5926": "breaking</w>",
    "5927": "24</w>",
    "5928": "tested</w>",
    "5929": "very</w>",
    "5930": "child</w>",
    "5931": "series</w>",
    "5932": "sold</w>",
    "5933": "older</w>",
    "5934": "graphic</w>",
    "5935": "rest</w>",
    "5936": "rise</w>",
    "5937": "200</w>",
    "5938": "control</w>",
    "5939": "weeds</w>",
    "5940": "loss</w>",
    "5941": "technical</w>",
    "5942": "milk</w>",
    "5943": "represented</w>",
    "5944": "performed</w>",
    "5945": "sign</w>",
    "5946": "fix</w>",
    "5947": "animation</w>",
    "5948": "27</w>",
    "5949": "85</w>",
    "5950": "gold</w>",
    "5951": "even</w>",
    "5952": "dry</w>",
    "5953": "west</w>",
    "5954": "thought</w>",
    "5955": "houses</w>",
    "5956": "sent</w>",
    "5957": "abel</w>",
    "5958": "banks</w>",
    "5959": "watch</w>",
    "5960": "baby</w>",
    "5961": "told</w>",
    "5962": "loaf</w>",
    "5963": "fleet</w>",
    "5964": "sail</w>",
    "5965": "broke</w>",
    "5966": "grain</w>",
    "5967": "160</w>",
    "5968": "100</w>",
    "5969": "trade</w>",
    "5970": "90s</w>",
    "5971": "actors</w>",
    "5972": "2000</w>",
    "5973": "balla",
    "5974": "wide</w>",
    "5975": "pop</w>",
    "5976": "\")</w>",
    "5977": "abc</w>",
    "5978": "stations</w>",
    "5979": "actor</w>",
    "5980": "heath</w>",
    "5981": "sports</w>",
    "5982": "slam</w>",
    "5983": "rated</w>",
    "5984": "athlete</w>",
    "5985": "read</w>",
    "5986": "add</w>",
    "5987": "ounces</w>",
    "5988": "meet</w>",
    "5989": "nasa</w>",
    "5990": "chief</w>",
    "5991": "lists</w>",
    "5992": "eve</w>",
    "5993": "tries</w>",
    "5994": "walking</w>",
    "5995": "bets</w>",
    "5996": "down</w>",
    "5997": "waters</w>",
    "5998": "wheel</w>",
    "5999": "instead</w>",
    "6000": "speed</w>",
    "6001": "casting</w>",
    "6002": "cast</w>",
    "6003": "conce",
    "6004": "guard</w>",
    "6005": "homin",
    "6006": "hear",
    "6007": "11</w>",
    "6008": "sides</w>",
    "6009": "stern</w>",
    "6010": "evo</w>",
    "6011": "bred</w>",
    "6012": "90</w>",
    "6013": "soft</w>",
    "6014": "vestris</w>",
    "6015": "nut</w>",
    "6016": "knife</w>",
    "6017": "cut</w>",
    "6018": "skin</w>",
    "6019": "oideae</w>",
    "6020": "dae",
    "6021": "cure</w>",
    "6022": "42</w>",
    "6023": "43</w>",
    "6024": "zero</w>",
    "6025": "graph</w>",
    "6026": "dependent</w>",
    "6027": "piece</w>",
    "6028": "electric</w>",
    "6029": "400</w>",
    "6030": "block</w>",
    "6031": "fixed</w>",
    "6032": "stable</w>",
    "6033": "kinetic</w>",
    "6034": "82</w>",
    "6035": "lead</w>",
    "6036": "takes</w>",
    "6037": "bang</w>",
    "6038": "bodies</w>",
    "6039": "bright</w>",
    "6040": "ocentrism</w>",
    "6041": "eding</w>",
    "6042": "rocke",
    "6043": "section</w>",
    "6044": "digi",
    "6045": "bridges</w>",
    "6046": "tower</w>",
    "6047": "post</w>",
    "6048": "wright</w>",
    "6049": "pei</w>",
    "6050": "khan</w>",
    "6051": "bones</w>",
    "6052": "dates</w>",
    "6053": "liver</w>",
    "6054": "heart</w>",
    "6055": "brain</w>",
    "6056": "600</w>",
    "6057": "belt</w>",
    "6058": "rocks</w>",
    "6059": "surface</w>",
    "6060": "regi",
    "6061": "fir</w>",
    "6062": "bears</w>",
    "6063": "dogs</w>",
    "6064": "cats</w>",
    "6065": "gone</w>",
    "6066": "ayi</w>",
    "6067": "builders</w>",
    "6068": "flows</w>",
    "6069": "texts</w>",
    "6070": "anians</w>",
    "6071": "7th</w>",
    "6072": "rose</w>",
    "6073": "anj</w>",
    "6074": "999</w>",
    "6075": "conservative</w>",
    "6076": "hamid</w>",
    "6077": "argen",
    "6078": "tierra</w>",
    "6079": "polo</w>",
    "6080": "österreich</w>",
    "6081": "dig</w>",
    "6082": "rae",
    "6083": "cake</w>",
    "6084": "date</w>",
    "6085": "tots</w>",
    "6086": "oral</w>",
    "6087": "otrophic</w>",
    "6088": "web</w>",
    "6089": "phones</w>",
    "6090": "cards</w>",
    "6091": "cases</w>",
    "6092": "owed</w>",
    "6093": "heated</w>",
    "6094": "fried</w>",
    "6095": "links</w>",
    "6096": "bees</w>",
    "6097": "wax</w>",
    "6098": "mites</w>",
    "6099": "dock</w>",
    "6100": "pier</w>",
    "6101": "qing</w>",
    "6102": "spell</w>",
    "6103": "70</w>",
    "6104": "berries</w>",
    "6105": "arp</w>",
    "6106": "rats</w>",
    "6107": "enter</w>",
    "6108": "biology</w>",
    "6109": "34</w>",
    "6110": "hills</w>",
    "6111": "pierre</w>",
    "6112": "deus</w>",
    "6113": "linck</w>",
    "6114": "screen</w>",
    "6115": "spa</w>",
    "6116": "forest</w>",
    "6117": "illas</w>",
    "6118": "crime</w>",
    "6119": "2nd</w>",
    "6120": "cup</w>",
    "6121": "150</w>",
    "6122": "acids</w>",
    "6123": "bases</w>",
    "6124": "toxic</w>",
    "6125": "burns</w>",
    "6126": "suits</w>",
    "6127": "check</w>",
    "6128": "bits</w>",
    "6129": "brand</w>",
    "6130": "sac</w>",
    "6131": "intel</w>",
    "6132": "lap</w>",
    "6133": "0s</w>",
    "6134": "share</w>",
    "6135": "dated</w>",
    "6136": "marco</w>",
    "6137": "qin</w>",
    "6138": "clan",
    "6139": "quan</w>",
    "6140": "sino</w>",
    "6141": "tivi",
    "6142": "zation</w>",
    "6143": "market</w>",
    "6144": "news</w>",
    "6145": "bounded</w>",
    "6146": "printing</w>",
    "6147": "fei</w>",
    "6148": "hung</w>",
    "6149": "dragon</w>",
    "6150": "holding</w>",
    "6151": "61</w>",
    "6152": "viii</w>",
    "6153": "tube</w>",
    "6154": "mental</w>",
    "6155": "apes</w>",
    "6156": "fishes</w>",
    "6157": "marriage</w>",
    "6158": "rites</w>",
    "6159": "ease</w>",
    "6160": "tern</w>",
    "6161": "lean</w>",
    "6162": "round</w>",
    "6163": "christ</w>",
    "6164": "parks</w>",
    "6165": "oil</w>",
    "6166": "chat</w>",
    "6167": "girls</w>",
    "6168": "ought</w>",
    "6169": "page</w>",
    "6170": "differenti",
    "6171": "70s</w>",
    "6172": "draw</w>",
    "6173": "sums</w>",
    "6174": "acting</w>",
    "6175": "sexuality</w>",
    "6176": "kest</w>",
    "6177": "evangel",
    "6178": "52</w>",
    "6179": "sale</w>",
    "6180": "trip</w>",
    "6181": "winds</w>",
    "6182": "owns</w>",
    "6183": "rent</w>",
    "6184": "script</w>",
    "6185": "temp",
    "6186": "ility</w>",
    "6187": "diar",
    "6188": "losing</w>",
    "6189": "hydrate</w>",
    "6190": "occupied</w>",
    "6191": "dress</w>",
    "6192": "tales</w>",
    "6193": "aqua</w>",
    "6194": "83</w>",
    "6195": "ationism</w>",
    "6196": "stress</w>",
    "6197": "martin</w>",
    "6198": "stall</w>",
    "6199": "press</w>",
    "6200": "bias</w>",
    "6201": "32</w>",
    "6202": "oxide</w>",
    "6203": "joe</w>",
    "6204": "cat</w>",
    "6205": "storm</w>",
    "6206": "autotrophs</w>",
    "6207": "rium</w>",
    "6208": "stroke</w>",
    "6209": "74</w>",
    "6210": "faq</w>",
    "6211": "?</w>",
    "6212": "anguil",
    "6213": "breed</w>",
    "6214": "tuna</w>",
    "6215": "toes</w>",
    "6216": "hoof</w>",
    "6217": "wear</w>",
    "6218": "sals</w>",
    "6219": "xiv</w>",
    "6220": "36</w>",
    "6221": "verne</w>",
    "6222": "guy</w>",
    "6223": "staff</w>",
    "6224": "guide</w>",
    "6225": "ritz</w>",
    "6226": "81</w>",
    "6227": "arc</w>",
    "6228": "lahti</w>",
    "6229": "till</w>",
    "6230": "800</w>",
    "6231": "omen",
    "6232": "valued</w>",
    "6233": "!\"</w>",
    "6234": "chair</w>",
    "6235": "ryan</w>",
    "6236": "theists</w>",
    "6237": "believers</w>",
    "6238": "transc",
    "6239": "plex</w>",
    "6240": "rotta</w>",
    "6241": "rig</w>",
    "6242": "amin</w>",
    "6243": "tax</w>",
    "6244": "77</w>",
    "6245": "barred</w>",
    "6246": "walk</w>",
    "6247": "lava</w>",
    "6248": "65</w>",
    "6249": "anced</w>",
    "6250": "corro",
    "6251": "haber</w>",
    "6252": "org</w>",
    "6253": "bald</w>",
    "6254": "bog</w>",
    "6255": "atite</w>",
    "6256": "iso</w>",
    "6257": "'\"</w>",
    "6258": "goa</w>",
    "6259": "lok</w>",
    "6260": "250</w>",
    "6261": "rains</w>",
    "6262": "moll",
    "6263": "coding</w>",
    "6264": "aids</w>",
    "6265": "gates</w>",
    "6266": "jun</w>",
    "6267": "nara</w>",
    "6268": "mt</w>",
    "6269": "cherry</w>",
    "6270": "kyu",
    "6271": "allen</w>",
    "6272": "inherit",
    "6273": "hue</w>",
    "6274": "planes</w>",
    "6275": "autop",
    "6276": "roth</w>",
    "6277": "microme",
    "6278": "necks</w>",
    "6279": "tional</w>",
    "6280": "itors</w>",
    "6281": "infr",
    "6282": "baker</w>",
    "6283": "ahu</w>",
    "6284": "bags</w>",
    "6285": "hunt</w>",
    "6286": "</</w>",
    "6287": "train</w>",
    "6288": "heat",
    "6289": "folia</w>",
    "6290": "arom",
    "6291": "umen</w>",
    "6292": "sung</w>",
    "6293": "virgin",
    "6294": "impres",
    "6295": "chords</w>",
    "6296": "walks</w>",
    "6297": "sol</w>",
    "6298": "shop</w>",
    "6299": "pc</w>",
    "6300": "wikit",
    "6301": "ulus</w>",
    "6302": "frame</w>",
    "6303": "moer",
    "6304": "apar",
    "6305": "m1</w>",
    "6306": "rows</w>",
    "6307": "quita</w>",
    "6308": "awi",
    "6309": "shirts</w>",
    "6310": "umar</w>",
    "6311": "madra",
    "6312": "jaw</w>",
    "6313": "shoe</w>",
    "6314": "mr</w>",
    "6315": "kiss</w>",
    "6316": "vard</w>",
    "6317": "alman",
    "6318": "acs</w>",
    "6319": "hail</w>",
    "6320": "iris</w>",
    "6321": "\"'</w>",
    "6322": "deck</w>",
    "6323": "vii</w>",
    "6324": "fees</w>",
    "6325": "ulations</w>",
    "6326": "soy</w>",
    "6327": "pg</w>",
    "6328": "oll</w>",
    "6329": "reduc",
    "6330": "lighting</w>",
    "6331": "neo</w>",
    "6332": "hui</w>",
    "6333": "ape</w>",
    "6334": "turb",
    "6335": "faction</w>",
    "6336": "conservatism</w>",
    "6337": "onism</w>",
    "6338": "univer",
    "6339": "flies</w>",
    "6340": "6s</w>",
    "6341": "leuc",
    "6342": "thre",
    "6343": "jö",
    "6344": "gland</w>",
    "6345": "chord</w>",
    "6346": "modi",
    "6347": "fier</w>",
    "6348": "requ",
    "6349": "chuan</w>",
    "6350": "inter</w>",
    "6351": "tao</w>",
    "6352": "wagon</w>",
    "6353": "door</w>",
    "6354": "hertz</w>",
    "6355": "ound</w>",
    "6356": "defec",
    "6357": "qed</w>",
    "6358": "fiable</w>",
    "6359": "thesis</w>",
    "6360": "idity</w>",
    "6361": "chann",
    "6362": "tch</w>",
    "6363": "assembled</w>",
    "6364": "crimin",
    "6365": "bular</w>",
    "6366": "±</w>",
    "6367": "holders</w>",
    "6368": "dish",
    "6369": "liner</w>",
    "6370": "arte</w>",
    "6371": "tm</w>",
    "6372": "manga",
    "6373": "appreci",
    "6374": "some",
    "6375": "isot",
    "6376": "age",
    "6377": "tionals</w>",
    "6378": "108</w>",
    "6379": "odd",
    "6380": "backed</w>",
    "6381": "positional</w>",
    "6382": "jective</w>",
    "6383": "rot</w>",
    "6384": "rica</w>",
    "6385": "antonio</w>",
    "6386": "stas</w>",
    "6387": "pico</w>",
    "6388": "phase</w>",
    "6389": "acute</w>",
    "6390": "bag</w>",
    "6391": "rif",
    "6392": "zimbabwe</w>",
    "6393": "guarded</w>",
    "6394": "folds</w>",
    "6395": "oro",
    "6396": "extru",
    "6397": "bump",
    "6398": "2m</w>",
    "6399": "drill</w>",
    "6400": "pack</w>",
    "6401": "ice",
    "6402": "breaker</w>",
    "6403": "straw</w>",
    "6404": "stairs</w>",
    "6405": "a1</w>",
    "6406": "thaler</w>",
    "6407": "yen</w>",
    "6408": "mash</w>",
    "6409": "cid",
    "6410": "rim</w>",
    "6411": "bali</w>",
    "6412": "rida</w>",
    "6413": "aches</w>",
    "6414": "frau",
    "6415": "pide</w>",
    "6416": "shun</w>",
    "6417": "mad</w>",
    "6418": "individu",
    "6419": "ânia</w>",
    "6420": "constan",
    "6421": "devalu",
    "6422": "mw</w>",
    "6423": "cans</w>",
    "6424": "ulf</w>",
    "6425": "aland</w>",
    "6426": "ibrahi",
    "6427": "decim",
    "6428": "lac</w>",
    "6429": "didier</w>",
    "6430": "rer</w>",
    "6431": "knobs</w>",
    "6432": "illing</w>",
    "6433": "mates</w>",
    "6434": "tür",
    "6435": "dö",
    "6436": "keb",
    "6437": "fia</w>",
    "6438": "müller</w>",
    "6439": "tenbach</w>",
    "6440": "hus</w>",
    "6441": "paraphra",
    "6442": "jil</w>",
    "6443": "wolf</w>",
    "6444": "tram</w>",
    "6445": "musik</w>",
    "6446": "deutscher</w>",
    "6447": "activation</w>",
    "6448": "anno</w>",
    "6449": "roller</w>",
    "6450": "hap",
    "6451": "iter",
    "6452": "ultra",
    "6453": "lima</w>",
    "6454": "alberto</w>",
    "6455": "grün",
    "6456": "breads</w>",
    "6457": "lung</w>",
    "6458": "amides</w>",
    "6459": "leuk",
    "6460": "brian</w>",
    "6461": "sied",
    "6462": "ishi",
    "6463": "sap</w>",
    "6464": "shino</w>",
    "6465": "80",
    "6466": "þ",
    "6467": "esson</w>",
    "6468": "haf",
    "6469": "jón</w>",
    "6470": "orial</w>",
    "6471": "dean</w>",
    "6472": "hy</w>",
    "6473": "tag</w>",
    "6474": "fork",
    "6475": "york",
    "6476": "eton</w>",
    "6477": "coats</w>",
    "6478": "chester</w>",
    "6479": "maid</w>",
    "6480": "tyre</w>",
    "6481": "f1</w>",
    "6482": "serie</w>",
    "6483": "shirt</w>",
    "6484": "kingly</w>",
    "6485": "chang</w>",
    "6486": "matt</w>",
    "6487": "pat</w>",
    "6488": "rams</w>",
    "6489": "phil</w>",
    "6490": "zoll",
    "6491": "verein</w>",
    "6492": "wel</w>",
    "6493": "wheel",
    "6494": "atari</w>",
    "6495": "matched</w>",
    "6496": "loid</w>",
    "6497": "knights</w>",
    "6498": "gupta</w>",
    "6499": "bc",
    "6500": "kaia</w>",
    "6501": "bank",
    "6502": "joy</w>",
    "6503": "worthy</w>",
    "6504": "blade</w>",
    "6505": "lun</w>",
    "6506": "xian</w>",
    "6507": "sium</w>",
    "6508": "kabu",
    "6509": "hawk</w>",
    "6510": "mich</w>",
    "6511": "thora</w>",
    "6512": "pis</w>",
    "6513": "ür",
    "6514": "compatibility</w>",
    "6515": "tool",
    "6516": "doc</w>",
    "6517": "worms</w>",
    "6518": "shots</w>",
    "6519": "six",
    "6520": "scrap",
    "6521": "excav",
    "6522": "eable</w>",
    "6523": "stock",
    "6524": "yh",
    "6525": "holt</w>",
    "6526": "pv",
    "6527": "friesland</w>",
    "6528": "lev</w>",
    "6529": "ovych</w>",
    "6530": "yus",
    "6531": "ça</w>",
    "6532": "sloven",
    "6533": "ská</w>",
    "6534": "vá",
    "6535": "roku</w>",
    "6536": "holder</w>",
    "6537": "tooth</w>",
    "6538": "chandra</w>",
    "6539": "shea",
    "6540": "bean</w>",
    "6541": "oam</w>",
    "6542": "itch</w>",
    "6543": "rie",
    "6544": "goku</w>",
    "6545": "stereotyp",
    "6546": "correspon",
    "6547": "bap",
    "6548": "cataly",
    "6549": "norm",
    "6550": "ake",
    "6551": "zam</w>",
    "6552": "riga</w>",
    "6553": "kova</w>",
    "6554": "priori",
    "6555": "tized</w>",
    "6556": "yov</w>",
    "6557": "aired</w>",
    "6558": "brooke</w>",
    "6559": "ude</w>",
    "6560": "thaw",
    "6561": "sić</w>",
    "6562": "stap",
    "6563": "cg</w>",
    "6564": "{</w>",
    "6565": "mnem",
    "6566": "laying</w>",
    "6567": "peac",
    "6568": "ocks</w>",
    "6569": "cliff</w>",
    "6570": "solo</w>",
    "6571": "maniraptor",
    "6572": "bird",
    "6573": "dain</w>",
    "6574": "pseudo",
    "6575": "rex</w>",
    "6576": "pyro",
    "6577": "platy",
    "6578": "inging</w>",
    "6579": "fielders</w>",
    "6580": "odi</w>",
    "6581": "wc</w>",
    "6582": "rial</w>",
    "6583": "seer</w>",
    "6584": "cardi",
    "6585": "gastroenter",
    "6586": "oscopy</w>",
    "6587": "mack</w>",
    "6588": "fla</w>",
    "6589": "-)</w>",
    "6590": "determin",
    "6591": "vani",
    "6592": "xx",
    "6593": "fred</w>",
    "6594": "glen</w>",
    "6595": "flos",
    "6596": "deutsch",
    "6597": "aus</w>",
    "6598": "1a</w>",
    "6599": "ymes</w>",
    "6600": "strand</w>",
    "6601": "length",
    "6602": "transliter",
    "6603": "bench</w>",
    "6604": "par</w>",
    "6605": "söder",
    "6606": "ridd",
    "6607": "tola</w>",
    "6608": "colo",
    "6609": "side",
    "6610": "boo</w>",
    "6611": "flic",
    "6612": "cor</w>",
    "6613": "nock</w>",
    "6614": "knot",
    "6615": "jom</w>",
    "6616": "alar</w>",
    "6617": "alise</w>",
    "6618": "gue",
    "6619": "mba</w>",
    "6620": "hler</w>",
    "6621": "interfer",
    "6622": "supre",
    "6623": "jen</w>",
    "6624": "astrocy",
    "6625": "focus",
    "6626": "tric</w>",
    "6627": "loff</w>",
    "6628": "ials</w>",
    "6629": "anen</w>",
    "6630": "hira</w>",
    "6631": "sura</w>",
    "6632": "ن</w>",
    "6633": "sed",
    "6634": "saurisch",
    "6635": "viertel</w>",
    "6636": "inn</w>",
    "6637": "miser",
    "6638": "fü",
    "6639": "aglio</w>",
    "6640": "frott",
    "6641": "bates</w>",
    "6642": "inating</w>",
    "6643": "fores",
    "6644": "raw",
    "6645": "ass</w>",
    "6646": "aff</w>",
    "6647": "shat",
    "6648": "antiqu",
    "6649": "skyi</w>",
    "6650": "opsis</w>",
    "6651": "nelle</w>",
    "6652": "ahan",
    "6653": "lucci</w>",
    "6654": "puy",
    "6655": "ogies</w>",
    "6656": "stering</w>",
    "6657": "ution</w>",
    "6658": "ophone</w>",
    "6659": "camel",
    "6660": "carn",
    "6661": "clev",
    "6662": "edon</w>",
    "6663": "eden",
    "6664": "kenham</w>",
    "6665": "arden</w>",
    "6666": "sworthy</w>",
    "6667": "hyde</w>",
    "6668": "frac",
    "6669": "knut",
    "6670": "lade</w>",
    "6671": "little",
    "6672": "annes</w>",
    "6673": "ull</w>",
    "6674": "norman",
    "6675": "tery</w>",
    "6676": "sfield</w>",
    "6677": "timore</w>",
    "6678": "poul",
    "6679": "stot",
    "6680": "stow",
    "6681": "thong</w>",
    "6682": "tton</w>",
    "6683": "winc",
    "6684": "hooks</w>",
    "6685": "cellu",
    "6686": "vig</w>",
    "6687": "tore</w>",
    "6688": "trio</w>",
    "6689": "cristof",
    "6690": "enda</w>",
    "6691": "mona</w>",
    "6692": "signor",
    "6693": "limon",
    "6694": "owe</w>",
    "6695": "opathic</w>",
    "6696": "faul",
    "6697": "allo",
    "6698": "liners</w>",
    "6699": "dest</w>",
    "6700": "leaved</w>",
    "6701": "atop",
    "6702": "ggs</w>",
    "6703": "labor",
    "6704": "enge</w>",
    "6705": "klo",
    "6706": "eth</w>",
    "6707": "#",
    "6708": "goers</w>",
    "6709": "shman</w>",
    "6710": "alab",
    "6711": "saj",
    "6712": "rana</w>",
    "6713": "holme</w>",
    "6714": "omni",
    "6715": "potent</w>",
    "6716": "hk</w>",
    "6717": "blitz</w>",
    "6718": "enes</w>",
    "6719": "ditch</w>",
    "6720": "tonic</w>",
    "6721": "sola</w>",
    "6722": "bora</w>",
    "6723": "eks</w>",
    "6724": "swell</w>",
    "6725": "lifts</w>",
    "6726": "mrc</w>",
    "6727": "baz</w>",
    "6728": "ornis</w>",
    "6729": "seong</w>",
    "6730": "wai</w>",
    "6731": "lang</w>",
    "6732": "phan</w>",
    "6733": "apo</w>",
    "6734": "itos</w>",
    "6735": "oum</w>",
    "6736": "navi</w>",
    "6737": "ape",
    "6738": "enthal</w>",
    "6739": "wander",
    "6740": "villan",
    "6741": "inari</w>",
    "6742": "consol",
    "6743": "litt",
    "6744": "lewood</w>",
    "6745": "curr",
    "6746": "eer</w>",
    "6747": "bard</w>",
    "6748": "xii</w>",
    "6749": "consum",
    "6750": "sme",
    "6751": "mtv</w>",
    "6752": "illard</w>",
    "6753": "ghorn</w>",
    "6754": "acious</w>",
    "6755": "50s</w>",
    "6756": "tted</w>",
    "6757": "ghter</w>",
    "6758": "galerie</w>",
    "6759": "alexand",
    "6760": "poth",
    "6761": "parthen",
    "6762": "lds</w>",
    "6763": "ò",
    "6764": "ciut",
    "6765": "bla</w>",
    "6766": "kola</w>",
    "6767": "sulf",
    "6768": "brim",
    "6769": "monon",
    "6770": "feld",
    "6771": "alum",
    "6772": "stoc",
    "6773": "mush",
    "6774": "hod",
    "6775": "lt</w>",
    "6776": "fers</w>",
    "6777": "andr",
    "6778": "catcher</w>",
    "6779": "indic",
    "6780": "essio</w>",
    "6781": "zum</w>",
    "6782": "ricar",
    "6783": "nee</w>",
    "6784": "wah",
    "6785": "mae</w>",
    "6786": "mara</w>",
    "6787": "dana</w>",
    "6788": "bom</w>",
    "6789": "spor</w>",
    "6790": "ê</w>",
    "6791": "fuck</w>",
    "6792": "symmetric</w>",
    "6793": "conju",
    "6794": "qs</w>",
    "6795": "fera</w>",
    "6796": "weather",
    "6797": "lim</w>",
    "6798": "chok</w>",
    "6799": "tong</w>",
    "6800": "kaya</w>",
    "6801": "kama</w>",
    "6802": "bear",
    "6803": "brahman",
    "6804": "yav",
    "6805": "yog",
    "6806": "ologies</w>",
    "6807": "smar",
    "6808": "varna</w>",
    "6809": "ego</w>",
    "6810": "umin",
    "6811": "valle</w>",
    "6812": "inia</w>",
    "6813": "gill</w>",
    "6814": "reel</w>",
    "6815": "tempor",
    "6816": "lids</w>",
    "6817": "shey</w>",
    "6818": "č</w>",
    "6819": "ș</w>",
    "6820": "rema",
    "6821": "araf",
    "6822": "kok</w>",
    "6823": "awi</w>",
    "6824": "gras</w>",
    "6825": "kuno</w>",
    "6826": "kko</w>",
    "6827": "revolution",
    "6828": "expres",
    "6829": "sion",
    "6830": "paras",
    "6831": "cott</w>",
    "6832": "г",
    "6833": "н</w>",
    "6834": "у</w>",
    "6835": "agh</w>",
    "6836": "aspir",
    "6837": "aan</w>",
    "6838": "reichs",
    "6839": "eras",
    "6840": "khali</w>",
    "6841": "oop</w>",
    "6842": "ms",
    "6843": "still",
    "6844": "ied</w>",
    "6845": "esser</w>",
    "6846": "sharp",
    "6847": "inning</w>",
    "6848": "atum</w>",
    "6849": "kono",
    "6850": "rhyth",
    "6851": "ancies</w>",
    "6852": "sives</w>",
    "6853": "nai</w>",
    "6854": "amps</w>",
    "6855": "predic",
    "6856": "fon</w>",
    "6857": "kuma",
    "6858": "akan</w>",
    "6859": "flakes</w>",
    "6860": "vagin",
    "6861": "orte</w>",
    "6862": "bois",
    "6863": "iden",
    "6864": "chez</w>",
    "6865": "reti",
    "6866": "suka</w>",
    "6867": "eki</w>",
    "6868": "cing</w>",
    "6869": "appl",
    "6870": "hase</w>",
    "6871": "jal</w>",
    "6872": "stel",
    "6873": "uber</w>",
    "6874": "_</w>",
    "6875": "5mm</w>",
    "6876": "purit",
    "6877": "rei</w>",
    "6878": "aisha</w>",
    "6879": "wee</w>",
    "6880": "cly",
    "6881": "blow",
    "6882": "rave</w>",
    "6883": "frey</w>",
    "6884": "ign</w>",
    "6885": "som</w>",
    "6886": "ellan",
    "6887": "alkane</w>",
    "6888": "yclic</w>",
    "6889": "bund</w>",
    "6890": "mop",
    "6891": "nate</w>",
    "6892": "flip",
    "6893": "bob",
    "6894": "annie</w>",
    "6895": "ouan</w>",
    "6896": "zine</w>",
    "6897": "ub</w>",
    "6898": "multiv",
    "6899": "linville</w>",
    "6900": "sling</w>",
    "6901": "mila</w>",
    "6902": "smore</w>",
    "6903": "shack",
    "6904": "maier</w>",
    "6905": "duc</w>",
    "6906": "clay",
    "6907": "cet",
    "6908": "weed</w>",
    "6909": "minas</w>",
    "6910": "ieta</w>",
    "6911": "gis</w>",
    "6912": "hee</w>",
    "6913": "thering</w>",
    "6914": "chka</w>",
    "6915": "oidea</w>",
    "6916": "leaf",
    "6917": "laz",
    "6918": "oise</w>",
    "6919": "retrof",
    "6920": "oll",
    "6921": "ovs</w>",
    "6922": "read",
    "6923": "neum",
    "6924": "happ",
    "6925": "appel</w>",
    "6926": "hili</w>",
    "6927": "iq",
    "6928": "teri</w>",
    "6929": "orin</w>",
    "6930": "zak</w>",
    "6931": "buds</w>",
    "6932": "destruc",
    "6933": "dern</w>",
    "6934": "stammheim</w>",
    "6935": "travel",
    "6936": "lara</w>",
    "6937": "nos</w>",
    "6938": "olds</w>",
    "6939": "foo",
    "6940": "nels</w>",
    "6941": "rm</w>",
    "6942": "trim",
    "6943": "cale</w>",
    "6944": "vesi</w>",
    "6945": "ainen</w>",
    "6946": "mir</w>",
    "6947": "sachsen</w>",
    "6948": "astra</w>",
    "6949": "kah</w>",
    "6950": "bak</w>",
    "6951": "ر",
    "6952": "ي",
    "6953": "nep</w>",
    "6954": "bram</w>",
    "6955": "kei</w>",
    "6956": "displa",
    "6957": "chair",
    "6958": "consu",
    "6959": "kao</w>",
    "6960": "grou",
    "6961": "ichthy",
    "6962": "iger</w>",
    "6963": "teris</w>",
    "6964": "bye</w>",
    "6965": "lorenz",
    "6966": "acle</w>",
    "6967": "rish</w>",
    "6968": "amon</w>",
    "6969": "colum",
    "6970": "cred",
    "6971": "oft</w>",
    "6972": "neck",
    "6973": "thra",
    "6974": "stered</w>",
    "6975": "eper</w>",
    "6976": "pless</w>",
    "6977": "bm</w>",
    "6978": "arachn",
    "6979": "ische</w>",
    "6980": "anson</w>",
    "6981": "veng",
    "6982": "natur",
    "6983": "enic</w>",
    "6984": "metropol",
    "6985": "passi",
    "6986": "lump",
    "6987": "ential</w>",
    "6988": "imax</w>",
    "6989": "gung</w>",
    "6990": "philic</w>",
    "6991": "link",
    "6992": "yland</w>",
    "6993": "tiva</w>",
    "6994": "atch</w>",
    "6995": "irie</w>",
    "6996": "therapists</w>",
    "6997": "ined</w>",
    "6998": "peta</w>",
    "6999": "dist</w>",
    "7000": "tome",
    "7001": "baki</w>",
    "7002": "doom</w>",
    "7003": "rh</w>",
    "7004": "stet",
    "7005": "mex</w>",
    "7006": "gged</w>",
    "7007": "gashi</w>",
    "7008": "dido</w>",
    "7009": "mother",
    "7010": "cker</w>",
    "7011": "netta</w>",
    "7012": "schaft</w>",
    "7013": "entis</w>",
    "7014": "beit",
    "7015": "synchron",
    "7016": "elin",
    "7017": "zag",
    "7018": "inta</w>",
    "7019": "quir",
    "7020": "shef",
    "7021": "fea</w>",
    "7022": "hon</w>",
    "7023": "dous</w>",
    "7024": "temper",
    "7025": "odont</w>",
    "7026": "pped</w>",
    "7027": "cq</w>",
    "7028": "sf</w>",
    "7029": "spla",
    "7030": "cito</w>",
    "7031": "mart</w>",
    "7032": "pont</w>",
    "7033": "adas</w>",
    "7034": "hoy",
    "7035": "bein</w>",
    "7036": "ims</w>",
    "7037": "huis</w>",
    "7038": "ruth",
    "7039": "stat</w>",
    "7040": "risch</w>",
    "7041": "kol</w>",
    "7042": "lake",
    "7043": "wra",
    "7044": "meri",
    "7045": "pere",
    "7046": "cele",
    "7047": "ench</w>",
    "7048": "vim</w>",
    "7049": "prosel",
    "7050": "acry",
    "7051": "otherium</w>",
    "7052": "gad</w>",
    "7053": "dius</w>",
    "7054": "storia</w>",
    "7055": "bol</w>",
    "7056": "ï</w>",
    "7057": "reno</w>",
    "7058": "angi</w>",
    "7059": "ayas</w>",
    "7060": "gilber",
    "7061": "barba",
    "7062": "anization</w>",
    "7063": "engen</w>",
    "7064": "kk</w>",
    "7065": "sprou",
    "7066": "recre",
    "7067": "ismatic</w>",
    "7068": "wali</w>",
    "7069": "ayat</w>",
    "7070": "ston",
    "7071": "apple",
    "7072": "kreis",
    "7073": "endel</w>",
    "7074": "tow</w>",
    "7075": "brok",
    "7076": "sena</w>",
    "7077": "dist",
    "7078": "emp",
    "7079": "skier</w>",
    "7080": "reciproc",
    "7081": "cot</w>",
    "7082": "dys",
    "7083": "phia</w>",
    "7084": "dness</w>",
    "7085": "qui</w>",
    "7086": "battle",
    "7087": "rado</w>",
    "7088": "hadi</w>",
    "7089": "chain",
    "7090": "rah</w>",
    "7091": "inski</w>",
    "7092": "gt</w>",
    "7093": "chman</w>",
    "7094": "eness</w>",
    "7095": "gott",
    "7096": "nant</w>",
    "7097": "ù</w>",
    "7098": "fant",
    "7099": "torqu",
    "7100": "fana",
    "7101": "heed</w>",
    "7102": "lut</w>",
    "7103": "moy</w>",
    "7104": "anal",
    "7105": "urin",
    "7106": "barber",
    "7107": "icter",
    "7108": "coa</w>",
    "7109": "lau</w>",
    "7110": "shakes</w>",
    "7111": "john",
    "7112": "cyn",
    "7113": "ë",
    "7114": "ocar",
    "7115": "spermat",
    "7116": "boll",
    "7117": "ophilia</w>",
    "7118": "ped",
    "7119": "mort",
    "7120": "simp",
    "7121": "truc",
    "7122": "pipe",
    "7123": "fx</w>",
    "7124": "lair</w>",
    "7125": "ijssel",
    "7126": "rost",
    "7127": "tomy</w>",
    "7128": "schmidt</w>",
    "7129": "tempo</w>",
    "7130": "tless</w>",
    "7131": "dp</w>",
    "7132": "spermia</w>",
    "7133": "anat</w>",
    "7134": "tram",
    "7135": "diap",
    "7136": "ln</w>",
    "7137": "detain",
    "7138": "whe",
    "7139": "etty</w>",
    "7140": "bras",
    "7141": "megap",
    "7142": "nihil",
    "7143": "candi",
    "7144": "dit</w>",
    "7145": "uous</w>",
    "7146": "ulated</w>",
    "7147": "kani",
    "7148": "gher</w>",
    "7149": "thea</w>",
    "7150": "osphere</w>",
    "7151": "hoff</w>",
    "7152": "marti",
    "7153": "palla",
    "7154": "dash",
    "7155": "hola</w>",
    "7156": "slav",
    "7157": "germin",
    "7158": "comb",
    "7159": "gles</w>",
    "7160": "ayo</w>",
    "7161": "gée</w>",
    "7162": "ghan",
    "7163": "brook",
    "7164": "zee",
    "7165": "brugge</w>",
    "7166": "meh</w>",
    "7167": "asso</w>",
    "7168": "grape",
    "7169": "maire</w>",
    "7170": "dx</w>",
    "7171": "etus</w>",
    "7172": "shav",
    "7173": "lein</w>",
    "7174": "cee</w>",
    "7175": "scho",
    "7176": "dade</w>",
    "7177": "sly</w>",
    "7178": "flick</w>",
    "7179": "diss",
    "7180": "ingual</w>",
    "7181": "tah",
    "7182": "ochi</w>",
    "7183": "hair",
    "7184": "doin</w>",
    "7185": "oms</w>",
    "7186": "snor",
    "7187": "sms</w>",
    "7188": "ning",
    "7189": "sim</w>",
    "7190": "from",
    "7191": "idri",
    "7192": "juni",
    "7193": "mccar",
    "7194": "siness</w>",
    "7195": "fontaine</w>",
    "7196": "ateur</w>",
    "7197": "idler</w>",
    "7198": "augu",
    "7199": "badar",
    "7200": "kongo</w>",
    "7201": "dep",
    "7202": "devan</w>",
    "7203": "xis</w>",
    "7204": "usu",
    "7205": "coll",
    "7206": "undu",
    "7207": "asis</w>",
    "7208": "orph",
    "7209": "astro",
    "7210": "milk",
    "7211": "gak</w>",
    "7212": "hini</w>",
    "7213": "noth",
    "7214": "helm",
    "7215": "arum</w>",
    "7216": "engel</w>",
    "7217": "parted</w>",
    "7218": "kuta</w>",
    "7219": "mustaf",
    "7220": "opolis</w>",
    "7221": "yadi</w>",
    "7222": "decrimin",
    "7223": "leyman</w>",
    "7224": "fords</w>",
    "7225": "rott",
    "7226": "depend",
    "7227": "molos",
    "7228": "gp",
    "7229": "giz",
    "7230": "abby</w>",
    "7231": "ween</w>",
    "7232": "frank",
    "7233": "thra</w>",
    "7234": "chag",
    "7235": "jira</w>",
    "7236": "demo",
    "7237": "baud</w>",
    "7238": "nf</w>",
    "7239": "rhin",
    "7240": "graaf</w>",
    "7241": "न</w>",
    "7242": "fleur</w>",
    "7243": "wand</w>",
    "7244": "homa</w>",
    "7245": "tines</w>",
    "7246": "anco</w>",
    "7247": "ril",
    "7248": "$",
    "7249": "els",
    "7250": "disp",
    "7251": "von",
    "7252": "erz",
    "7253": "fjord</w>",
    "7254": "mx",
    "7255": "moire</w>",
    "7256": "tability</w>",
    "7257": "bae</w>",
    "7258": "sud</w>",
    "7259": "fw</w>",
    "7260": "oci",
    "7261": "goth</w>",
    "7262": "jit",
    "7263": "dz</w>",
    "7264": "tak</w>",
    "7265": "spy",
    "7266": "actu",
    "7267": "π",
    "7268": "oil",
    "7269": "pala</w>",
    "7270": "kor</w>",
    "7271": "roid</w>",
    "7272": "sana</w>",
    "7273": "mandi",
    "7274": "clou",
    "7275": "caz",
    "7276": "zoo",
    "7277": "shot",
    "7278": "kie</w>",
    "7279": "kp</w>",
    "7280": "00s</w>",
    "7281": "ün",
    "7282": "theor",
    "7283": "fix",
    "7284": "oney</w>",
    "7285": "trium</w>",
    "7286": "♭",
    "7287": "tó",
    "7288": "ofi",
    "7289": "issu",
    "7290": "ml",
    "7291": "chl</w>",
    "7292": "liss</w>",
    "7293": "lark</w>",
    "7294": "ghaz",
    "7295": "konar",
    "7296": "kora</w>",
    "7297": "cote</w>",
    "7298": "appel",
    "7299": "yai</w>",
    "7300": "gerland</w>",
    "7301": "dero</w>",
    "7302": "lumin",
    "7303": "jef",
    "7304": "ilam</w>",
    "7305": "proph",
    "7306": "pon</w>",
    "7307": "enting</w>",
    "7308": "corpor",
    "7309": "valent</w>",
    "7310": "sn</w>",
    "7311": "actinide</w>",
    "7312": "osus</w>",
    "7313": "alis",
    "7314": "0000</w>",
    "7315": "laga</w>",
    "7316": "alte</w>",
    "7317": "witz</w>",
    "7318": "ossola</w>",
    "7319": "gev",
    "7320": "spe</w>",
    "7321": "dela</w>",
    "7322": "put",
    "7323": "anj",
    "7324": "isers</w>",
    "7325": "salv",
    "7326": "tie",
    "7327": "aeans</w>",
    "7328": "omer</w>",
    "7329": "xton</w>",
    "7330": "vocation</w>",
    "7331": "rebu",
    "7332": "ences</w>",
    "7333": "gag",
    "7334": "arina</w>",
    "7335": "nast",
    "7336": "casta",
    "7337": "confeder",
    "7338": "famil",
    "7339": "aura</w>",
    "7340": "evin</w>",
    "7341": "artic",
    "7342": "prot",
    "7343": "js</w>",
    "7344": "racy</w>",
    "7345": "atro",
    "7346": "hallucin",
    "7347": "riya</w>",
    "7348": "fast",
    "7349": "nani</w>",
    "7350": "plea",
    "7351": "furi",
    "7352": "meridi",
    "7353": "guil",
    "7354": "vall</w>",
    "7355": "epic",
    "7356": "deira</w>",
    "7357": "shar</w>",
    "7358": "wain</w>",
    "7359": "wok</w>",
    "7360": "alam</w>",
    "7361": "gaon</w>",
    "7362": "ipur</w>",
    "7363": "tizing</w>",
    "7364": "mul</w>",
    "7365": "okin",
    "7366": "pees</w>",
    "7367": "स</w>",
    "7368": "ician</w>",
    "7369": "kul</w>",
    "7370": "osh</w>",
    "7371": "ace",
    "7372": "orpha</w>",
    "7373": "ophore</w>",
    "7374": "exer",
    "7375": "cant</w>",
    "7376": "marit",
    "7377": "perfec",
    "7378": "rene</w>",
    "7379": "ghar</w>",
    "7380": "gastro",
    "7381": "ifera</w>",
    "7382": "sensa",
    "7383": "panzer",
    "7384": "quadr",
    "7385": "egen</w>",
    "7386": "dne",
    "7387": "auch</w>",
    "7388": "hev",
    "7389": "haga</w>",
    "7390": "mang</w>",
    "7391": "acro",
    "7392": "illary</w>",
    "7393": "afric",
    "7394": "opol",
    "7395": "rossi",
    "7396": "yin</w>",
    "7397": "pai</w>",
    "7398": "thic",
    "7399": "cers</w>",
    "7400": "tv",
    "7401": "drib",
    "7402": "yaz",
    "7403": "steiner</w>",
    "7404": "netto</w>",
    "7405": "stful</w>",
    "7406": "gna",
    "7407": "hab</w>",
    "7408": "moris",
    "7409": "jō</w>",
    "7410": "jes</w>",
    "7411": "haran</w>",
    "7412": "tif</w>",
    "7413": "clé",
    "7414": "illé</w>",
    "7415": "dmitri",
    "7416": "ouchi</w>",
    "7417": "journ",
    "7418": "dest",
    "7419": "tains</w>",
    "7420": "alistic</w>",
    "7421": "rud</w>",
    "7422": "koku",
    "7423": "concep",
    "7424": "dev</w>",
    "7425": "branch",
    "7426": "kni",
    "7427": "intelli",
    "7428": "alber",
    "7429": "muñ",
    "7430": "stam</w>",
    "7431": "towicz</w>",
    "7432": "hendr",
    "7433": "oty",
    "7434": "itating</w>",
    "7435": "masch",
    "7436": "eas",
    "7437": "emul",
    "7438": "kito</w>",
    "7439": "bishop",
    "7440": "nil</w>",
    "7441": "amt</w>",
    "7442": "esti",
    "7443": "vec",
    "7444": "rut</w>",
    "7445": "twood</w>",
    "7446": "eos</w>",
    "7447": "entals</w>",
    "7448": "pill",
    "7449": "uto</w>",
    "7450": "pele",
    "7451": "gladi",
    "7452": "schem",
    "7453": "eq</w>",
    "7454": "dextr",
    "7455": "kow</w>",
    "7456": "delle</w>",
    "7457": "beth",
    "7458": "sist",
    "7459": "griff</w>",
    "7460": "penn",
    "7461": "mati",
    "7462": "ister",
    "7463": "ew</w>",
    "7464": "bana</w>",
    "7465": "emaking</w>",
    "7466": "onville</w>",
    "7467": "apoc",
    "7468": "rev",
    "7469": "vap",
    "7470": "encers</w>",
    "7471": "iary</w>",
    "7472": "tude</w>",
    "7473": "holtz</w>",
    "7474": "tene</w>",
    "7475": "bola</w>",
    "7476": "lisse</w>",
    "7477": "incor",
    "7478": "azione</w>",
    "7479": "santal",
    "7480": "ulation</w>",
    "7481": "hän",
    "7482": "kirche</w>",
    "7483": "info",
    "7484": "helen",
    "7485": "anid</w>",
    "7486": "meda</w>",
    "7487": "agonist</w>",
    "7488": "usis</w>",
    "7489": "mium</w>",
    "7490": "get",
    "7491": "acus</w>",
    "7492": "hak",
    "7493": "ingu",
    "7494": "amor",
    "7495": "atives</w>",
    "7496": "tugh",
    "7497": "wri",
    "7498": "vali</w>",
    "7499": "ïs</w>",
    "7500": "karna</w>",
    "7501": "goli",
    "7502": "ayu</w>",
    "7503": "eury",
    "7504": "henri",
    "7505": "lai",
    "7506": "veli</w>",
    "7507": "aeg",
    "7508": "veni</w>",
    "7509": "opes</w>",
    "7510": "phus</w>",
    "7511": "kline</w>",
    "7512": "raman",
    "7513": "kosi</w>",
    "7514": "bux",
    "7515": "khan",
    "7516": "oon</w>",
    "7517": "pik",
    "7518": "mard</w>",
    "7519": "hum</w>",
    "7520": "ester",
    "7521": "wark</w>",
    "7522": "rique</w>",
    "7523": "anser",
    "7524": "tante</w>",
    "7525": "abra</w>",
    "7526": "phor",
    "7527": "amine</w>",
    "7528": "vali",
    "7529": "erin",
    "7530": "dike</w>",
    "7531": "sius</w>",
    "7532": "oyama</w>",
    "7533": "hd",
    "7534": "paral",
    "7535": "mys",
    "7536": "esch",
    "7537": "gala</w>",
    "7538": "delph",
    "7539": "shoo",
    "7540": "tila</w>",
    "7541": "gray",
    "7542": "smoo",
    "7543": "heide</w>",
    "7544": "snake",
    "7545": "c3</w>",
    "7546": "summar",
    "7547": "kem</w>",
    "7548": "ān</w>",
    "7549": "felic",
    "7550": "beto</w>",
    "7551": "kiko</w>",
    "7552": "magi",
    "7553": "trix</w>",
    "7554": "deton",
    "7555": "aders</w>",
    "7556": "pakh",
    "7557": "short",
    "7558": "ianism</w>",
    "7559": "cutaneous</w>",
    "7560": "busters</w>",
    "7561": "keng</w>",
    "7562": "lido</w>",
    "7563": "syn</w>",
    "7564": "kling</w>",
    "7565": "stic</w>",
    "7566": "arte",
    "7567": "winkel</w>",
    "7568": "gish</w>",
    "7569": "meer",
    "7570": "valle",
    "7571": "kos</w>",
    "7572": "spal",
    "7573": "weser",
    "7574": "markt</w>",
    "7575": "bergis",
    "7576": "deon</w>",
    "7577": "kerk</w>",
    "7578": "omo</w>",
    "7579": "kyr",
    "7580": "azo</w>",
    "7581": "escence</w>",
    "7582": "män",
    "7583": "taip",
    "7584": "…",
    "7585": "ravi",
    "7586": "hir</w>",
    "7587": "thiru",
    "7588": "ilova</w>",
    "7589": "anova</w>",
    "7590": "baix",
    "7591": "mater",
    "7592": "fied</w>",
    "7593": "hani",
    "7594": "outine</w>",
    "7595": "2a</w>",
    "7596": "puy</w>",
    "7597": "lign",
    "7598": "dragon",
    "7599": "silk",
    "7600": "acion</w>",
    "7601": "hava</w>",
    "7602": "dienst</w>",
    "7603": "fai</w>",
    "7604": "lte</w>",
    "7605": "itap",
    "7606": "elos</w>",
    "7607": "tans</w>",
    "7608": "kell",
    "7609": "revi",
    "7610": "doi</w>",
    "7611": "lax",
    "7612": "mage</w>",
    "7613": "zewski</w>",
    "7614": "elu",
    "7615": "perf",
    "7616": "cim",
    "7617": "alta",
    "7618": "entina</w>",
    "7619": "rone</w>",
    "7620": "ankylosau",
    "7621": "nod",
    "7622": "protru",
    "7623": "balti",
    "7624": "olk</w>",
    "7625": "vann",
    "7626": "boni",
    "7627": "tima</w>",
    "7628": "phe</w>",
    "7629": "plex",
    "7630": "anag",
    "7631": "agna</w>",
    "7632": "tron",
    "7633": "valli</w>",
    "7634": "tites</w>",
    "7635": "artax",
    "7636": "seraf",
    "7637": "retro",
    "7638": "kuro",
    "7639": "tatsu",
    "7640": "ampu",
    "7641": "kauf",
    "7642": "breiten",
    "7643": "bao</w>",
    "7644": "crof",
    "7645": "okawa</w>",
    "7646": "mó",
    "7647": "iling</w>",
    "7648": "quets</w>",
    "7649": "ová</w>",
    "7650": "ą",
    "7651": "tite</w>",
    "7652": "tten",
    "7653": "polit",
    "7654": "cann",
    "7655": "esi</w>",
    "7656": "samar",
    "7657": "toon</w>",
    "7658": "anap",
    "7659": "youts</w>",
    "7660": "engle",
    "7661": "elas",
    "7662": "hel</w>",
    "7663": "dach</w>",
    "7664": "furt</w>",
    "7665": "ires</w>",
    "7666": "nepom",
    "7667": "wre",
    "7668": "gerd</w>",
    "7669": "umal</w>",
    "7670": "andro</w>",
    "7671": "entr",
    "7672": "auber",
    "7673": "gro</w>",
    "7674": "oidal</w>",
    "7675": "sona</w>",
    "7676": "zhsky</w>",
    "7677": "ities</w>",
    "7678": "brach",
    "7679": "metal",
    "7680": "schne",
    "7681": "ishi</w>",
    "7682": "buff",
    "7683": "waz",
    "7684": "arek</w>",
    "7685": "bis</w>",
    "7686": "vil</w>",
    "7687": "trig",
    "7688": "mazz",
    "7689": "tville</w>",
    "7690": "blers</w>",
    "7691": "preis</w>",
    "7692": "aus",
    "7693": "eka</w>",
    "7694": "ordin",
    "7695": "leib",
    "7696": "tland</w>",
    "7697": "ococci</w>",
    "7698": "lumi",
    "7699": "sturm",
    "7700": "kirch",
    "7701": "dii</w>",
    "7702": "incur",
    "7703": "ux",
    "7704": "asha</w>",
    "7705": "esley</w>",
    "7706": "alle</w>",
    "7707": "ovenator</w>",
    "7708": "nop",
    "7709": "eratops</w>",
    "7710": "fyodor",
    "7711": "ovna</w>",
    "7712": "toph",
    "7713": "rug",
    "7714": "dontosaurus</w>",
    "7715": "pterodacty",
    "7716": "ills</w>",
    "7717": "tway</w>",
    "7718": "uran</w>",
    "7719": "hynchus</w>",
    "7720": "rodon</w>",
    "7721": "cá",
    "7722": "odons</w>",
    "7723": "saur",
    "7724": "hry",
    "7725": "eger</w>",
    "7726": "pressuri",
    "7727": "hren",
    "7728": "hime</w>",
    "7729": "amph",
    "7730": "fiers</w>",
    "7731": "stir",
    "7732": "chau</w>",
    "7733": "seki",
    "7734": "dasy",
    "7735": "pamp",
    "7736": "ounded</w>",
    "7737": "abilis</w>",
    "7738": "hov",
    "7739": "alon</w>",
    "7740": "manti",
    "7741": "jara</w>",
    "7742": "therizin",
    "7743": "bier</w>",
    "7744": "donts</w>",
    "7745": "chun",
    "7746": "himi</w>",
    "7747": "athel",
    "7748": "hyp",
    "7749": "ssel</w>",
    "7750": "tists</w>",
    "7751": "heit",
    "7752": "tov</w>",
    "7753": "akers</w>",
    "7754": "touch",
    "7755": "techn",
    "7756": "anov</w>",
    "7757": "]",
    "7758": "mey</w>",
    "7759": "resh</w>",
    "7760": "smithing</w>",
    "7761": "beau</w>",
    "7762": "taku",
    "7763": "heng",
    "7764": "dier</w>",
    "7765": "kashima</w>",
    "7766": "varman</w>",
    "7767": "gór",
    "7768": "sanc",
    "7769": "cci</w>",
    "7770": "spokes",
    "7771": "dena</w>",
    "7772": "ppy</w>",
    "7773": "jubil",
    "7774": "nog",
    "7775": "gic</w>",
    "7776": "metz",
    "7777": "ő</w>",
    "7778": "bibli",
    "7779": "ferro",
    "7780": "evna</w>",
    "7781": "patron",
    "7782": "jé",
    "7783": "coat",
    "7784": "urst</w>",
    "7785": "shige</w>",
    "7786": "reis</w>",
    "7787": "hå",
    "7788": "endor",
    "7789": "thon",
    "7790": "cather",
    "7791": "blon",
    "7792": "chri",
    "7793": "rach",
    "7794": "p2</w>",
    "7795": "ware",
    "7796": "huber</w>",
    "7797": "akis</w>",
    "7798": "tili",
    "7799": "wet",
    "7800": "oder",
    "7801": "nist</w>",
    "7802": "ved</w>",
    "7803": "ctu</w>",
    "7804": "tuple</w>",
    "7805": "dola</w>",
    "7806": "iol",
    "7807": "éry</w>",
    "7808": "proven",
    "7809": "teng",
    "7810": "rip",
    "7811": "mô",
    "7812": "dings</w>",
    "7813": "sca</w>",
    "7814": "seki</w>",
    "7815": "crom",
    "7816": "feng</w>",
    "7817": "leen</w>",
    "7818": "boi",
    "7819": "jeri</w>",
    "7820": "mih",
    "7821": "dered</w>",
    "7822": "juda",
    "7823": "magnific",
    "7824": "effer</w>",
    "7825": "cten",
    "7826": "ariate</w>",
    "7827": "vå",
    "7828": "moham",
    "7829": "contra",
    "7830": "pani</w>",
    "7831": "ferrera</w>",
    "7832": "ghar",
    "7833": "ewald</w>",
    "7834": "beach",
    "7835": "wr</w>",
    "7836": "ller</w>",
    "7837": "evi</w>",
    "7838": "kele</w>",
    "7839": "shor",
    "7840": "evey</w>",
    "7841": "obel",
    "7842": "tna</w>",
    "7843": "flin",
    "7844": "zim</w>",
    "7845": "kreuz",
    "7846": "rella</w>",
    "7847": "holl",
    "7848": "montre",
    "7849": "othe",
    "7850": "hofer</w>",
    "7851": "kom</w>",
    "7852": "slow",
    "7853": "ای",
    "7854": "rac</w>",
    "7855": "muri</w>",
    "7856": "hor</w>",
    "7857": "aha</w>",
    "7858": "mut</w>",
    "7859": "nefer",
    "7860": "thu</w>",
    "7861": "indi</w>",
    "7862": "jy",
    "7863": "emaker</w>",
    "7864": "apop",
    "7865": "ción</w>",
    "7866": "zé</w>",
    "7867": "seo</w>",
    "7868": "semin",
    "7869": "classi",
    "7870": "aras</w>",
    "7871": "ostro",
    "7872": "rai",
    "7873": "و",
    "7874": "johann",
    "7875": "lek</w>",
    "7876": "olia</w>",
    "7877": "iste</w>",
    "7878": "amen",
    "7879": "cig",
    "7880": "elas</w>",
    "7881": "garten</w>",
    "7882": "dée</w>",
    "7883": "pavel",
    "7884": "fren",
    "7885": "assé</w>",
    "7886": "archi",
    "7887": "arn</w>",
    "7888": "eco",
    "7889": "miya</w>",
    "7890": "jad</w>",
    "7891": "mell",
    "7892": "sua</w>",
    "7893": "manit",
    "7894": "vili</w>",
    "7895": "earth",
    "7896": "jas</w>",
    "7897": "hachi",
    "7898": "tivism</w>",
    "7899": "evens</w>",
    "7900": "noon",
    "7901": "schir",
    "7902": "fani</w>",
    "7903": "mizu",
    "7904": "guri</w>",
    "7905": "arag",
    "7906": "vc</w>",
    "7907": "serge",
    "7908": "xa</w>",
    "7909": "boi</w>",
    "7910": "có",
    "7911": "memor",
    "7912": "ord</w>",
    "7913": "zik</w>",
    "7914": "kamp",
    "7915": "shil",
    "7916": "qvist</w>",
    "7917": "imperson",
    "7918": "ameth",
    "7919": "ryu",
    "7920": "benders</w>",
    "7921": "fong</w>",
    "7922": "duk</w>",
    "7923": "veena</w>",
    "7924": "csi</w>",
    "7925": "uva</w>",
    "7926": "tto</w>",
    "7927": "dali",
    "7928": "alle",
    "7929": "wd</w>",
    "7930": "spo",
    "7931": "keri</w>",
    "7932": "nr",
    "7933": "fabric",
    "7934": "chie</w>",
    "7935": "istan</w>",
    "7936": "kesh</w>",
    "7937": "gib",
    "7938": "deen</w>",
    "7939": "shov",
    "7940": "ryd</w>",
    "7941": "{\"</w>",
    "7942": "beh",
    "7943": "takam",
    "7944": "moto",
    "7945": "otani</w>",
    "7946": "uti",
    "7947": "sali",
    "7948": "erun",
    "7949": "illu",
    "7950": "hak</w>",
    "7951": "iwa</w>",
    "7952": "tsur",
    "7953": "amas",
    "7954": "azzo</w>",
    "7955": "stine</w>",
    "7956": "elly</w>",
    "7957": "bena</w>",
    "7958": "iah</w>",
    "7959": "pedi",
    "7960": "ijn</w>",
    "7961": "homos",
    "7962": "marck</w>",
    "7963": "halla</w>",
    "7964": "saras",
    "7965": "abr",
    "7966": "bez",
    "7967": "coni</w>",
    "7968": "maul",
    "7969": "gent</w>",
    "7970": "evel",
    "7971": "zas",
    "7972": "kuma</w>",
    "7973": "wul",
    "7974": "nai",
    "7975": "kham</w>",
    "7976": "poli</w>",
    "7977": "hipp",
    "7978": "tified</w>",
    "7979": "kne",
    "7980": "takan",
    "7981": "oosa</w>",
    "7982": "tles</w>",
    "7983": "telli</w>",
    "7984": "lage</w>",
    "7985": "kkila</w>",
    "7986": "endo</w>",
    "7987": "cip",
    "7988": "resp",
    "7989": "enten",
    "7990": "austral",
    "7991": "ennes</w>",
    "7992": "staufen</w>",
    "7993": "auer",
    "7994": "rhi",
    "7995": "muth</w>",
    "7996": "herman",
    "7997": "tou</w>",
    "7998": "sis",
    "7999": "daw</w>",
    "8000": "mast",
    "8001": "conven",
    "8002": "plagi",
    "8003": "novo",
    "8004": "bod",
    "8005": "ewa</w>",
    "8006": "lessly</w>",
    "8007": "nt",
    "8008": "hok</w>",
    "8009": "suc",
    "8010": "ror",
    "8011": "wod",
    "8012": "zis",
    "8013": "teat",
    "8014": "pont",
    "8015": "mullan</w>",
    "8016": "arre",
    "8017": "ved",
    "8018": "foll",
    "8019": "hofen</w>",
    "8020": "athi</w>",
    "8021": "brey</w>",
    "8022": "lig</w>",
    "8023": "sutt",
    "8024": "ortho",
    "8025": "chom",
    "8026": "ao",
    "8027": "gene",
    "8028": "erio</w>",
    "8029": "ison",
    "8030": "litz</w>",
    "8031": "montec",
    "8032": "mühle",
    "8033": "schw",
    "8034": "kuk</w>",
    "8035": "erlinsbach</w>",
    "8036": "chall",
    "8037": "fuku",
    "8038": "conc",
    "8039": "cana</w>",
    "8040": "phys",
    "8041": "ambar</w>",
    "8042": "pab",
    "8043": "chara</w>",
    "8044": "abb",
    "8045": "aksh",
    "8046": "veen</w>",
    "8047": "nos",
    "8048": "haru</w>",
    "8049": "onna</w>",
    "8050": "bözberg</w>",
    "8051": "kirch</w>",
    "8052": "etz",
    "8053": "recur",
    "8054": "leim",
    "8055": "dahl",
    "8056": "job",
    "8057": "chs</w>",
    "8058": "maiz",
    "8059": "cev",
    "8060": "whor",
    "8061": "icos",
    "8062": "ogno</w>",
    "8063": "tov",
    "8064": "merry",
    "8065": "stina</w>",
    "8066": "ogna</w>",
    "8067": "toff</w>",
    "8068": "ness",
    "8069": "kini</w>",
    "8070": "maham",
    "8071": "gass",
    "8072": "api",
    "8073": "ece</w>",
    "8074": "prom",
    "8075": "oshima</w>",
    "8076": "3i</w>",
    "8077": "scher",
    "8078": "amma</w>",
    "8079": "navi",
    "8080": "blue",
    "8081": "smann</w>",
    "8082": "bik</w>",
    "8083": "stre</w>",
    "8084": "bsa</w>",
    "8085": "caus",
    "8086": "angeli</w>",
    "8087": "ghel</w>",
    "8088": "alek",
    "8089": "idan</w>",
    "8090": "wahl",
    "8091": "brad",
    "8092": "quick",
    "8093": "selle</w>",
    "8094": "scram",
    "8095": "blat",
    "8096": "feather",
    "8097": "badi</w>",
    "8098": "tran</w>",
    "8099": "bau</w>",
    "8100": "dü",
    "8101": "rl</w>",
    "8102": "gali",
    "8103": "lc</w>",
    "8104": "merer</w>",
    "8105": "lewi",
    "8106": "rober",
    "8107": "rous",
    "8108": "vir</w>",
    "8109": "tane",
    "8110": "kashi</w>",
    "8111": "stava</w>",
    "8112": "iac</w>",
    "8113": "taw",
    "8114": "allam</w>",
    "8115": "inten",
    "8116": "broken",
    "8117": "orden</w>",
    "8118": "aza</w>",
    "8119": "brus",
    "8120": "leopol",
    "8121": "mand</w>",
    "8122": "zhen",
    "8123": "cke</w>",
    "8124": "ák</w>",
    "8125": "ycles</w>",
    "8126": "chow",
    "8127": "enton</w>",
    "8128": "agram</w>",
    "8129": "balak",
    "8130": "phul",
    "8131": "zir",
    "8132": "haj",
    "8133": "hawa</w>",
    "8134": "arlo</w>",
    "8135": "lais</w>",
    "8136": "zs</w>",
    "8137": "jose",
    "8138": "smith",
    "8139": "weg</w>",
    "8140": "dette</w>",
    "8141": "neh",
    "8142": "fert</w>",
    "8143": "obu</w>",
    "8144": "birth",
    "8145": "elsen",
    "8146": "taur",
    "8147": "dasht</w>",
    "8148": "adia</w>",
    "8149": "fakh",
    "8150": "gnac</w>",
    "8151": "thé",
    "8152": "ę",
    "8153": "bres</w>",
    "8154": "bere",
    "8155": "custom",
    "8156": "chett</w>",
    "8157": "primi",
    "8158": "sht</w>",
    "8159": "rajap",
    "8160": "igl</w>",
    "8161": "ông</w>",
    "8162": "uph",
    "8163": "gwa</w>",
    "8164": "use",
    "8165": "dex",
    "8166": "ulu",
    "8167": "tex",
    "8168": "teu",
    "8169": "entino</w>",
    "8170": "raf",
    "8171": "ins",
    "8172": "wp</w>",
    "8173": "ningham</w>",
    "8174": "næ",
    "8175": "rack",
    "8176": "teru",
    "8177": "region",
    "8178": "cory",
    "8179": "neau</w>",
    "8180": "asen</w>",
    "8181": "kuri",
    "8182": "suri",
    "8183": "sauro",
    "8184": "wali",
    "8185": "cks</w>",
    "8186": "lü",
    "8187": "yal",
    "8188": "khar</w>",
    "8189": "kovac</w>",
    "8190": "shal</w>",
    "8191": "onti</w>",
    "8192": "sut",
    "8193": "skel",
    "8194": "ymon</w>",
    "8195": "tep</w>",
    "8196": "onidae</w>",
    "8197": "centro",
    "8198": "amaz",
    "8199": "kney</w>",
    "8200": "bri</w>",
    "8201": "ffs</w>",
    "8202": "oog</w>",
    "8203": "igned</w>",
    "8204": "fig",
    "8205": "d3</w>",
    "8206": "bosheth</w>",
    "8207": "serine</w>",
    "8208": "wij",
    "8209": "drecht</w>",
    "8210": "adu</w>",
    "8211": "hut",
    "8212": "yser</w>",
    "8213": "pang",
    "8214": "palae",
    "8215": "hing",
    "8216": "litis</w>",
    "8217": "kazu</w>",
    "8218": "fb</w>",
    "8219": "amia</w>",
    "8220": "road",
    "8221": "chiri",
    "8222": "loy</w>",
    "8223": "egi</w>",
    "8224": "makh",
    "8225": "budd",
    "8226": "gop",
    "8227": "madhu",
    "8228": "mcken",
    "8229": "tsev</w>",
    "8230": "iji</w>",
    "8231": "pedia</w>",
    "8232": "bakh",
    "8233": "omus",
    "8234": "palat",
    "8235": "strasse</w>",
    "8236": "xo</w>",
    "8237": "hne</w>",
    "8238": "brot</w>",
    "8239": "dobro",
    "8240": "longu",
    "8241": "bula</w>",
    "8242": "alik</w>",
    "8243": "cré",
    "8244": "otta",
    "8245": "jb</w>",
    "8246": "adar</w>",
    "8247": "myr",
    "8248": "parad",
    "8249": "argu",
    "8250": "tigen</w>",
    "8251": "sieg",
    "8252": "rig",
    "8253": "noor",
    "8254": "cb",
    "8255": "patt",
    "8256": "oth</w>",
    "8257": "construc",
    "8258": "inier</w>",
    "8259": "gc",
    "8260": "ilin",
    "8261": "ecki</w>",
    "8262": "ellar</w>",
    "8263": "monté",
    "8264": "stay",
    "8265": "mone</w>",
    "8266": "osse</w>",
    "8267": "aster</w>",
    "8268": "vien",
    "8269": "nois</w>",
    "8270": "tzel</w>",
    "8271": "orch",
    "8272": "amie</w>",
    "8273": "phan",
    "8274": "dio",
    "8275": "athle",
    "8276": "grad</w>",
    "8277": "kamer",
    "8278": "rest",
    "8279": "yel",
    "8280": "pax",
    "8281": "ples</w>",
    "8282": "tip",
    "8283": "nang",
    "8284": "lys",
    "8285": "chad",
    "8286": "rubin",
    "8287": "yana</w>",
    "8288": "ร",
    "8289": "lle",
    "8290": "mount",
    "8291": "enon</w>",
    "8292": "tyr",
    "8293": "ières</w>",
    "8294": "scotts",
    "8295": "vigny</w>",
    "8296": "ché",
    "8297": "nieu",
    "8298": "thou",
    "8299": "rieux</w>",
    "8300": "ône</w>",
    "8301": "naz</w>",
    "8302": "joux</w>",
    "8303": "katsu</w>",
    "8304": "stake",
    "8305": "neux</w>",
    "8306": "sept",
    "8307": "foul",
    "8308": "terie</w>",
    "8309": "nières</w>",
    "8310": "elles</w>",
    "8311": "moom",
    "8312": "mend",
    "8313": "logan",
    "8314": "pess",
    "8315": "oku",
    "8316": "falc",
    "8317": "gawa</w>",
    "8318": "quinc",
    "8319": "shige",
    "8320": "eroy</w>",
    "8321": "ées</w>",
    "8322": "sières</w>",
    "8323": "lass",
    "8324": "ș",
    "8325": "typ",
    "8326": "kki</w>",
    "8327": "osuke</w>",
    "8328": "šić</w>",
    "8329": "kett",
    "8330": "ulli</w>",
    "8331": "cheong",
    "8332": "auchi</w>",
    "8333": "zwe",
    "8334": "igen</w>",
    "8335": "nak",
    "8336": "ammer</w>",
    "8337": "sugar",
    "8338": "bies</w>",
    "8339": "soo",
    "8340": "eto</w>",
    "8341": "loz",
    "8342": "oca</w>",
    "8343": "osau",
    "8344": "power",
    "8345": "ophyllum</w>",
    "8346": "cash",
    "8347": "idel</w>",
    "8348": "wader</w>",
    "8349": "lever",
    "8350": "sidi",
    "8351": "puff",
    "8352": "avil",
    "8353": "ević</w>",
    "8354": "dić</w>",
    "8355": "ogawa</w>",
    "8356": "its",
    "8357": "decagon</w>",
    "8358": "rhom",
    "8359": "insk</w>",
    "8360": "onen</w>",
    "8361": "rau",
    "8362": "atas</w>",
    "8363": "wp",
    "8364": "nish</w>",
    "8365": "ttin</w>",
    "8366": "stann",
    "8367": "shuk",
    "8368": "vijay",
    "8369": "sivity</w>",
    "8370": "kiku",
    "8371": "thali</w>",
    "8372": "nori",
    "8373": "akawa</w>",
    "8374": "elan</w>",
    "8375": "hashi</w>",
    "8376": "oco</w>",
    "8377": "burgo</w>",
    "8378": "itali",
    "8379": "ijo</w>",
    "8380": "jus",
    "8381": "niemi</w>",
    "8382": "boj",
    "8383": "simus</w>",
    "8384": "mula</w>",
    "8385": "tsar",
    "8386": "ppo</w>",
    "8387": "tek",
    "8388": "wou",
    "8389": "inal</w>",
    "8390": "landa</w>",
    "8391": "quillo</w>",
    "8392": "dwar",
    "8393": "onan</w>",
    "8394": "cazen",
    "8395": "icks</w>",
    "8396": "linski</w>",
    "8397": "samo",
    "8398": "pink",
    "8399": "äs</w>",
    "8400": "dros",
    "8401": "hess",
    "8402": "erz</w>",
    "8403": "morgen",
    "8404": "auri</w>",
    "8405": "pequ",
    "8406": "olahti</w>",
    "8407": "bá",
    "8408": "osteus</w>",
    "8409": "hack",
    "8410": "wol</w>",
    "8411": "magu",
    "8412": "arist",
    "8413": "atinga</w>",
    "8414": "kil</w>",
    "8415": "nus</w>",
    "8416": "bret",
    "8417": "titan",
    "8418": "corne",
    "8419": "pert",
    "8420": "senti",
    "8421": "abai</w>",
    "8422": "м",
    "8423": "aira</w>",
    "8424": "wati</w>",
    "8425": "chū",
    "8426": "skie</w>",
    "8427": "flin</w>",
    "8428": "dzhi",
    "8429": "todor",
    "8430": "hub",
    "8431": "gale",
    "8432": "nof",
    "8433": "jko</w>",
    "8434": "amus</w>",
    "8435": "tof",
    "8436": "pua</w>",
    "8437": "erd</w>",
    "8438": "fieri</w>",
    "8439": "elver",
    "8440": "gf",
    "8441": "hite</w>",
    "8442": "irai</w>",
    "8443": "chandra",
    "8444": "kovic</w>",
    "8445": "hey",
    "8446": "kla</w>",
    "8447": "torn",
    "8448": "seri",
    "8449": "waj</w>",
    "8450": "idazole</w>",
    "8451": "rhein",
    "8452": "ika",
    "8453": "olf</w>",
    "8454": "yō",
    "8455": "efeld</w>",
    "8456": "tsville</w>",
    "8457": "acco</w>",
    "8458": "lli</w>",
    "8459": "sre",
    "8460": "jis",
    "8461": "lel",
    "8462": "stico</w>",
    "8463": "asu</w>",
    "8464": "chū</w>",
    "8465": "villon</w>",
    "8466": "iren</w>",
    "8467": "enheim</w>",
    "8468": "lad",
    "8469": "dron</w>",
    "8470": "ksi</w>",
    "8471": "anur",
    "8472": "mof",
    "8473": "heff",
    "8474": "klein",
    "8475": "bhi",
    "8476": "wath",
    "8477": "kó</w>",
    "8478": "retten",
    "8479": "kuy",
    "8480": "jem",
    "8481": "mok",
    "8482": "ckel</w>",
    "8483": "imer</w>",
    "8484": "shei",
    "8485": "lá",
    "8486": "dano</w>",
    "8487": "geoc",
    "8488": "krasn",
    "8489": "kav",
    "8490": "hol</w>",
    "8491": "salmi</w>",
    "8492": "nz",
    "8493": "ellan</w>",
    "8494": "zman</w>",
    "8495": "oti</w>",
    "8496": "kulam</w>",
    "8497": "petal",
    "8498": "siat</w>",
    "8499": "qadi",
    "8500": "beren",
    "8501": "niv",
    "8502": "aim",
    "8503": "doux</w>",
    "8504": "sidae</w>",
    "8505": "anie</w>",
    "8506": "eber</w>",
    "8507": "eq",
    "8508": "lule</w>",
    "8509": "úa</w>",
    "8510": "hura</w>",
    "8511": "iniformes</w>",
    "8512": "boga",
    "8513": "rol</w>",
    "8514": "khari</w>",
    "8515": "erbach</w>",
    "8516": "erson</w>",
    "8517": "tjun",
    "8518": "yay",
    "8519": "nal",
    "8520": "ew",
    "8521": "chry",
    "8522": "uru",
    "8523": "guerri",
    "8524": "lepp",
    "8525": "ní",
    "8526": "pok</w>",
    "8527": "telle</w>",
    "8528": "lé</w>",
    "8529": "evia</w>",
    "8530": "kker</w>",
    "8531": "fog",
    "8532": "aeol",
    "8533": "nington</w>",
    "8534": "58",
    "8535": "dravi",
    "8536": "vish</w>",
    "8537": "kumar",
    "8538": "zl</w>",
    "8539": "krist",
    "8540": "är</w>",
    "8541": "ån",
    "8542": "olli</w>",
    "8543": "haku",
    "8544": "stin",
    "8545": "jö</w>",
    "8546": "jep",
    "8547": "sjö",
    "8548": "т",
    "8549": "fy",
    "8550": "drie</w>",
    "8551": "malay",
    "8552": "shif",
    "8553": "moz",
    "8554": "tama",
    "8555": "kimber",
    "8556": "ải</w>",
    "8557": "ally",
    "8558": "chie",
    "8559": "koff</w>",
    "8560": "zaria</w>",
    "8561": "owo</w>",
    "8562": "nberg</w>",
    "8563": "shita</w>",
    "8564": "emili",
    "8565": "zach",
    "8566": "aven",
    "8567": "jeng</w>",
    "8568": "wich",
    "8569": "ʼ",
    "8570": "eru</w>",
    "8571": "banc",
    "8572": "kup",
    "8573": "lager",
    "8574": "onis</w>",
    "8575": "andri",
    "8576": "gea",
    "8577": "nus",
    "8578": "vat",
    "8579": "cef",
    "8580": "guri",
    "8581": "duri</w>",
    "8582": "siri",
    "8583": "hammer",
    "8584": "léon",
    "8585": "kare</w>",
    "8586": "yem",
    "8587": "tikov</w>",
    "8588": "khanov</w>",
    "8589": "oura</w>",
    "8590": "bayev</w>",
    "8591": "thang",
    "8592": "lot",
    "8593": "stocken</w>",
    "8594": "thurnen</w>",
    "8595": "lahi</w>",
    "8596": "dhan",
    "8597": "eca</w>",
    "8598": "gill",
    "8599": "kong",
    "8600": "gué",
    "8601": "naj",
    "8602": "eme</w>",
    "8603": "lut",
    "8604": "mee",
    "8605": "preet</w>",
    "8606": "lati",
    "8607": "bish",
    "8608": "sax",
    "8609": "dhol",
    "8610": "hari",
    "8611": "cutt</w>",
    "8612": "derson</w>",
    "8613": "tine",
    "8614": "voort</w>",
    "8615": "kheim</w>",
    "8616": "mott",
    "8617": "broek</w>",
    "8618": "schwil</w>",
    "8619": "krum",
    "8620": "wini</w>",
    "8621": "muhi",
    "8622": "ér",
    "8623": "dele</w>",
    "8624": "otus</w>",
    "8625": "osin",
    "8626": "shov</w>",
    "8627": "kuij",
    "8628": "leima</w>",
    "8629": "tʰ",
    "8630": "ꯕ</w>",
    "8631": "akpa</w>",
    "8632": "lein",
    "8633": "untri",
    "8634": "krishna",
    "8635": "antis</w>",
    "8636": "ahir",
    "8637": "r211",
    "8638": "between</w>",
    "8639": "may</w>",
    "8640": "have</w>",
    "8641": "30</w>",
    "8642": "same</w>",
    "8643": "years</w>",
    "8644": "each</w>",
    "8645": "other</w>",
    "8646": "last</w>",
    "8647": "35</w>",
    "8648": "after</w>",
    "8649": "before</w>",
    "8650": "spring</w>",
    "8651": "greek</w>",
    "8652": "love</w>",
    "8653": "held</w>",
    "8654": "asian</w>",
    "8655": "western</w>",
    "8656": "sunday</w>",
    "8657": "25</w>",
    "8658": "central</w>",
    "8659": "european</w>",
    "8660": "night</w>",
    "8661": "marking</w>",
    "8662": "example</w>",
    "8663": "bring</w>",
    "8664": ".\"</w>",
    "8665": "coming</w>",
    "8666": "named</w>",
    "8667": "about</w>",
    "8668": "numa</w>",
    "8669": "writers</w>",
    "8670": "determined</w>",
    "8671": "consul</w>",
    "8672": "91</w>",
    "8673": "activity</w>",
    "8674": "diverse</w>",
    "8675": "human</w>",
    "8676": "author</w>",
    "8677": "experience</w>",
    "8678": "sense</w>",
    "8679": "bowl</w>",
    "8680": "used</w>",
    "8681": "hope</w>",
    "8682": "inner</w>",
    "8683": "drawing</w>",
    "8684": "done</w>",
    "8685": "division</w>",
    "8686": "design</w>",
    "8687": "certain</w>",
    "8688": "wish</w>",
    "8689": "case</w>",
    "8690": "rather</w>",
    "8691": "than</w>",
    "8692": "cave</w>",
    "8693": "india</w>",
    "8694": "rome</w>",
    "8695": "bible</w>",
    "8696": "glass</w>",
    "8697": "walls</w>",
    "8698": "painted</w>",
    "8699": "religious</w>",
    "8700": "allowed</w>",
    "8701": "too</w>",
    "8702": "figures</w>",
    "8703": "include</w>",
    "8704": "value</w>",
    "8705": "letter</w>",
    "8706": "α</w>",
    "8707": "lower</w>",
    "8708": "ā</w>",
    "8709": "sound</w>",
    "8710": "note</w>",
    "8711": "written</w>",
    "8712": "writing</w>",
    "8713": "modified</w>",
    "8714": "language</w>",
    "8715": "father</w>",
    "8716": "known</w>",
    "8717": "basis</w>",
    "8718": "live</w>",
    "8719": "outer</w>",
    "8720": "need</w>",
    "8721": "send</w>",
    "8722": "plants</w>",
    "8723": "act</w>",
    "8724": "soon</w>",
    "8725": "will</w>",
    "8726": "home</w>",
    "8727": "!</w>",
    "8728": "weather</w>",
    "8729": "huge</w>",
    "8730": "dying</w>",
    "8731": "sails</w>",
    "8732": "motion</w>",
    "8733": "matics</w>",
    "8734": "hydrogen</w>",
    "8735": "changed</w>",
    "8736": "billion</w>",
    "8737": "rapid</w>",
    "8738": "during</w>",
    "8739": "heavy</w>",
    "8740": "iron</w>",
    "8741": "parts</w>",
    "8742": "states</w>",
    "8743": "america</w>",
    "8744": "\":</w>",
    "8745": "country</w>",
    "8746": "sole</w>",
    "8747": "place</w>",
    "8748": "coast</w>",
    "8749": "computer</w>",
    "8750": "mother</w>",
    "8751": "went</w>",
    "8752": "shadow</w>",
    "8753": "going</w>",
    "8754": "edward</w>",
    "8755": "1st</w>",
    "8756": "1907</w>",
    "8757": "regarded</w>",
    "8758": "grapher</w>",
    "8759": "modern</w>",
    "8760": "break</w>",
    "8761": "german</w>",
    "8762": "possibly</w>",
    "8763": "estimated</w>",
    "8764": "royal</w>",
    "8765": "chemical</w>",
    "8766": "eating</w>",
    "8767": "computers</w>",
    "8768": "tell</w>",
    "8769": "code</w>",
    "8770": "gc</w>",
    "8771": "&</w>",
    "8772": "engine</w>",
    "8773": "starting</w>",
    "8774": "pilot</w>",
    "8775": "sex</w>",
    "8776": "taking</w>",
    "8777": "drive</w>",
    "8778": "grew</w>",
    "8779": "2012</w>",
    "8780": "suspected</w>",
    "8781": "prime</w>",
    "8782": "winning</w>",
    "8783": "american</w>",
    "8784": "you</w>",
    "8785": "album</w>",
    "8786": "33</w>",
    "8787": "selling</w>",
    "8788": "rug</w>",
    "8789": "acted</w>",
    "8790": "smith</w>",
    "8791": "played</w>",
    "8792": "chad</w>",
    "8793": "twin</w>",
    "8794": "minutes</w>",
    "8795": "teachers</w>",
    "8796": "rapper</w>",
    "8797": "sang</w>",
    "8798": "songs</w>",
    "8799": "products</w>",
    "8800": "type</w>",
    "8801": "pork</w>",
    "8802": "cane</w>",
    "8803": "keeping</w>",
    "8804": "food</w>",
    "8805": "raw</w>",
    "8806": "major</w>",
    "8807": "sure</w>",
    "8808": "development</w>",
    "8809": "area</w>",
    "8810": "iraq</w>",
    "8811": "horses</w>",
    "8812": "planting</w>",
    "8813": "soil</w>",
    "8814": "population</w>",
    "8815": "grown</w>",
    "8816": "farmers</w>",
    "8817": "buy</w>",
    "8818": "productive</w>",
    "8819": "kill</w>",
    "8820": "bugs</w>",
    "8821": "good</w>",
    "8822": "plant</w>",
    "8823": "breeding</w>",
    "8824": "genetic</w>",
    "8825": "engineering</w>",
    "8826": "eat</w>",
    "8827": "production</w>",
    "8828": "here</w>",
    "8829": "markets</w>",
    "8830": "stalk</w>",
    "8831": "jobs</w>",
    "8832": "mentally</w>",
    "8833": "building</w>",
    "8834": "operation</w>",
    "8835": "order</w>",
    "8836": "adds</w>",
    "8837": "counting</w>",
    "8838": "related</w>",
    "8839": "terms</w>",
    "8840": "right</w>",
    "8841": "tom</w>",
    "8842": "sally</w>",
    "8843": "east</w>",
    "8844": "120</w>",
    "8845": "desert</w>",
    "8846": "%</w>",
    "8847": "flower</w>",
    "8848": "continent</w>",
    "8849": "emu</w>",
    "8850": "combined</w>",
    "8851": "iii</w>",
    "8852": "south</w>",
    "8853": "=</w>",
    "8854": "inland</w>",
    "8855": "].</w>",
    "8856": "record</w>",
    "8857": "tides</w>",
    "8858": "season</w>",
    "8859": "plain</w>",
    "8860": "trees</w>",
    "8861": "big</w>",
    "8862": "level</w>",
    "8863": "bark</w>",
    "8864": "buildings</w>",
    "8865": "bows</w>",
    "8866": "spear",
    "8867": "spear</w>",
    "8868": "explored</w>",
    "8869": "hms</w>",
    "8870": "scientists</w>",
    "8871": "dr</w>",
    "8872": "mast</w>",
    "8873": "saw</w>",
    "8874": "full</w>",
    "8875": "fishing</w>",
    "8876": "seeds</w>",
    "8877": "fruit</w>",
    "8878": "leader</w>",
    "8879": "botany</w>",
    "8880": "unknown</w>",
    "8881": "flat</w>",
    "8882": "harbour</w>",
    "8883": "george</w>",
    "8884": "sort</w>",
    "8885": "builder</w>",
    "8886": "brick</w>",
    "8887": "hut</w>",
    "8888": "whar",
    "8889": "fine</w>",
    "8890": "standing</w>",
    "8891": "spread</w>",
    "8892": "herd</w>",
    "8893": "might</w>",
    "8894": "blue</w>",
    "8895": "rugged</w>",
    "8896": "brothers</w>",
    "8897": "run</w>",
    "8898": "1855</w>",
    "8899": "self</w>",
    "8900": "women</w>",
    "8901": "turks</w>",
    "8902": "fill</w>",
    "8903": "election</w>",
    "8904": "wars</w>",
    "8905": "80s</w>",
    "8906": "hawke</w>",
    "8907": "want</w>",
    "8908": "david</w>",
    "8909": "main</w>",
    "8910": "religion</w>",
    "8911": "deers</w>",
    "8912": "peter</w>",
    "8913": "bands</w>",
    "8914": "gees</w>",
    "8915": "folk</w>",
    "8916": "barry</w>",
    "8917": "dame</w>",
    "8918": "\"),</w>",
    "8919": "services</w>",
    "8920": "radio</w>",
    "8921": "directed</w>",
    "8922": "hanging</w>",
    "8923": "cate</w>",
    "8924": "organised</w>",
    "8925": "football</w>",
    "8926": "cycling</w>",
    "8927": "rowing</w>",
    "8928": "swimming</w>",
    "8929": "horse</w>",
    "8930": "racing</w>",
    "8931": "ranked</w>",
    "8932": "annual</w>",
    "8933": "lw</w>",
    "8934": "based</w>",
    "8935": "specific</w>",
    "8936": "forms</w>",
    "8937": "bats</w>",
    "8938": "remarkable</w>",
    "8939": "essential</w>",
    "8940": "species</w>",
    "8941": "hear</w>",
    "8942": "media</w>",
    "8943": "gets</w>",
    "8944": "speak</w>",
    "8945": "frequently</w>",
    "8946": "both</w>",
    "8947": "dropping</w>",
    "8948": "sounding</w>",
    "8949": "recognizable</w>",
    "8950": "ticity</w>",
    "8951": "semi</w>",
    "8952": "heard</w>",
    "8953": "described</w>",
    "8954": "trout</w>",
    "8955": "carp</w>",
    "8956": "exemp",
    "8957": "angel</w>",
    "8958": "qur</w>",
    "8959": "suggest</w>",
    "8960": "ranks</w>",
    "8961": "cheru",
    "8962": "bim</w>",
    "8963": "sword</w>",
    "8964": "adam</w>",
    "8965": "garden</w>",
    "8966": "stops</w>",
    "8967": "trick</w>",
    "8968": "fighting</w>",
    "8969": "covering</w>",
    "8970": "punished</w>",
    "8971": "kingdom</w>",
    "8972": "priest</w>",
    "8973": "thou</w>",
    "8974": "manship</w>",
    "8975": "thee</w>",
    "8976": "descending</w>",
    "8977": "wheels</w>",
    "8978": "color</w>",
    "8979": "amber</w>",
    "8980": "mating</w>",
    "8981": "creation</w>",
    "8982": "decision</w>",
    "8983": "allah</w>",
    "8984": "arabic</w>",
    "8985": "prophets</w>",
    "8986": "fail</w>",
    "8987": "considered</w>",
    "8988": "evil</w>",
    "8989": "justice</w>",
    "8990": "clean</w>",
    "8991": "faced</w>",
    "8992": "helpful</w>",
    "8993": "measure</w>",
    "8994": "appreciated</w>",
    "8995": "indians</w>",
    "8996": "tribes</w>",
    "8997": "hurt</w>",
    "8998": "leave</w>",
    "8999": "cultural</w>",
    "9000": "connected</w>",
    "9001": "bering</w>",
    "9002": "bp</w>",
    "9003": "announced</w>",
    "9004": "plan</w>",
    "9005": "monument</w>",
    "9006": "practice</w>",
    "9007": "67</w>",
    "9008": "maya</w>",
    "9009": "left</w>",
    "9010": "vians</w>",
    "9011": "elected</w>",
    "9012": "green</w>",
    "9013": "fruits</w>",
    "9014": "significance</w>",
    "9015": "seed</w>",
    "9016": "onto</w>",
    "9017": "root",
    "9018": "attacked</w>",
    "9019": "bacteria</w>",
    "9020": "49</w>",
    "9021": "leaf</w>",
    "9022": "thick</w>",
    "9023": "98</w>",
    "9024": "sii</w>",
    "9025": "cultivated</w>",
    "9026": "ið",
    "9027": "ellis</w>",
    "9028": "claims</w>",
    "9029": "nuts</w>",
    "9030": "firm</w>",
    "9031": "sour</w>",
    "9032": "sauce</w>",
    "9033": "beer</w>",
    "9034": "dna</w>",
    "9035": "',</w>",
    "9036": "tart</w>",
    "9037": "shipping</w>",
    "9038": "522</w>",
    "9039": "3000</w>",
    "9040": "reported</w>",
    "9041": "acres</w>",
    "9042": "47</w>",
    "9043": "faith</w>",
    "9044": "‎,</w>",
    "9045": "yet</w>",
    "9046": "graphs</w>",
    "9047": "input</w>",
    "9048": "values</w>",
    "9049": "dividing</w>",
    "9050": "linear</w>",
    "9051": "9th</w>",
    "9052": "840</w>",
    "9053": "designing</w>",
    "9054": "cell</w>",
    "9055": "phone</w>",
    "9056": "looks</w>",
    "9057": "steep",
    "9058": "math</w>",
    "9059": "seem</w>",
    "9060": "seless</w>",
    "9061": "understand</w>",
    "9062": "axi",
    "9063": "declared</w>",
    "9064": "distributed</w>",
    "9065": "atom</w>",
    "9066": "doing</w>",
    "9067": "charge</w>",
    "9068": "radioactive</w>",
    "9069": "defined</w>",
    "9070": "formed</w>",
    "9071": "pollen</w>",
    "9072": "noble</w>",
    "9073": "plum</w>",
    "9074": "model</w>",
    "9075": "stuck</w>",
    "9076": "foil</w>",
    "9077": "measures</w>",
    "9078": "particle</w>",
    "9079": "recorded</w>",
    "9080": "chain</w>",
    "9081": "ions</w>",
    "9082": "99</w>",
    "9083": "radiation</w>",
    "9084": "beta</w>",
    "9085": "gamma</w>",
    "9086": "bombs</w>",
    "9087": "fusion</w>",
    "9088": "amounts</w>",
    "9089": "converted</w>",
    "9090": "56</w>",
    "9091": "nickel</w>",
    "9092": "62</w>",
    "9093": "shells</w>",
    "9094": "burst</w>",
    "9095": "complicated</w>",
    "9096": "circle</w>",
    "9097": "spin</w>",
    "9098": "numbered</w>",
    "9099": "2s</w>",
    "9100": "2p</w>",
    "9101": "3s</w>",
    "9102": "4s</w>",
    "9103": "counted</w>",
    "9104": "94</w>",
    "9105": "relative</w>",
    "9106": "metallic</w>",
    "9107": "direction</w>",
    "9108": "agnetic</w>",
    "9109": "lithium</w>",
    "9110": "least</w>",
    "9111": "stop</w>",
    "9112": "existed</w>",
    "9113": "seconds</w>",
    "9114": "concerned</w>",
    "9115": "eyes</w>",
    "9116": "drew</w>",
    "9117": "estimate</w>",
    "9118": "isaac</w>",
[...]
