{
    "re": 0,
    "k": 1,
    "un": 2,
    "</w>": 3,
    "al": 4,
    "o</w>": 5,
    "ar": 6,
    "i</w>": 7,
    "m": 8,
    "n": 9,
    "z": 10,
    "u": 11,
    "d": 12,
    "in</w>": 13,
    "a</w>": 14,
    "an</w>": 15,
    "ma": 16,
    "as</w>": 17,
    "t": 18,
    "e": 19,
    "en</w>": 20,
    "la": 21,
    "g": 22,
    "b": 23,
    "er</w>": 24,
    "y": 25,
    "s": 26,
    "i": 27,
    "er": 28,
    "on</w>": 29,
    "in": 30,
    "ro": 31,
    "o": 32,
    "a": 33,
    "f": 34,
    "p": 35,
    "en": 36,
    "de": 37,
    "an": 38,
    "ra": 39,
    "mar": 40,
    "us</w>": 41,
    "u</w>": 42,
    "am": 43,
    "is</w>": 44,
    "j": 45,
    "ch": 46,
    "r": 47,
    "v": 48,
    "le": 49,
    "el": 50,
    "man": 51,
    "l": 52,
    "ti": 53,
    "h": 54,
    "el</w>": 55,
    "sh": 56,
    "y</w>": 57,
    "k</w>": 58,
    "se": 59,
    "at": 60,
    "or": 61,
    "ha": 62,
    "c": 63,
    "ab": 64,
    "si": 65,
    "ri": 66,
    "bo": 67,
    "ar</w>": 68,
    "w": 69,
    "ta": 70,
    "di": 71,
    "os</w>": 72,
    "bu": 73,
    "as": 74,
    "par": 75,
    "mo": 76,
    "mu": 77,
    "g</w>": 78,
    "te": 79,
    "ka</w>": 80,
    "ers</w>": 81,
    "sa": 82,
    "at</w>": 83,
    "vi": 84,
    "ne": 85,
    "es</w>": 86,
    "ing</w>": 87,
    "lu": 88,
    "su": 89,
    "car": 90,
    "ba": 91,
    "man</w>": 92,
    "ti</w>": 93,
    "bar": 94,
    "t</w>": 95,
    "n</w>": 96,
    "z</w>": 97,
    "na": 98,
    "be": 99,
    "co": 100,
    "ge": 101,
    "bi": 102,
    "l</w>": 103,
    "is": 104,
    "b</w>": 105,
    "on": 106,
    "cor": 107,
    "gu": 108,
    "ol": 109,
    "ov</w>": 110,
    "ya</w>": 111,
    "s</w>": 112,
    "da</w>": 113,
    "al</w>": 114,
    "du": 115,
    "ag": 116,
    "ia</w>": 117,
    "li": 118,
    "ka": 119,
    "me": 120,
    "har": 121,
    "ke</w>": 122,
    "mi": 123,
    "e</w>": 124,
    "am</w>": 125,
    "per": 126,
    "sch": 127,
    "mon": 128,
    "m</w>": 129,
    "im": 130,
    "il": 131,
    "ley</w>": 132,
    "to</w>": 133,
    "ton</w>": 134,
    "ak": 135,
    "ri</w>": 136,
    "em": 137,
    "ad": 138,
    "pe": 139,
    "ber": 140,
    "ta</w>": 141,
    "ina</w>": 142,
    "son</w>": 143,
    "p</w>": 144,
    "ana</w>": 145,
    "st": 146,
    "da": 147,
    "pa": 148,
    "mal": 149,
    "ko": 150,
    "f</w>": 151,
    "ru": 152,
    "di</w>": 153,
    "ver": 154,
    "na</w>": 155,
    "x": 156,
    "ke": 157,
    "te</w>": 158,
    "con": 159,
    "ano</w>": 160,
    "berg</w>": 161,
    "ine</w>": 162,
    "le</w>": 163,
    "ic</w>": 164,
    "ed</w>": 165,
    "os": 166,
    "bal": 167,
    "ac": 168,
    "to": 169,
    "es": 170,
    "ville</w>": 171,
    "sar": 172,
    "mor": 173,
    "mc": 174,
    "ate</w>": 175,
    "ma</w>": 176,
    "de</w>": 177,
    "can": 178,
    "ur": 179,
    "ko</w>": 180,
    "d</w>": 181,
    "ed": 182,
    "po": 183,
    "au": 184,
    "ku": 185,
    "gh": 186,
    "om": 187,
    "h</w>": 188,
    "ra</w>": 189,
    "qu": 190,
    "tu": 191,
    "cu": 192,
    "é</w>": 193,
    "ca": 194,
    "bor": 195,
    "der": 196,
    "ju": 197,
    "ter": 198,
    "ap": 199,
    "é": 200,
    "th": 201,
    "gar": 202,
    "bel": 203,
    "ou": 204,
    "um</w>": 205,
    "pre": 206,
    "ki": 207,
    "ba</w>": 208,
    "tri": 209,
    "r</w>": 210,
    "ch</w>": 211,
    "go": 212,
    "il</w>": 213,
    "it": 214,
    "do": 215,
    "lo": 216,
    "q": 217,
    "mer": 218,
    "gi": 219,
    "he": 220,
    "c</w>": 221,
    "sk": 222,
    "ani</w>": 223,
    "ki</w>": 224,
    "den": 225,
    "ben": 226,
    "tar": 227,
    "ans</w>": 228,
    "mil": 229,
    "2": 230,
    "ni": 231,
    "br": 232,
    "oc": 233,
    "kar": 234,
    "ga": 235,
    "san": 236,
    "ai</w>": 237,
    "ates</w>": 238,
    "ger": 239,
    "sp": 240,
    "ts</w>": 241,
    "ini</w>": 242,
    "pu": 243,
    "x</w>": 244,
    "den</w>": 245,
    "ie</w>": 246,
    "sal": 247,
    "az": 248,
    "land</w>": 249,
    "hi": 250,
    "ting</w>": 251,
    "ner</w>": 252,
    "ler</w>": 253,
    "one</w>": 254,
    "by</w>": 255,
    "wa": 256,
    "we": 257,
    "sub": 258,
    "val": 259,
    "op": 260,
    "jo": 261,
    "fu": 262,
    "pro": 263,
    "shi": 264,
    "ay</w>": 265,
    "bur": 266,
    "sen": 267,
    "ol</w>": 268,
    "se</w>": 269,
    "ten": 270,
    "ism</w>": 271,
    "no": 272,
    "mat": 273,
    "inter": 274,
    "fa": 275,
    "lan": 276,
    "ho": 277,
    "tor": 278,
    "ic": 279,
    "hu": 280,
    "za</w>": 281,
    "ram": 282,
    "min": 283,
    "ser": 284,
    "ker": 285,
    "et</w>": 286,
    "so": 287,
    "her": 288,
    "au</w>": 289,
    "ev": 290,
    "ja": 291,
    "pi": 292,
    "ino</w>": 293,
    "or</w>": 294,
    "v</w>": 295,
    "ah</w>": 296,
    "ok": 297,
    "ci": 298,
    "ey</w>": 299,
    "ren": 300,
    "it</w>": 301,
    "ant</w>": 302,
    "kan": 303,
    "ford</w>": 304,
    "cal": 305,
    "for": 306,
    "ter</w>": 307,
    "del": 308,
    "ul": 309,
    "ec": 310,
    "w</w>": 311,
    "ur</w>": 312,
    "ne</w>": 313,
    "ard</w>": 314,
    "men": 315,
    "si</w>": 316,
    "us": 317,
    "over": 318,
    "wi": 319,
    "af": 320,
    "em</w>": 321,
    "sc": 322,
    "ge</w>": 323,
    "av": 324,
    "ada</w>": 325,
    "th</w>": 326,
    "gen": 327,
    "gr": 328,
    "dis": 329,
    "mac": 330,
    "nor": 331,
    "war": 332,
    "bon": 333,
    "gal": 334,
    "field</w>": 335,
    "dar": 336,
    "sa</w>": 337,
    "ang</w>": 338,
    "chi</w>": 339,
    "super": 340,
    "id": 341,
    "char": 342,
    "j</w>": 343,
    "sam": 344,
    "va</w>": 345,
    "col": 346,
    "ling</w>": 347,
    "ir": 348,
    "kin": 349,
    "ker</w>": 350,
    "kin</w>": 351,
    "ot</w>": 352,
    "mel": 353,
    "co</w>": 354,
    "der</w>": 355,
    "jan": 356,
    "ens</w>": 357,
    "les</w>": 358,
    "pan": 359,
    "hal": 360,
    "lam": 361,
    "idae</w>": 362,
    "tr": 363,
    "fe": 364,
    "my": 365,
    "cap": 366,
    "ja</w>": 367,
    "ata</w>": 368,
    "ak</w>": 369,
    "kh": 370,
    "era</w>": 371,
    "ac</w>": 372,
    "id</w>": 373,
    "li</w>": 374,
    "pol": 375,
    "ell</w>": 376,
    "ite</w>": 377,
    "hy": 378,
    "ari</w>": 379,
    "var": 380,
    "sen</w>": 381,
    "ated</w>": 382,
    "ang": 383,
    "ons</w>": 384,
    "ven": 385,
    "ous</w>": 386,
    "ot": 387,
    "ski</w>": 388,
    "cre": 389,
    "ova</w>": 390,
    "ating</w>": 391,
    "ip": 392,
    "pal": 393,
    "ham": 394,
    "under": 395,
    "pa</w>": 396,
    "hol": 397,
    "ala</w>": 398,
    "ing": 399,
    "va": 400,
    "pin": 401,
    "je": 402,
    "far": 403,
    "ella</w>": 404,
    "fer": 405,
    "ty": 406,
    "chi": 407,
    "sel": 408,
    "able</w>": 409,
    "ten</w>": 410,
    "ian</w>": 411,
    "ov": 412,
    "nar": 413,
    "bach</w>": 414,
    "han": 415,
    "gri": 416,
    "ir</w>": 417,
    "fr": 418,
    "eg": 419,
    "fre": 420,
    "ga</w>": 421,
    "tur": 422,
    "bre": 423,
    "ay": 424,
    "la</w>": 425,
    "sol": 426,
    "bo</w>": 427,
    "kal": 428,
    "ban": 429,
    "hor": 430,
    "tra": 431,
    "ze</w>": 432,
    "lar": 433,
    "che": 434,
    "ane</w>": 435,
    "ica</w>": 436,
    "well</w>": 437,
    "so</w>": 438,
    "sand": 439,
    "bi</w>": 440,
    "yan</w>": 441,
    "mis": 442,
    "ze": 443,
    "ex": 444,
    "ye": 445,
    "io</w>": 446,
    "kam": 447,
    "ken": 448,
    "don": 449,
    "ah": 450,
    "kon": 451,
    "ty</w>": 452,
    "ger</w>": 453,
    "ev</w>": 454,
    "wood</w>": 455,
    "als</w>": 456,
    "rec": 457,
    "ly": 458,
    "ology</w>": 459,
    "iz": 460,
    "pen": 461,
    "ly</w>": 462,
    "tic</w>": 463,
    "ick</w>": 464,
    "com": 465,
    "ks</w>": 466,
    "out": 467,
    "tre": 468,
    "ve": 469,
    "hen": 470,
    "lin": 471,
    "ph": 472,
    "zi": 473,
    "ry": 474,
    "be</w>": 475,
    "don</w>": 476,
    "wa</w>": 477,
    "ji</w>": 478,
    "ted</w>": 479,
    "ings</w>": 480,
    "ash": 481,
    "dr": 482,
    "ena</w>": 483,
    "lin</w>": 484,
    "sun": 485,
    "do</w>": 486,
    "less</w>": 487,
    "ad</w>": 488,
    "cas": 489,
    "tan": 490,
    "wal": 491,
    "ig": 492,
    "ura</w>": 493,
    "et": 494,
    "mer</w>": 495,
    "all": 496,
    "ob": 497,
    "q</w>": 498,
    "ola</w>": 499,
    "ep": 500,
    "ale</w>": 501,
    "tro": 502,
    "ys</w>": 503,
    "bol": 504,
    "ong</w>": 505,
    "ny</w>": 506,
    "kit": 507,
    "ton": 508,
    "bas": 509,
    "ali": 510,
    "tal": 511,
    "ober": 512,
    "no</w>": 513,
    "and": 514,
    "gra": 515,
    "bir": 516,
    "eu": 517,
    "ae</w>": 518,
    "mol": 519,
    "bra": 520,
    "gre": 521,
    "bat": 522,
    "hel": 523,
    "mann</w>": 524,
    "win": 525,
    "ita</w>": 526,
    "fi": 527,
    "ara</w>": 528,
    "ama</w>": 529,
    "ou</w>": 530,
    "st</w>": 531,
    "sky</w>": 532,
    "bou": 533,
    "kat": 534,
    "\"": 535,
    "ation</w>": 536,
    "fl": 537,
    "pat": 538,
    "ites</w>": 539,
    "sh</w>": 540,
    "um": 541,
    "ham</w>": 542,
    "ny": 543,
    "sville</w>": 544,
    "ö": 545,
    "sil": 546,
    "que</w>": 547,
    "om</w>": 548,
    "gor": 549,
    "pra": 550,
    "aw": 551,
    "vel": 552,
    "ce</w>": 553,
    "ds</w>": 554,
    "sur": 555,
    "gol": 556,
    "dy</w>": 557,
    "of": 558,
    "ye</w>": 559,
    "may": 560,
    "dem": 561,
    "á": 562,
    "ines</w>": 563,
    "ent</w>": 564,
    "aceae</w>": 565,
    "20": 566,
    "bl": 567,
    "sy": 568,
    "ek</w>": 569,
    "ona</w>": 570,
    "ator</w>": 571,
    "tel": 572,
    "ji": 573,
    "ea</w>": 574,
    "dev": 575,
    "ies</w>": 576,
    "ek": 577,
    "bro": 578,
    "yu": 579,
    "dan": 580,
    "osaurus</w>": 581,
    "dor": 582,
    "tom": 583,
    "the": 584,
    "vol": 585,
    "stra": 586,
    "re</w>": 587,
    "ding</w>": 588,
    "pri": 589,
    "des": 590,
    "han</w>": 591,
    "ela</w>": 592,
    "tam": 593,
    "bet": 594,
    "ni</w>": 595,
    "5": 596,
    "ins</w>": 597,
    "ss</w>": 598,
    "dy": 599,
    "heim</w>": 600,
    "micro": 601,
    "hyper": 602,
    "cha</w>": 603,
    "els</w>": 604,
    "mur": 605,
    "son": 606,
    "dal": 607,
    "pur": 608,
    "hi</w>": 609,
    "ky</w>": 610,
    "nu": 611,
    "gel": 612,
    "og": 613,
    "lor": 614,
    "men</w>": 615,
    "age</w>": 616,
    "ken</w>": 617,
    "ness</w>": 618,
    "pr": 619,
    "ali</w>": 620,
    "elli</w>": 621,
    "ps</w>": 622,
    "bri": 623,
    "bun": 624,
    "ami</w>": 625,
    "jun": 626,
    "wil": 627,
    "kn": 628,
    "kor": 629,
    "mun": 630,
    "bis": 631,
    "bin": 632,
    "4": 633,
    "nam": 634,
    "pla": 635,
    "ment</w>": 636,
    "ore</w>": 637,
    "jo</w>": 638,
    "shi</w>": 639,
    "vo": 640,
    "ha</w>": 641,
    "ingen</w>": 642,
    "ary</w>": 643,
    "sin": 644,
    "ab</w>": 645,
    "din": 646,
    "ut": 647,
    "fri": 648,
    "by": 649,
    "sn": 650,
    "ori</w>": 651,
    "sor": 652,
    "van": 653,
    "inger</w>": 654,
    "str": 655,
    "sta</w>": 656,
    "kir": 657,
    "bé": 658,
    "tus</w>": 659,
    "ei": 660,
    "bert</w>": 661,
    "mont</w>": 662,
    "mes": 663,
    "ches</w>": 664,
    "anti": 665,
    "6": 666,
    "ses</w>": 667,
    "red": 668,
    "ded</w>": 669,
    "ent": 670,
    "dra": 671,
    "ung</w>": 672,
    "1": 673,
    "burg</w>": 674,
    "por": 675,
    "ist</w>": 676,
    "elle</w>": 677,
    "tis</w>": 678,
    "ee</w>": 679,
    "yo": 680,
    "ington</w>": 681,
    "š": 682,
    "ene</w>": 683,
    "ón</w>": 684,
    "cher": 685,
    "sha": 686,
    "ales</w>": 687,
    "bay": 688,
    "aki</w>": 689,
    "vil": 690,
    "ann": 691,
    "kov</w>": 692,
    "king</w>": 693,
    "he</w>": 694,
    "line</w>": 695,
    "3": 696,
    "dec": 697,
    "worth</w>": 698,
    "mi</w>": 699,
    "dic": 700,
    "od": 701,
    "kil": 702,
    "kas": 703,
    "ani": 704,
    "uni": 705,
    "cat": 706,
    "gan": 707,
    "ach": 708,
    "illa</w>": 709,
    "sk</w>": 710,
    "sch</w>": 711,
    "bil": 712,
    "ere</w>": 713,
    "mo</w>": 714,
    "ry</w>": 715,
    "ff</w>": 716,
    "dam": 717,
    "yn</w>": 718,
    "ney</w>": 719,
    "ä": 720,
    "rat": 721,
    "ky": 722,
    "long": 723,
    "mont": 724,
    "cha": 725,
    "ō": 726,
    "are</w>": 727,
    "art</w>": 728,
    "sab": 729,
    "un</w>": 730,
    "po</w>": 731,
    "sti": 732,
    "ca</w>": 733,
    "me</w>": 734,
    "ass": 735,
    "hou": 736,
    "poly": 737,
    "mam": 738,
    "dale</w>": 739,
    "eman</w>": 740,
    "gam": 741,
    "tin": 742,
    "len": 743,
    "inc": 744,
    "10": 745,
    "kel": 746,
    "su</w>": 747,
    "zo": 748,
    "dou": 749,
    "ron": 750,
    "cen": 751,
    "bit": 752,
    "dur": 753,
    "bla": 754,
    "cer": 755,
    "pel": 756,
    "pon": 757,
    "ber</w>": 758,
    "kur": 759,
    "ver</w>": 760,
    "ho</w>": 761,
    "che</w>": 762,
    "vir": 763,
    "nat": 764,
    "ea": 765,
    "pic": 766,
    "tics</w>": 767,
    "ns</w>": 768,
    "rom": 769,
    "nov": 770,
    "kra": 771,
    "ss": 772,
    "star": 773,
    "pap": 774,
    "ck</w>": 775,
    "dun": 776,
    "nic": 777,
    "nes": 778,
    "est": 779,
    "ran": 780,
    "á</w>": 781,
    "ora</w>": 782,
    "pur</w>": 783,
    "shar": 784,
    "ello</w>": 785,
    "mus": 786,
    "shin": 787,
    "zen": 788,
    "all</w>": 789,
    "off</w>": 790,
    "die</w>": 791,
    "tia</w>": 792,
    "bab": 793,
    "per</w>": 794,
    "hom": 795,
    "des</w>": 796,
    "bad": 797,
    "je</w>": 798,
    "bul": 799,
    "mul": 800,
    "din</w>": 801,
    "cla": 802,
    "anda</w>": 803,
    "ade</w>": 804,
    "pl": 805,
    "fo": 806,
    "bs</w>": 807,
    "cher</w>": 808,
    "ston</w>": 809,
    "hand": 810,
    "zi</w>": 811,
    "gen</w>": 812,
    "wat": 813,
    "wy": 814,
    "gan</w>": 815,
    "fla": 816,
    "cl": 817,
    "ari": 818,
    "tw": 819,
    "zu": 820,
    "sha</w>": 821,
    "sia</w>": 822,
    "cou": 823,
    "wh": 824,
    "ow": 825,
    "shu": 826,
    "jam": 827,
    "rou": 828,
    "cel": 829,
    "gun": 830,
    "za": 831,
    "and</w>": 832,
    "way</w>": 833,
    "lands</w>": 834,
    "ties</w>": 835,
    "hay": 836,
    "cro": 837,
    "jan</w>": 838,
    "pe</w>": 839,
    "ius</w>": 840,
    "ro</w>": 841,
    "ics</w>": 842,
    "tes</w>": 843,
    "í": 844,
    "non": 845,
    "ve</w>": 846,
    "chat": 847,
    "kom": 848,
    "neu": 849,
    "eng": 850,
    "ida</w>": 851,
    "ín</w>": 852,
    "sson</w>": 853,
    "sl": 854,
    "ó": 855,
    "ros</w>": 856,
    "sw": 857,
    "up": 858,
    "kap": 859,
    "eta</w>": 860,
    "gur": 861,
    "sky": 862,
    "tha</w>": 863,
    "stein</w>": 864,
    "ster</w>": 865,
    "sta": 866,
    "bau": 867,
    "back": 868,
    "zo</w>": 869,
    "fin": 870,
    "stu": 871,
    "fal": 872,
    "ium</w>": 873,
    "flor": 874,
    "onia</w>": 875,
    "gru": 876,
    "cy": 877,
    "arm": 878,
    "mag": 879,
    "til": 880,
    "ese</w>": 881,
    "cam": 882,
    "tz</w>": 883,
    "vin": 884,
    "lev": 885,
    "ero</w>": 886,
    "ai": 887,
    "kun": 888,
    "dre": 889,
    "yan": 890,
    "feld</w>": 891,
    "ei</w>": 892,
    "out</w>": 893,
    "town</w>": 894,
    "ise</w>": 895,
    "í</w>": 896,
    "let</w>": 897,
    "key</w>": 898,
    "ap</w>": 899,
    "mid": 900,
    "dian</w>": 901,
    "lo</w>": 902,
    "pas": 903,
    "black": 904,
    "osa</w>": 905,
    "ity</w>": 906,
    "ey": 907,
    "ès</w>": 908,
    "wo": 909,
    "ila</w>": 910,
    "ist": 911,
    "tru": 912,
    "wer": 913,
    "ria</w>": 914,
    "py": 915,
    "att": 916,
    "aka</w>": 917,
    "hem": 918,
    "res</w>": 919,
    "ats</w>": 920,
    "lit": 921,
    "dom": 922,
    "ette</w>": 923,
    "gon": 924,
    "ren</w>": 925,
    "ula</w>": 926,
    "vas": 927,
    "gro": 928,
    "som": 929,
    "ima</w>": 930,
    "kar</w>": 931,
    "ery</w>": 932,
    "bru": 933,
    "gau": 934,
    "ç": 935,
    "sau": 936,
    "7": 937,
    "oli</w>": 938,
    "1</w>": 939,
    "go</w>": 940,
    "star</w>": 941,
    "ists</w>": 942,
    "gn": 943,
    "ised</w>": 944,
    "ya": 945,
    "ked</w>": 946,
    "kers</w>": 947,
    "op</w>": 948,
    "ality</w>": 949,
    "ther": 950,
    "tol": 951,
    "dh": 952,
    "nieder": 953,
    "eau</w>": 954,
    "án</w>": 955,
    "ich</w>": 956,
    "sou": 957,
    "dia</w>": 958,
    "pun": 959,
    "jar": 960,
    "pul": 961,
    "kan</w>": 962,
    "bu</w>": 963,
    "pop": 964,
    "wen": 965,
    "fil": 966,
    "she": 967,
    "skaya</w>": 968,
    "ant": 969,
    "lat": 970,
    "sat": 971,
    "ā": 972,
    "cour": 973,
    "jen": 974,
    "kol": 975,
    "hum": 976,
    "gir": 977,
    "bos": 978,
    "tte</w>": 979,
    "nas": 980,
    "cra": 981,
    "ner": 982,
    "pec": 983,
    "pil": 984,
    "eri</w>": 985,
    "the</w>": 986,
    "its</w>": 987,
    "we</w>": 988,
    "led</w>": 989,
    "est</w>": 990,
    "(": 991,
    "formula_": 992,
    "ically</w>": 993,
    "ste": 994,
    "shah": 995,
    "gil": 996,
    "ole</w>": 997,
    "air": 998,
    "hur": 999,
    "ges</w>": 1000,
    "ching</w>": 1001,
    "ms</w>": 1002,
    "ls</w>": 1003,
    "ars</w>": 1004,
    "cad": 1005,
    "im</w>": 1006,
    "ance</w>": 1007,
    "water": 1008,
    "cur": 1009,
    "land": 1010,
    "yi</w>": 1011,
    "13": 1012,
    "tal</w>": 1013,
    "wald</w>": 1014,
    "hall": 1015,
    "tt": 1016,
    "kri": 1017,
    "new": 1018,
    "sters</w>": 1019,
    "rol": 1020,
    "yam": 1021,
    "sad": 1022,
    "ado</w>": 1023,
    "mari": 1024,
    "cr": 1025,
    "rie</w>": 1026,
    "sey</w>": 1027,
    "ators</w>": 1028,
    "ul</w>": 1029,
    "dae</w>": 1030,
    "ball": 1031,
    "ño</w>": 1032,
    "ž": 1033,
    "ström</w>": 1034,
    "cin": 1035,
    "play": 1036,
    "mom": 1037,
    "ell": 1038,
    "chil": 1039,
    "ović</w>": 1040,
    "chin": 1041,
    "met": 1042,
    "chal": 1043,
    "ci</w>": 1044,
    "ère</w>": 1045,
    "pit": 1046,
    "dorf</w>": 1047,
    "ran</w>": 1048,
    "ow</w>": 1049,
    "das</w>": 1050,
    "sing</w>": 1051,
    "del</w>": 1052,
    "ders</w>": 1053,
    "lie</w>": 1054,
    "ram</w>": 1055,
    "ó</w>": 1056,
    "ws</w>": 1057,
    "cri": 1058,
    "sac": 1059,
    "net</w>": 1060,
    "tor</w>": 1061,
    "ée</w>": 1062,
    "fa</w>": 1063,
    "med": 1064,
    "gi</w>": 1065,
    "ther</w>": 1066,
    "yu</w>": 1067,
    "ide</w>": 1068,
    "thi": 1069,
    "tica</w>": 1070,
    "lan</w>": 1071,
    "ard": 1072,
    "dan</w>": 1073,
    "ł": 1074,
    "ef": 1075,
    "ce": 1076,
    "jer": 1077,
    "ini": 1078,
    "yn": 1079,
    "multi": 1080,
    "ato</w>": 1081,
    "gh</w>": 1082,
    "les": 1083,
    "ō</w>": 1084,
    "ning</w>": 1085,
    "camp": 1086,
    "north": 1087,
    "ters</w>": 1088,
    "lem": 1089,
    "ec</w>": 1090,
    "ster": 1091,
    "arch": 1092,
    "dol": 1093,
    "ć</w>": 1094,
    "ong": 1095,
    "fun": 1096,
    "ire</w>": 1097,
    "lou": 1098,
    "eli": 1099,
    "å": 1100,
    "eville</w>": 1101,
    "dra</w>": 1102,
    "sher": 1103,
    "hara</w>": 1104,
    "sas": 1105,
    "stre": 1106,
    "rac": 1107,
    "yo</w>": 1108,
    "top": 1109,
    "mes</w>": 1110,
    "mit": 1111,
    "gla": 1112,
    "ess</w>": 1113,
    "sing": 1114,
    "sig": 1115,
    "hat": 1116,
    "fur": 1117,
    "ema</w>": 1118,
    "etti</w>": 1119,
    "vic": 1120,
    "ff": 1121,
    "ck": 1122,
    "up</w>": 1123,
    "head</w>": 1124,
    "see</w>": 1125,
    "burn</w>": 1126,
    "fish</w>": 1127,
    "ves</w>": 1128,
    "side</w>": 1129,
    "fi</w>": 1130,
    "bank</w>": 1131,
    "ians</w>": 1132,
    "plan": 1133,
    "mach": 1134,
    "lee</w>": 1135,
    "sm": 1136,
    "istic</w>": 1137,
    "cul": 1138,
    "ven</w>": 1139,
    "yer</w>": 1140,
    "tions</w>": 1141,
    "zen</w>": 1142,
    "trans": 1143,
    "nit": 1144,
    "oni</w>": 1145,
    "alism</w>": 1146,
    "tive</w>": 1147,
    "ement</w>": 1148,
    "lim": 1149,
    "horn</w>": 1150,
    "shing</w>": 1151,
    "stadt</w>": 1152,
    "bern": 1153,
    "sem": 1154,
    "ré": 1155,
    "pir": 1156,
    "ux</w>": 1157,
    "whit": 1158,
    "kho": 1159,
    "gs</w>": 1160,
    "ser</w>": 1161,
    "oli": 1162,
    "zer": 1163,
    "ku</w>": 1164,
    "wick</w>": 1165,
    "ble</w>": 1166,
    "wol": 1167,
    "shan": 1168,
    "bell": 1169,
    "sid": 1170,
    "ille</w>": 1171,
    "bha": 1172,
    "tem": 1173,
    "kle": 1174,
    "kes</w>": 1175,
    "ae": 1176,
    "gu</w>": 1177,
    "sham": 1178,
    "aga</w>": 1179,
    "kel</w>": 1180,
    "hir": 1181,
    "ts": 1182,
    "hoo": 1183,
    "č": 1184,
    "mas": 1185,
    "amp": 1186,
    "järvi</w>": 1187,
    "kō": 1188,
    "mé": 1189,
    "ill": 1190,
    "of</w>": 1191,
    ")</w>": 1192,
    "\"</w>": 1193,
    "4</w>": 1194,
    "air</w>": 1195,
    "more</w>": 1196,
    "stone</w>": 1197,
    "ones</w>": 1198,
    "mark</w>": 1199,
    "ice</w>": 1200,
    "saf": 1201,
    "bin</w>": 1202,
    "bury</w>": 1203,
    "uk</w>": 1204,
    "du</w>": 1205,
    "fran": 1206,
    "ally</w>": 1207,
    "enti": 1208,
    "anus</w>": 1209,
    "aba</w>": 1210,
    "bus</w>": 1211,
    "borough</w>": 1212,
    "tele": 1213,
    "ying</w>": 1214,
    "eng</w>": 1215,
    "ents</w>": 1216,
    "are": 1217,
    "pes": 1218,
    "aer": 1219,
    "ization</w>": 1220,
    "ids</w>": 1221,
    "eli</w>": 1222,
    "sburg</w>": 1223,
    "sz": 1224,
    "tat": 1225,
    "od</w>": 1226,
    "fel": 1227,
    "nan": 1228,
    "pay": 1229,
    "rum": 1230,
    "hr</w>": 1231,
    "mah": 1232,
    "ez</w>": 1233,
    "chu": 1234,
    "lun": 1235,
    "lea": 1236,
    "tic": 1237,
    "yne</w>": 1238,
    "zer</w>": 1239,
    "sham</w>": 1240,
    "ans": 1241,
    "py</w>": 1242,
    "ations</w>": 1243,
    "south": 1244,
    "quar": 1245,
    "mas</w>": 1246,
    "dri": 1247,
    "tai": 1248,
    "ix</w>": 1249,
    "14": 1250,
    "nau": 1251,
    "8": 1252,
    "sis</w>": 1253,
    "sim": 1254,
    "king": 1255,
    "head": 1256,
    "abad</w>": 1257,
    "ju</w>": 1258,
    "sley</w>": 1259,
    "kh</w>": 1260,
    "aj": 1261,
    "gy": 1262,
    "vin</w>": 1263,
    "ric": 1264,
    "sec": 1265,
    "tab": 1266,
    "tau": 1267,
    "len</w>": 1268,
    "mic": 1269,
    "itz</w>": 1270,
    "cy</w>": 1271,
    "adel": 1272,
    "kot": 1273,
    "wood": 1274,
    "nag": 1275,
    "ach</w>": 1276,
    "kha": 1277,
    "vis": 1278,
    "uk": 1279,
    "olo</w>": 1280,
    "ade": 1281,
    "tsu": 1282,
    ",</w>": 1283,
    "house</w>": 1284,
    "set</w>": 1285,
    "van</w>": 1286,
    "sin</w>": 1287,
    "ray</w>": 1288,
    "stan</w>": 1289,
    "eh</w>": 1290,
    "fe</w>": 1291,
    "ele</w>": 1292,
    "tie</w>": 1293,
    "amar": 1294,
    "12": 1295,
    "ron</w>": 1296,
    "ence</w>": 1297,
    "ill</w>": 1298,
    "formes</w>": 1299,
    "ox": 1300,
    "alist</w>": 1301,
    "bec": 1302,
    "qui": 1303,
    "oe</w>": 1304,
    "ors</w>": 1305,
    "lio</w>": 1306,
    "eland</w>": 1307,
    "yl": 1308,
    "anta</w>": 1309,
    "form": 1310,
    "bing</w>": 1311,
    "bourne</w>": 1312,
    "end": 1313,
    "sten": 1314,
    "chy</w>": 1315,
    "ides</w>": 1316,
    "yar": 1317,
    "gy</w>": 1318,
    "sed</w>": 1319,
    "gal</w>": 1320,
    "hu</w>": 1321,
    "tu</w>": 1322,
    "sp</w>": 1323,
    "ska</w>": 1324,
    "anc": 1325,
    "rang": 1326,
    "shire</w>": 1327,
    "cab": 1328,
    "lon": 1329,
    "cop": 1330,
    "tap": 1331,
    "fen": 1332,
    "ud</w>": 1333,
    "pad": 1334,
    "leg": 1335,
    "eva</w>": 1336,
    "dil": 1337,
    "hell": 1338,
    "ile</w>": 1339,
    "wel": 1340,
    "port": 1341,
    "bran": 1342,
    "medi": 1343,
    "chel": 1344,
    "maj": 1345,
    "yp": 1346,
    "fer</w>": 1347,
    "mir": 1348,
    "kr": 1349,
    "hus": 1350,
    "nes</w>": 1351,
    "ug": 1352,
    "bush": 1353,
    "ez": 1354,
    "sea": 1355,
    "ologist</w>": 1356,
    "vit": 1357,
    "bag": 1358,
    "dog": 1359,
    "ori": 1360,
    "sy</w>": 1361,
    "lov": 1362,
    "stri": 1363,
    "rin": 1364,
    "oo": 1365,
    "sus</w>": 1366,
    "bow": 1367,
    "oh": 1368,
    "rad": 1369,
    "ensis</w>": 1370,
    "cast": 1371,
    "cho": 1372,
    "kad": 1373,
    "lia</w>": 1374,
    "bus": 1375,
    "luc": 1376,
    "arn": 1377,
    "aj</w>": 1378,
    "ich": 1379,
    "tim": 1380,
    "low": 1381,
    "gas": 1382,
    "awa</w>": 1383,
    "zz": 1384,
    "iro</w>": 1385,
    "kaz": 1386,
    "back</w>": 1387,
    "our</w>": 1388,
    "ii</w>": 1389,
    "sum</w>": 1390,
    "ut</w>": 1391,
    "mad": 1392,
    "ever": 1393,
    "mou": 1394,
    "ink</w>": 1395,
    "bour": 1396,
    "mans</w>": 1397,
    "west": 1398,
    "kai</w>": 1399,
    "shan</w>": 1400,
    "ok</w>": 1401,
    "mark": 1402,
    "ll": 1403,
    "hydro": 1404,
    "clo": 1405,
    "goo": 1406,
    "sap": 1407,
    "sex": 1408,
    "sian</w>": 1409,
    "fy</w>": 1410,
    "tel</w>": 1411,
    "zed</w>": 1412,
    "green": 1413,
    "thal</w>": 1414,
    "pha": 1415,
    "ple": 1416,
    "30": 1417,
    "ik</w>": 1418,
    "nad": 1419,
    "ely</w>": 1420,
    "dro": 1421,
    "beck</w>": 1422,
    "iz</w>": 1423,
    "let": 1424,
    "pp": 1425,
    "tran": 1426,
    "dd</w>": 1427,
    "oka</w>": 1428,
    "stad</w>": 1429,
    "ants</w>": 1430,
    "ik": 1431,
    "ical</w>": 1432,
    "oma</w>": 1433,
    "gl": 1434,
    "ath": 1435,
    "neuro": 1436,
    "đ": 1437,
    "stor": 1438,
    "sher</w>": 1439,
    "ame</w>": 1440,
    "hin": 1441,
    "blu": 1442,
    "fab": 1443,
    "chen": 1444,
    "lus</w>": 1445,
    "chev": 1446,
    "aria</w>": 1447,
    "dé": 1448,
    "gang": 1449,
    "ö</w>": 1450,
    "wal</w>": 1451,
    "oy</w>": 1452,
    "ler": 1453,
    "ish</w>": 1454,
    "ear": 1455,
    "dar</w>": 1456,
    "ces</w>": 1457,
    "tos</w>": 1458,
    "eck</w>": 1459,
    "dal</w>": 1460,
    "atus</w>": 1461,
    "ep</w>": 1462,
    "ania</w>": 1463,
    "nev": 1464,
    "duc": 1465,
    "jin": 1466,
    "snow": 1467,
    "tour": 1468,
    "cross": 1469,
    "hed": 1470,
    "hon": 1471,
    "sla": 1472,
    "ois</w>": 1473,
    "blan": 1474,
    "ste</w>": 1475,
    "bang": 1476,
    "ati</w>": 1477,
    "sheim</w>": 1478,
    "zel": 1479,
    "ros": 1480,
    "ão</w>": 1481,
    "tak": 1482,
    "ves": 1483,
    "dus</w>": 1484,
    "iner</w>": 1485,
    "sberg</w>": 1486,
    "hil": 1487,
    "bud": 1488,
    "sé": 1489,
    "nik</w>": 1490,
    "pier": 1491,
    "dau": 1492,
    "ock</w>": 1493,
    "jag": 1494,
    "aro</w>": 1495,
    "any</w>": 1496,
    "2</w>": 1497,
    "app": 1498,
    "win</w>": 1499,
    "port</w>": 1500,
    "bee</w>": 1501,
    "lets</w>": 1502,
    "shot</w>": 1503,
    "mar</w>": 1504,
    "ging</w>": 1505,
    "berry</w>": 1506,
    "osis</w>": 1507,
    "box</w>": 1508,
    "gate</w>": 1509,
    "pi</w>": 1510,
    "borg</w>": 1511,
    "sho": 1512,
    "ex</w>": 1513,
    "dru": 1514,
    "bell</w>": 1515,
    "ain</w>": 1516,
    "chem": 1517,
    "onic</w>": 1518,
    "bed</w>": 1519,
    "plat": 1520,
    "ologists</w>": 1521,
    "brook</w>": 1522,
    "enc": 1523,
    "nan</w>": 1524,
    "anne</w>": 1525,
    "ful</w>": 1526,
    "ili": 1527,
    "ş": 1528,
    "ops</w>": 1529,
    "ale": 1530,
    "kman</w>": 1531,
    "stein": 1532,
    "rich": 1533,
    "bles</w>": 1534,
    "val</w>": 1535,
    "ico</w>": 1536,
    "kos": 1537,
    "mon</w>": 1538,
    "ika</w>": 1539,
    "fle": 1540,
    "para": 1541,
    "gran": 1542,
    ")": 1543,
    "ase</w>": 1544,
    "bio": 1545,
    "tt</w>": 1546,
    "vs</w>": 1547,
    "adi": 1548,
    "kins</w>": 1549,
    "tion</w>": 1550,
    "coc": 1551,
    "uc": 1552,
    "vor": 1553,
    "ray": 1554,
    "ati": 1555,
    "ized</w>": 1556,
    "anism</w>": 1557,
    "ao</w>": 1558,
    "à</w>": 1559,
    "ome</w>": 1560,
    "ean</w>": 1561,
    "but": 1562,
    "ried</w>": 1563,
    "ı</w>": 1564,
    "bia</w>": 1565,
    "nia</w>": 1566,
    "bot": 1567,
    "izing</w>": 1568,
    "ü": 1569,
    "wad": 1570,
    "cham": 1571,
    "vers</w>": 1572,
    "khar": 1573,
    "cos": 1574,
    "isa</w>": 1575,
    "int</w>": 1576,
    "maha": 1577,
    "pak": 1578,
    "lau": 1579,
    "evich</w>": 1580,
    "gos": 1581,
    "sto</w>": 1582,
    "lu</w>": 1583,
    "wil</w>": 1584,
    "oi</w>": 1585,
    "gö": 1586,
    "wester": 1587,
    "tra</w>": 1588,
    "post": 1589,
    "gold": 1590,
    "stown</w>": 1591,
    "pers</w>": 1592,
    "chol": 1593,
    "bid": 1594,
    "jas": 1595,
    "lind": 1596,
    "lé": 1597,
    "esp": 1598,
    "tun": 1599,
    "dig": 1600,
    "bac": 1601,
    "lier</w>": 1602,
    "bra</w>": 1603,
    "kul": 1604,
    "hun": 1605,
    "gle</w>": 1606,
    "que": 1607,
    "kaw": 1608,
    "raj": 1609,
    "alization</w>": 1610,
    "net": 1611,
    "ib": 1612,
    "har</w>": 1613,
    "sav": 1614,
    "jon": 1615,
    "itt</w>": 1616,
    "è": 1617,
    "lom": 1618,
    "oz": 1619,
    "ères</w>": 1620,
    "kov": 1621,
    "kum": 1622,
    "inho</w>": 1623,
    "fat": 1624,
    "call": 1625,
    "vau": 1626,
    "brand": 1627,
    "old</w>": 1628,
    "can</w>": 1629,
    "end</w>": 1630,
    "if</w>": 1631,
    "3</w>": 1632,
    "ace</w>": 1633,
    "wing</w>": 1634,
    "sea</w>": 1635,
    "book</w>": 1636,
    "tical</w>": 1637,
    "point</w>": 1638,
    "bridge</w>": 1639,
    "km</w>": 1640,
    "num": 1641,
    "eu</w>": 1642,
    "zar": 1643,
    "ft</w>": 1644,
    "ability</w>": 1645,
    "eth": 1646,
    "ouse</w>": 1647,
    "usa</w>": 1648,
    "main": 1649,
    "fully</w>": 1650,
    "lec": 1651,
    "16": 1652,
    "ball</w>": 1653,
    "spor": 1654,
    "hal</w>": 1655,
    "rag": 1656,
    "sio</w>": 1657,
    "ua</w>": 1658,
    "9": 1659,
    "vi</w>": 1660,
    "bb</w>": 1661,
    "gram</w>": 1662,
    "bar</w>": 1663,
    "alized</w>": 1664,
    "ban</w>": 1665,
    "alize</w>": 1666,
    "dos</w>": 1667,
    "anna</w>": 1668,
    "fs</w>": 1669,
    "kau": 1670,
    "sel</w>": 1671,
    "sc</w>": 1672,
    "tag": 1673,
    "bron": 1674,
    "bes": 1675,
    "burger</w>": 1676,
    "tier</w>": 1677,
    "ils</w>": 1678,
    "spe": 1679,
    "?": 1680,
    "rail": 1681,
    "anni</w>": 1682,
    "edo</w>": 1683,
    "will": 1684,
    "yang</w>": 1685,
    "oc</w>": 1686,
    "nas</w>": 1687,
    "bea": 1688,
    "ological</w>": 1689,
    "pu</w>": 1690,
    "sei</w>": 1691,
    "row": 1692,
    "mass": 1693,
    "pis": 1694,
    "shin</w>": 1695,
    "disc": 1696,
    "gar</w>": 1697,
    "bel</w>": 1698,
    "bed": 1699,
    "sted</w>": 1700,
    "god": 1701,
    "oun": 1702,
    "ship": 1703,
    "ario</w>": 1704,
    "aa</w>": 1705,
    "ath</w>": 1706,
    "!": 1707,
    "sul": 1708,
    "glen": 1709,
    "chen</w>": 1710,
    "cit": 1711,
    "ä</w>": 1712,
    "én</w>": 1713,
    "ths</w>": 1714,
    "chic": 1715,
    "jar</w>": 1716,
    "dab": 1717,
    "bry": 1718,
    "lis": 1719,
    "lac": 1720,
    "gia</w>": 1721,
    "fac": 1722,
    "big": 1723,
    "ira</w>": 1724,
    "ering</w>": 1725,
    "pet": 1726,
    "lö": 1727,
    "ula": 1728,
    "brun": 1729,
    "mu</w>": 1730,
    "nis</w>": 1731,
    "ure</w>": 1732,
    "nel": 1733,
    "guar": 1734,
    "bauer</w>": 1735,
    "wan": 1736,
    "ques</w>": 1737,
    "bre</w>": 1738,
    "wan</w>": 1739,
    "cio</w>": 1740,
    "ess": 1741,
    "yoshi": 1742,
    "gren</w>": 1743,
    "eb": 1744,
    "ful": 1745,
    "lah</w>": 1746,
    "uma</w>": 1747,
    "anth": 1748,
    "jay": 1749,
    "mau": 1750,
    "sci": 1751,
    "radi": 1752,
    "spin": 1753,
    "var</w>": 1754,
    "scher</w>": 1755,
    "fan": 1756,
    "yev</w>": 1757,
    "ax</w>": 1758,
    "lop": 1759,
    "ovich</w>": 1760,
    "ern</w>": 1761,
    "ś": 1762,
    "nec": 1763,
    "illy</w>": 1764,
    "holm</w>": 1765,
    "anz": 1766,
    "gul": 1767,
    "zh": 1768,
    "ech": 1769,
    "enne</w>": 1770,
    "gab": 1771,
    "owski</w>": 1772,
    "elo</w>": 1773,
    "pom": 1774,
    "fro": 1775,
    "coo": 1776,
    "ij": 1777,
    "stan": 1778,
    "dz": 1779,
    "rand": 1780,
    "esville</w>": 1781,
    "nin": 1782,
    "gem": 1783,
    "mim": 1784,
    "kou": 1785,
    "bc</w>": 1786,
    "her</w>": 1787,
    "gas</w>": 1788,
    "ash</w>": 1789,
    "water</w>": 1790,
    "ago</w>": 1791,
    "war</w>": 1792,
    "sun</w>": 1793,
    "bit</w>": 1794,
    "maker</w>": 1795,
    "woman</w>": 1796,
    "alia</w>": 1797,
    "uni</w>": 1798,
    "ias</w>": 1799,
    "enberg</w>": 1800,
    "inge</w>": 1801,
    "heter": 1802,
    "ned</w>": 1803,
    "tian</w>": 1804,
    "our": 1805,
    "chu</w>": 1806,
    "ater</w>": 1807,
    "ative</w>": 1808,
    "hill</w>": 1809,
    "ometer</w>": 1810,
    "ree</w>": 1811,
    "ag</w>": 1812,
    "bird</w>": 1813,
    "los</w>": 1814,
    "gle": 1815,
    "news": 1816,
    "berger</w>": 1817,
    "ring</w>": 1818,
    "mm</w>": 1819,
    "ido</w>": 1820,
    "clu": 1821,
    "mp": 1822,
    "fort</w>": 1823,
    "ier</w>": 1824,
    "com</w>": 1825,
    "rian</w>": 1826,
    "web": 1827,
    "ben</w>": 1828,
    "amp</w>": 1829,
    "izes</w>": 1830,
    "meth": 1831,
    "ache</w>": 1832,
    "bled</w>": 1833,
    "min</w>": 1834,
    "anger</w>": 1835,
    "wind": 1836,
    "sal</w>": 1837,
    "pm</w>": 1838,
    "boo": 1839,
    "ić</w>": 1840,
    "gaz": 1841,
    "wi</w>": 1842,
    "ras</w>": 1843,
    "15": 1844,
    "jac": 1845,
    "kl": 1846,
    "bon</w>": 1847,
    "bam": 1848,
    "gener": 1849,
    "tail": 1850,
    "tors</w>": 1851,
    "ie": 1852,
    "arc": 1853,
    "moh": 1854,
    "thor": 1855,
    "cu</w>": 1856,
    "rij": 1857,
    "chenko</w>": 1858,
    "shak": 1859,
    "high": 1860,
    "pp</w>": 1861,
    "open": 1862,
    "blo": 1863,
    "ps": 1864,
    "rock": 1865,
    "fication</w>": 1866,
    "esa</w>": 1867,
    "ams</w>": 1868,
    "nem": 1869,
    "ima": 1870,
    "cli": 1871,
    "fair": 1872,
    "dle</w>": 1873,
    "combe</w>": 1874,
    "stal": 1875,
    "home": 1876,
    "peri": 1877,
    "hl</w>": 1878,
    "flu": 1879,
    "tum": 1880,
    "pé": 1881,
    "ish": 1882,
    "nc": 1883,
    "nam</w>": 1884,
    "eo</w>": 1885,
    "rus": 1886,
    "bah</w>": 1887,
    "flat": 1888,
    "hei": 1889,
    "fol": 1890,
    "ize</w>": 1891,
    "lei": 1892,
    "ú</w>": 1893,
    "tre</w>": 1894,
    "jor": 1895,
    "ante</w>": 1896,
    "una</w>": 1897,
    "kis": 1898,
    "wall": 1899,
    "enter": 1900,
    "mill": 1901,
    "jet": 1902,
    "bal</w>": 1903,
    "deb": 1904,
    "ys": 1905,
    "comp": 1906,
    "qi</w>": 1907,
    "stead</w>": 1908,
    "dream": 1909,
    "icus</w>": 1910,
    "sog": 1911,
    "ais</w>": 1912,
    "nar</w>": 1913,
    "bie</w>": 1914,
    "sm</w>": 1915,
    "vel</w>": 1916,
    "ax": 1917,
    "tul": 1918,
    "aga": 1919,
    "ñ": 1920,
    "chan": 1921,
    "rh": 1922,
    "té": 1923,
    "ern": 1924,
    "nin</w>": 1925,
    "eri": 1926,
    "kok": 1927,
    "une</w>": 1928,
    "yed</w>": 1929,
    "dt</w>": 1930,
    "sug": 1931,
    "christ": 1932,
    "hausen</w>": 1933,
    "ial</w>": 1934,
    "slu": 1935,
    "ack</w>": 1936,
    "ems</w>": 1937,
    "hard": 1938,
    "aldo</w>": 1939,
    "ş</w>": 1940,
    "gie</w>": 1941,
    "chor": 1942,
    "beg": 1943,
    "sang": 1944,
    "rit": 1945,
    "brom": 1946,
    "mik": 1947,
    "hea": 1948,
    "zon</w>": 1949,
    "tz": 1950,
    "puri</w>": 1951,
    "oba</w>": 1952,
    "ów</w>": 1953,
    "sten</w>": 1954,
    "nis": 1955,
    "zan</w>": 1956,
    "kowski</w>": 1957,
    "hn</w>": 1958,
    "stro": 1959,
    "band": 1960,
    "cow": 1961,
    "cru": 1962,
    "vo</w>": 1963,
    "thi</w>": 1964,
    "oy": 1965,
    "irs</w>": 1966,
    "avi": 1967,
    "iko</w>": 1968,
    "iry</w>": 1969,
    "hä": 1970,
    "mich": 1971,
    "buck": 1972,
    "ble": 1973,
    "tang": 1974,
    "hog": 1975,
    "zan": 1976,
    "ks": 1977,
    "gui": 1978,
    "dd": 1979,
    "boy": 1980,
    "nh": 1981,
    "tta</w>": 1982,
    "sli": 1983,
    "pou": 1984,
    "oux</w>": 1985,
    "ange</w>": 1986,
    "pav": 1987,
    "was</w>": 1988,
    "8</w>": 1989,
    "use</w>": 1990,
    "has</w>": 1991,
    "dance</w>": 1992,
    "-</w>": 1993,
    "fau": 1994,
    "tv</w>": 1995,
    "lines</w>": 1996,
    "fly</w>": 1997,
    "low</w>": 1998,
    "away</w>": 1999,
    "tens</w>": 2000,
    "40</w>": 2001,
    "stones</w>": 2002,
    "boy</w>": 2003,
    "birds</w>": 2004,
    "mel</w>": 2005,
    "books</w>": 2006,
    "work": 2007,
    "amer": 2008,
    "red</w>": 2009,
    "sons</w>": 2010,
    "dat": 2011,
    "tum</w>": 2012,
    "san</w>": 2013,
    "bet</w>": 2014,
    "jin</w>": 2015,
    "soul": 2016,
    "ometry</w>": 2017,
    "af</w>": 2018,
    "fu</w>": 2019,
    "meg": 2020,
    "way": 2021,
    "dor</w>": 2022,
    "tail</w>": 2023,
    "band</w>": 2024,
    "leon": 2025,
    "aur": 2026,
    "lock</w>": 2027,
    "arti": 2028,
    "pes</w>": 2029,
    "hat</w>": 2030,
    "las</w>": 2031,
    "iri": 2032,
    "ances</w>": 2033,
    "board</w>": 2034,
    "hoh": 2035,
    "lion</w>": 2036,
    "my</w>": 2037,
    "cir": 2038,
    "cho</w>": 2039,
    "pot": 2040,
    "abi</w>": 2041,
    "0": 2042,
    "ving</w>": 2043,
    "tically</w>": 2044,
    "ably</w>": 2045,
    "tea": 2046,
    "equ": 2047,
    "kara</w>": 2048,
    "ently</w>": 2049,
    "maxim": 2050,
    "zy": 2051,
    "rs</w>": 2052,
    "ory</w>": 2053,
    "cc</w>": 2054,
    "pr</w>": 2055,
    "burgh</w>": 2056,
    "anga</w>": 2057,
    "spar": 2058,
    "tion": 2059,
    "winter": 2060,
    "jack": 2061,
    "kim": 2062,
    "hot": 2063,
    "sty": 2064,
    "ography</w>": 2065,
    "raj</w>": 2066,
    "ede</w>": 2067,
    "swa": 2068,
    "tri</w>": 2069,
    "sof": 2070,
    "ices</w>": 2071,
    "oso</w>": 2072,
    "sworth</w>": 2073,
    "cry": 2074,
    "ann</w>": 2075,
    "osaur</w>": 2076,
    "iter</w>": 2077,
    "strat": 2078,
    "tan</w>": 2079,
    "xen": 2080,
    "syn": 2081,
    "broad": 2082,
    "kid": 2083,
    "tham</w>": 2084,
    "oro</w>": 2085,
    "fic": 2086,
    "gian</w>": 2087,
    "sts</w>": 2088,
    "yar</w>": 2089,
    "lic": 2090,
    "kab": 2091,
    "â": 2092,
    "hos": 2093,
    "dini</w>": 2094,
    "cle": 2095,
    "oa</w>": 2096,
    "step": 2097,
    "shima</w>": 2098,
    "tist</w>": 2099,
    "emi": 2100,
    "alis</w>": 2101,
    "ý</w>": 2102,
    "tit": 2103,
    "mov</w>": 2104,
    "run": 2105,
    "mcc": 2106,
    "ets</w>": 2107,
    "nie</w>": 2108,
    "dead": 2109,
    "hn": 2110,
    "hetero": 2111,
    "got": 2112,
    "wur": 2113,
    "lav": 2114,
    "sai</w>": 2115,
    "gin</w>": 2116,
    "sens</w>": 2117,
    "bhu": 2118,
    "stru": 2119,
    "lish</w>": 2120,
    "jal": 2121,
    "ue</w>": 2122,
    "aud</w>": 2123,
    "law": 2124,
    "iller</w>": 2125,
    "ía</w>": 2126,
    "illo</w>": 2127,
    "phy": 2128,
    "qua</w>": 2129,
    "ento</w>": 2130,
    "loc": 2131,
    "box": 2132,
    "nicol": 2133,
    "naz": 2134,
    "ana": 2135,
    "chur": 2136,
    "ds": 2137,
    "agn": 2138,
    "rap": 2139,
    "ix": 2140,
    "sym": 2141,
    "ichi</w>": 2142,
    "liber": 2143,
    "kas</w>": 2144,
    "gom": 2145,
    "sman</w>": 2146,
    "ine": 2147,
    "zar</w>": 2148,
    "bü": 2149,
    "berg": 2150,
    "one": 2151,
    "gall": 2152,
    "oor</w>": 2153,
    "ente</w>": 2154,
    "lon</w>": 2155,
    "och": 2156,
    "nell</w>": 2157,
    "amba</w>": 2158,
    "nay</w>": 2159,
    "ont": 2160,
    "ghan</w>": 2161,
    "gou": 2162,
    "isi": 2163,
    "bhar": 2164,
    "gra</w>": 2165,
    "mei</w>": 2166,
    "jad": 2167,
    "boro</w>": 2168,
    "nab": 2169,
    "boc": 2170,
    "ř": 2171,
    "enz": 2172,
    "shō": 2173,
    "gin": 2174,
    "art": 2175,
    "eda</w>": 2176,
    "tac": 2177,
    "cav": 2178,
    "vad": 2179,
    "hü": 2180,
    "má": 2181,
    "hl": 2182,
    "endorf</w>": 2183,
    "chau": 2184,
    "oos</w>": 2185,
    "hein": 2186,
    "wies": 2187,
    "igny</w>": 2188,
    "cau": 2189,
    "squ": 2190,
    "tsch": 2191,
    "rel</w>": 2192,
    "aurus</w>": 2193,
    "mem": 2194,
    "tti</w>": 2195,
    "det</w>": 2196,
    "cus": 2197,
    "agu": 2198,
    "asp": 2199,
    "hai": 2200,
    "baz": 2201,
    "maz": 2202,
    "not": 2203,
    "nen": 2204,
    "beau": 2205,
    "ă": 2206,
    "chuk</w>": 2207,
    "shim": 2208,
    "wani</w>": 2209,
    "bak": 2210,
    "vu": 2211,
    "yasu": 2212,
    "sbach</w>": 2213,
    "dson</w>": 2214,
    "lett</w>": 2215,
    "sv": 2216,
    "rab": 2217,
    ".</w>": 2218,
    "day</w>": 2219,
    "work</w>": 2220,
    "5</w>": 2221,
    "6</w>": 2222,
    "own</w>": 2223,
    "9</w>": 2224,
    "born</w>": 2225,
    "table</w>": 2226,
    "non</w>": 2227,
    "heads</w>": 2228,
    "ship</w>": 2229,
    "ander</w>": 2230,
    "bay</w>": 2231,
    "rho": 2232,
    "uses</w>": 2233,
    "try</w>": 2234,
    "ion</w>": 2235,
    "ddy</w>": 2236,
    "param": 2237,
    "nom": 2238,
    "rate</w>": 2239,
    "sr</w>": 2240,
    "cd</w>": 2241,
    "boards</w>": 2242,
    "ling": 2243,
    "log": 2244,
    "rem": 2245,
    "enko</w>": 2246,
    "lil": 2247,
    "thom": 2248,
    "quin</w>": 2249,
    "vander": 2250,
    "cl</w>": 2251,
    "tin</w>": 2252,
    "mouth</w>": 2253,
    "smen</w>": 2254,
    "xi": 2255,
    "met</w>": 2256,
    "lay</w>": 2257,
    "lake</w>": 2258,
    "ares</w>": 2259,
    "monoc": 2260,
    "shaw</w>": 2261,
    "girl</w>": 2262,
    "rhe": 2263,
    "sv</w>": 2264,
    "link</w>": 2265,
    "bars</w>": 2266,
    "cia</w>": 2267,
    "mate</w>": 2268,
    "tar</w>": 2269,
    "yah</w>": 2270,
    "qi": 2271,
    "ssa</w>": 2272,
    "ono</w>": 2273,
    "guin": 2274,
    "prof": 2275,
    "aged</w>": 2276,
    "stam": 2277,
    "bois</w>": 2278,
    "tas</w>": 2279,
    "chrom": 2280,
    "cos</w>": 2281,
    "ring": 2282,
    "sto": 2283,
    "vand": 2284,
    "ward</w>": 2285,
    "indi": 2286,
    "sle": 2287,
    "stat": 2288,
    "-": 2289,
    "fore": 2290,
    "ă</w>": 2291,
    "rep": 2292,
    "emi</w>": 2293,
    "tering</w>": 2294,
    "lach</w>": 2295,
    "iled</w>": 2296,
    "ein": 2297,
    "ure": 2298,
    "stef": 2299,
    "down": 2300,
    "wis": 2301,
    "tism</w>": 2302,
    "ith</w>": 2303,
    "saw": 2304,
    "sby</w>": 2305,
    "az</w>": 2306,
    "euro": 2307,
    "hass": 2308,
    "oto</w>": 2309,
    "kal</w>": 2310,
    "gun</w>": 2311,
    "fire": 2312,
    "silver": 2313,
    "ui</w>": 2314,
    "hout</w>": 2315,
    "etz</w>": 2316,
    "zel</w>": 2317,
    "wes": 2318,
    "thur": 2319,
    "pré": 2320,
    "tō": 2321,
    "zam": 2322,
    "wyn</w>": 2323,
    "ots</w>": 2324,
    "qua": 2325,
    "ast</w>": 2326,
    "peter": 2327,
    "pin</w>": 2328,
    "atu": 2329,
    "oo</w>": 2330,
    "kon</w>": 2331,
    "mä": 2332,
    "dic</w>": 2333,
    "ng</w>": 2334,
    "bail": 2335,
    "df</w>": 2336,
    "mb</w>": 2337,
    "scor": 2338,
    "crow": 2339,
    "wich</w>": 2340,
    "kes": 2341,
    "with": 2342,
    "sit": 2343,
    "wick": 2344,
    "ī</w>": 2345,
    "org": 2346,
    "oe": 2347,
    "dam</w>": 2348,
    "plu": 2349,
    "sid</w>": 2350,
    "stab": 2351,
    "gat": 2352,
    "glo": 2353,
    "comm": 2354,
    "flam": 2355,
    "ographic</w>": 2356,
    "mess": 2357,
    "phal": 2358,
    "lay": 2359,
    "zes</w>": 2360,
    "etta</w>": 2361,
    "eno</w>": 2362,
    "à": 2363,
    "dis</w>": 2364,
    "sei": 2365,
    "arth": 2366,
    "anas</w>": 2367,
    "mud": 2368,
    "soc": 2369,
    "ě": 2370,
    "ito</w>": 2371,
    "ged</w>": 2372,
    "voc": 2373,
    "dou</w>": 2374,
    "zai</w>": 2375,
    "ped</w>": 2376,
    "soci": 2377,
    "ffy</w>": 2378,
    "vik</w>": 2379,
    "yas": 2380,
    "bic": 2381,
    "kou</w>": 2382,
    "counter": 2383,
    "match": 2384,
    "pam": 2385,
    "tron</w>": 2386,
    "és</w>": 2387,
    "vul": 2388,
    "pt": 2389,
    "kann": 2390,
    "bai": 2391,
    "ley": 2392,
    "pip": 2393,
    "ments</w>": 2394,
    "lyn": 2395,
    "emer": 2396,
    "exp": 2397,
    "/": 2398,
    "quad": 2399,
    "spir": 2400,
    "tha": 2401,
    "kee</w>": 2402,
    "rick</w>": 2403,
    "roman": 2404,
    "apa</w>": 2405,
    "now": 2406,
    "how": 2407,
    "yas</w>": 2408,
    "lingen</w>": 2409,
    "clem": 2410,
    "isation</w>": 2411,
    "mani</w>": 2412,
    "wor": 2413,
    "quin": 2414,
    "clar": 2415,
    "than": 2416,
    "hé": 2417,
    "ome": 2418,
    "rosen": 2419,
    "tari": 2420,
    "poli": 2421,
    "ung": 2422,
    "ead</w>": 2423,
    "lian</w>": 2424,
    "ru</w>": 2425,
    "gon</w>": 2426,
    "tus": 2427,
    "ici</w>": 2428,
    "agon</w>": 2429,
    "kett</w>": 2430,
    "pent": 2431,
    "sour": 2432,
    "proto": 2433,
    "hep": 2434,
    "alised</w>": 2435,
    "oul": 2436,
    "hul": 2437,
    "capit": 2438,
    "aux</w>": 2439,
    "cac": 2440,
    "cus</w>": 2441,
    "sie</w>": 2442,
    "sey": 2443,
    "speed": 2444,
    "ador</w>": 2445,
    "vis</w>": 2446,
    "vé": 2447,
    "unga</w>": 2448,
    "eum</w>": 2449,
    "carol": 2450,
    "ign": 2451,
    "hit": 2452,
    "villa": 2453,
    "wag": 2454,
    "å</w>": 2455,
    "ense</w>": 2456,
    "phi": 2457,
    "petro": 2458,
    "key": 2459,
    "ast": 2460,
    "mck": 2461,
    "chlor": 2462,
    "zzi</w>": 2463,
    "uri": 2464,
    "zor": 2465,
    "oss</w>": 2466,
    "kari</w>": 2467,
    "fox": 2468,
    "kawa</w>": 2469,
    "agar</w>": 2470,
    "marc": 2471,
    "ere": 2472,
    "etto</w>": 2473,
    "brick": 2474,
    "phil": 2475,
    "iv": 2476,
    "ï": 2477,
    "nikov</w>": 2478,
    "moto</w>": 2479,
    "fis": 2480,
    "dit": 2481,
    "ries</w>": 2482,
    "isi</w>": 2483,
    "wu": 2484,
    "joki</w>": 2485,
    "kay": 2486,
    "shen": 2487,
    "rö": 2488,
    "moo": 2489,
    "vid": 2490,
    "rein": 2491,
    "ppe</w>": 2492,
    "farm": 2493,
    "kla": 2494,
    "hr": 2495,
    "ert</w>": 2496,
    "ort</w>": 2497,
    "itz": 2498,
    "cum": 2499,
    "hs</w>": 2500,
    "tika</w>": 2501,
    "yte</w>": 2502,
    "ond</w>": 2503,
    "itan</w>": 2504,
    "magn": 2505,
    "tetra": 2506,
    "sus": 2507,
    "tad": 2508,
    "2k": 2509,
    "ket</w>": 2510,
    "suke</w>": 2511,
    "ë</w>": 2512,
    "ú": 2513,
    "rod": 2514,
    "aya</w>": 2515,
    "pea": 2516,
    "lal": 2517,
    "kop": 2518,
    "mani": 2519,
    "dera</w>": 2520,
    "anton": 2521,
    "gues</w>": 2522,
    "vy": 2523,
    "yon": 2524,
    "uddin</w>": 2525,
    "nil": 2526,
    "ire": 2527,
    "fou": 2528,
    "anes</w>": 2529,
    "sdorf</w>": 2530,
    "eh": 2531,
    "vill": 2532,
    "kem": 2533,
    "hö": 2534,
    "(</w>": 2535,
    "making</w>": 2536,
    "fall</w>": 2537,
    "form</w>": 2538,
    "then</w>": 2539,
    "works</w>": 2540,
    "his</w>": 2541,
    "),</w>": 2542,
    "list</w>": 2543,
    "7</w>": 2544,
    "vale</w>": 2545,
    "20</w>": 2546,
    "take</w>": 2547,
    "rich</w>": 2548,
    "grass</w>": 2549,
    "50</w>": 2550,
    "dc</w>": 2551,
    "car</w>": 2552,
    "play</w>": 2553,
    "stock</w>": 2554,
    "66</w>": 2555,
    "wise</w>": 2556,
    "balls</w>": 2557,
    "room</w>": 2558,
    "ever</w>": 2559,
    "faz": 2560,
    "river": 2561,
    "zone</w>": 2562,
    "anti</w>": 2563,
    "via</w>": 2564,
    "schi": 2565,
    "sach": 2566,
    "asa</w>": 2567,
    "gog": 2568,
    "fan</w>": 2569,
    "ng": 2570,
    "boat</w>": 2571,
    "sets</w>": 2572,
    "sit</w>": 2573,
    "rite</w>": 2574,
    "lies</w>": 2575,
    "dies</w>": 2576,
    "cm</w>": 2577,
    "ef</w>": 2578,
    "mat</w>": 2579,
    "aes": 2580,
    "fin</w>": 2581,
    "oid</w>": 2582,
    "angel": 2583,
    "ité</w>": 2584,
    "tai</w>": 2585,
    "dge</w>": 2586,
    "pen</w>": 2587,
    "pt</w>": 2588,
    "abe</w>": 2589,
    "ping</w>": 2590,
    "ily</w>": 2591,
    "esis</w>": 2592,
    "ute</w>": 2593,
    "beat</w>": 2594,
    "md</w>": 2595,
    "bug": 2596,
    "iw": 2597,
    "shed</w>": 2598,
    "aris</w>": 2599,
    "pand": 2600,
    "genic</w>": 2601,
    "adi</w>": 2602,
    "electro": 2603,
    "sar</w>": 2604,
    "auto": 2605,
    "dine</w>": 2606,
    "dupl": 2607,
    "arians</w>": 2608,
    "master</w>": 2609,
    "dell</w>": 2610,
    "eb</w>": 2611,
    "og</w>": 2612,
    "lane</w>": 2613,
    "anian</w>": 2614,
    "tec": 2615,
    "bundes": 2616,
    "sion</w>": 2617,
    "onian</w>": 2618,
    "cp</w>": 2619,
    "escu</w>": 2620,
    "tsi": 2621,
    "jani</w>": 2622,
    "chir": 2623,
    "klu": 2624,
    "rey": 2625,
    "dens</w>": 2626,
    "otti</w>": 2627,
    "bro</w>": 2628,
    "gad": 2629,
    "inga</w>": 2630,
    "mp</w>": 2631,
    "ously</w>": 2632,
    "tall": 2633,
    "ll</w>": 2634,
    "ingly</w>": 2635,
    "dom</w>": 2636,
    "zing</w>": 2637,
    "cass": 2638,
    "jima</w>": 2639,
    "vas</w>": 2640,
    "20s</w>": 2641,
    "lab": 2642,
    "rever": 2643,
    "aly</w>": 2644,
    "guill": 2645,
    "hen</w>": 2646,
    "lith": 2647,
    "worm</w>": 2648,
    "00": 2649,
    "hab": 2650,
    "colon": 2651,
    "neph": 2652,
    "verse</w>": 2653,
    "fit": 2654,
    "yoshi</w>": 2655,
    "ios</w>": 2656,
    "lip": 2657,
    "pos": 2658,
    "rier</w>": 2659,
    "keeper</w>": 2660,
    "ail</w>": 2661,
    "sü": 2662,
    "ades</w>": 2663,
    "loo": 2664,
    "grand": 2665,
    "oku</w>": 2666,
    "tet</w>": 2667,
    "assen</w>": 2668,
    "amin": 2669,
    "horn": 2670,
    "kemp": 2671,
    "ardi</w>": 2672,
    "tj": 2673,
    "inas</w>": 2674,
    "aar": 2675,
    "demon": 2676,
    "kreis</w>": 2677,
    "vet</w>": 2678,
    "uz": 2679,
    "mart": 2680,
    "avi</w>": 2681,
    "rot": 2682,
    "ises</w>": 2683,
    "nagar</w>": 2684,
    "odi": 2685,
    "alla</w>": 2686,
    "bos</w>": 2687,
    "alu": 2688,
    "loch</w>": 2689,
    "tou": 2690,
    "ema": 2691,
    "rad</w>": 2692,
    "onga</w>": 2693,
    "thal": 2694,
    "til</w>": 2695,
    "ume</w>": 2696,
    "ott</w>": 2697,
    "vara</w>": 2698,
    "cd": 2699,
    "pli": 2700,
    "frog": 2701,
    "eson</w>": 2702,
    "dee</w>": 2703,
    "dad": 2704,
    "gies</w>": 2705,
    "carab": 2706,
    "jes": 2707,
    "gham</w>": 2708,
    "[": 2709,
    "yeh</w>": 2710,
    "sek</w>": 2711,
    "chy": 2712,
    "atta</w>": 2713,
    "akes</w>": 2714,
    "uno</w>": 2715,
    "ako</w>": 2716,
    "outs</w>": 2717,
    "leys</w>": 2718,
    "ovo</w>": 2719,
    "flo": 2720,
    "olis</w>": 2721,
    "aw</w>": 2722,
    "bane</w>": 2723,
    "gio</w>": 2724,
    "cov": 2725,
    "bas</w>": 2726,
    "aries</w>": 2727,
    "ava</w>": 2728,
    "brit": 2729,
    "ost": 2730,
    "rati": 2731,
    "emia</w>": 2732,
    "ratt": 2733,
    "ums</w>": 2734,
    "hra</w>": 2735,
    "ê": 2736,
    "centr": 2737,
    "sever": 2738,
    "mr": 2739,
    "leh": 2740,
    "moon": 2741,
    "cyber": 2742,
    "fem": 2743,
    "ric</w>": 2744,
    "ind": 2745,
    "tani</w>": 2746,
    "spring": 2747,
    "dio</w>": 2748,
    "dre</w>": 2749,
    "uch": 2750,
    "gus</w>": 2751,
    "mali": 2752,
    "ville": 2753,
    "ett</w>": 2754,
    "sett</w>": 2755,
    "cic": 2756,
    "ettes</w>": 2757,
    "imi</w>": 2758,
    "alp": 2759,
    "ods</w>": 2760,
    "rum</w>": 2761,
    "roc": 2762,
    "né": 2763,
    "nap": 2764,
    "ered</w>": 2765,
    "anka</w>": 2766,
    "teer</w>": 2767,
    "aman</w>": 2768,
    "essen": 2769,
    "bly</w>": 2770,
    "say": 2771,
    "ero": 2772,
    "bium</w>": 2773,
    "archae": 2774,
    "tius</w>": 2775,
    "alo</w>": 2776,
    "shal": 2777,
    "dijk</w>": 2778,
    "wijk</w>": 2779,
    "weis": 2780,
    "thr": 2781,
    "uta</w>": 2782,
    "andre": 2783,
    "sud": 2784,
    "bah": 2785,
    "allo</w>": 2786,
    "wang": 2787,
    "dly</w>": 2788,
    "shab": 2789,
    "dj": 2790,
    "ridg": 2791,
    "hag": 2792,
    "ña</w>": 2793,
    "ano": 2794,
    "inian</w>": 2795,
    "elling</w>": 2796,
    "ref": 2797,
    "dul": 2798,
    "vish": 2799,
    "igu": 2800,
    "kash": 2801,
    "take": 2802,
    "bes</w>": 2803,
    "uru</w>": 2804,
    "ols</w>": 2805,
    "toll": 2806,
    "jak</w>": 2807,
    "dha": 2808,
    "bara</w>": 2809,
    "quer": 2810,
    "ched</w>": 2811,
    "night": 2812,
    "franc": 2813,
    "imp": 2814,
    "yama</w>": 2815,
    "ación</w>": 2816,
    "ait": 2817,
    "block": 2818,
    "arsen": 2819,
    "real": 2820,
    "kak": 2821,
    "chand": 2822,
    "onne</w>": 2823,
    "urus</w>": 2824,
    "toc": 2825,
    "inus</w>": 2826,
    "ragh": 2827,
    "twe": 2828,
    "inn": 2829,
    "fing</w>": 2830,
    "ota</w>": 2831,
    "fish": 2832,
    "fern": 2833,
    "wit": 2834,
    "dia": 2835,
    "alex": 2836,
    "fru": 2837,
    "ı": 2838,
    "lea</w>": 2839,
    "enza</w>": 2840,
    "eus</w>": 2841,
    "orum</w>": 2842,
    ",": 2843,
    "strom</w>": 2844,
    "auer</w>": 2845,
    "zie</w>": 2846,
    "lang": 2847,
    "ingo</w>": 2848,
    "vy</w>": 2849,
    "jos": 2850,
    "nir": 2851,
    "rub": 2852,
    "zak": 2853,
    "zab": 2854,
    "zy</w>": 2855,
    "lux": 2856,
    "sf": 2857,
    "dak</w>": 2858,
    "stol": 2859,
    "ayev</w>": 2860,
    "oids</w>": 2861,
    "gers</w>": 2862,
    "pus": 2863,
    "fingen</w>": 2864,
    "kali": 2865,
    "sant": 2866,
    "aca</w>": 2867,
    "quist</w>": 2868,
    "hop": 2869,
    "zell</w>": 2870,
    "yuki</w>": 2871,
    "nen</w>": 2872,
    "alten": 2873,
    "eux</w>": 2874,
    "iformes</w>": 2875,
    "dov": 2876,
    "ris</w>": 2877,
    "chak</w>": 2878,
    "ara": 2879,
    "fus": 2880,
    "ī": 2881,
    "bourg</w>": 2882,
    "bur</w>": 2883,
    "stur": 2884,
    "kuk": 2885,
    "set": 2886,
    "saurus</w>": 2887,
    "inen</w>": 2888,
    "laur": 2889,
    "unter": 2890,
    "ija</w>": 2891,
    "his": 2892,
    "hec": 2893,
    "izer</w>": 2894,
    "र</w>": 2895,
    "brown": 2896,
    "bom": 2897,
    "schwe": 2898,
    "bt</w>": 2899,
    "adam": 2900,
    "off": 2901,
    "doc": 2902,
    "taka": 2903,
    "odon</w>": 2904,
    "cn": 2905,
    "hiro": 2906,
    "umi</w>": 2907,
    "bren": 2908,
    "sag": 2909,
    "haz": 2910,
    "isen</w>": 2911,
    "fag": 2912,
    "corn": 2913,
    "hohen": 2914,
    "tico</w>": 2915,
    "vall": 2916,
    "jim": 2917,
    "nord": 2918,
    "fon": 2919,
    "lum": 2920,
    "xin": 2921,
    "aar</w>": 2922,
    "kow": 2923,
    "ković</w>": 2924,
    "inda</w>": 2925,
    "rob": 2926,
    "abu": 2927,
    "kang": 2928,
    "groß": 2929,
    "see": 2930,
    "tric": 2931,
    "pres": 2932,
    "kro": 2933,
    "cycl": 2934,
    "quet</w>": 2935,
    "blin": 2936,
    "kei": 2937,
    "bler</w>": 2938,
    "zat</w>": 2939,
    "stin</w>": 2940,
    "nim": 2941,
    "dag": 2942,
    "gow": 2943,
    "swil</w>": 2944,
    "jou": 2945,
    "gler</w>": 2946,
    "kk": 2947,
    "ahi": 2948,
    "kai": 2949,
    "nik": 2950,
    "ša</w>": 2951,
    "chap": 2952,
    "yi": 2953,
    "storp</w>": 2954,
    "world</w>": 2955,
    "long</w>": 2956,
    "ox</w>": 2957,
    "fire</w>": 2958,
    "gay</w>": 2959,
    "test</w>": 2960,
    "cs</w>": 2961,
    "12</w>": 2962,
    "size</w>": 2963,
    "makers</w>": 2964,
    "80</w>": 2965,
    "300</w>": 2966,
    "000</w>": 2967,
    "front</w>": 2968,
    "stream</w>": 2969,
    "fed</w>": 2970,
    "kim</w>": 2971,
    "aq": 2972,
    "genesis</w>": 2973,
    "thing</w>": 2974,
    "tons</w>": 2975,
    "=": 2976,
    "atom": 2977,
    "site</w>": 2978,
    "dim</w>": 2979,
    "wind</w>": 2980,
    "lights</w>": 2981,
    "arch</w>": 2982,
    "style</w>": 2983,
    "storms</w>": 2984,
    "sass": 2985,
    "cone</w>": 2986,
    "ens": 2987,
    "sell</w>": 2988,
    "liqu": 2989,
    "brow": 2990,
    "dish</w>": 2991,
    "ming</w>": 2992,
    "chin</w>": 2993,
    "...</w>": 2994,
    "stev": 2995,
    "gier</w>": 2996,
    "jn</w>": 2997,
    "braz": 2998,
    "jack</w>": 2999,
    "ethn": 3000,
    "song</w>": 3001,
    "mak</w>": 3002,
    "burgh": 3003,
    "lit</w>": 3004,
    "con</w>": 3005,
    "marks</w>": 3006,
    "nor</w>": 3007,
    "gat</w>": 3008,
    "kron": 3009,
    "bli": 3010,
    "shaft</w>": 3011,
    "virus</w>": 3012,
    "sions</w>": 3013,
    "tory</w>": 3014,
    "ery": 3015,
    "mono": 3016,
    "ank</w>": 3017,
    "lili": 3018,
    "arian</w>": 3019,
    "ph</w>": 3020,
    "lock": 3021,
    "fur</w>": 3022,
    "tim</w>": 3023,
    "ia": 3024,
    "sna": 3025,
    "dl</w>": 3026,
    "dea</w>": 3027,
    "esta</w>": 3028,
    "kala</w>": 3029,
    "ours</w>": 3030,
    "sic": 3031,
    "landers</w>": 3032,
    "lander</w>": 3033,
    "marin": 3034,
    "shes</w>": 3035,
    "bek</w>": 3036,
    "ellen</w>": 3037,
    "ichiro</w>": 3038,
    "ʻ": 3039,
    "ridge</w>": 3040,
    "ores</w>": 3041,
    "minu": 3042,
    "dum</w>": 3043,
    "xi</w>": 3044,
    "pet</w>": 3045,
    "sps</w>": 3046,
    "ion": 3047,
    "fee</w>": 3048,
    "yon</w>": 3049,
    "inf": 3050,
    "world": 3051,
    "log</w>": 3052,
    "swe": 3053,
    "ising</w>": 3054,
    "sign": 3055,
    "wen</w>": 3056,
    "gos</w>": 3057,
    "poc": 3058,
    "rod</w>": 3059,
    "anu</w>": 3060,
    "schle": 3061,
    "sible</w>": 3062,
    "iki</w>": 3063,
    "wiki": 3064,
    "gens</w>": 3065,
    "acc": 3066,
    "án": 3067,
    "apo": 3068,
    "backs</w>": 3069,
    "amide</w>": 3070,
    "trin": 3071,
    "odes</w>": 3072,
    "dac": 3073,
    "än": 3074,
    "ove</w>": 3075,
    "uri</w>": 3076,
    "four": 3077,
    "grun": 3078,
    "sse</w>": 3079,
    "viol": 3080,
    "lah": 3081,
    "essen</w>": 3082,
    "vell": 3083,
    "ns": 3084,
    "bip": 3085,
    "oman</w>": 3086,
    "df": 3087,
    "dahl</w>": 3088,
    "ancy</w>": 3089,
    "½</w>": 3090,
    "yer": 3091,
    "ß</w>": 3092,
    "twi": 3093,
    "neur": 3094,
    "mut": 3095,
    "reg": 3096,
    "antes</w>": 3097,
    "pus</w>": 3098,
    "lid</w>": 3099,
    "zee</w>": 3100,
    "tr</w>": 3101,
    "alizing</w>": 3102,
    "è</w>": 3103,
    "ç</w>": 3104,
    "qa": 3105,
    "ob</w>": 3106,
    "esh": 3107,
    "hart</w>": 3108,
    "school": 3109,
    "lessness</w>": 3110,
    "thes</w>": 3111,
    "oda</w>": 3112,
    "lady": 3113,
    "bat</w>": 3114,
    "angi": 3115,
    "ular</w>": 3116,
    "guy": 3117,
    "cf</w>": 3118,
    "cool": 3119,
    "mg</w>": 3120,
    "aq</w>": 3121,
    "igo</w>": 3122,
    "lund</w>": 3123,
    "sting</w>": 3124,
    "seg": 3125,
    "tos": 3126,
    "hydr": 3127,
    "isms</w>": 3128,
    "alc": 3129,
    "bok</w>": 3130,
    "olig": 3131,
    "aber": 3132,
    "ration</w>": 3133,
    "ا": 3134,
    "pore</w>": 3135,
    "steg": 3136,
    "mayr</w>": 3137,
    "kö": 3138,
    "cock</w>": 3139,
    "sai": 3140,
    "bash": 3141,
    "iga</w>": 3142,
    "mie</w>": 3143,
    "roy": 3144,
    "kley</w>": 3145,
    "minster</w>": 3146,
    "mary": 3147,
    "ris": 3148,
    "ting": 3149,
    "ske": 3150,
    "sno": 3151,
    "ware</w>": 3152,
    "chet</w>": 3153,
    "well": 3154,
    "shap": 3155,
    "eless</w>": 3156,
    "acanth": 3157,
    "mania</w>": 3158,
    "part": 3159,
    "assi": 3160,
    "11": 3161,
    "né</w>": 3162,
    "gb</w>": 3163,
    "uli</w>": 3164,
    "jab": 3165,
    "pal</w>": 3166,
    "shri": 3167,
    "ature</w>": 3168,
    "zia</w>": 3169,
    "bloom": 3170,
    "buc": 3171,
    "anos</w>": 3172,
    "prun": 3173,
    "wool": 3174,
    "wild": 3175,
    "chino</w>": 3176,
    "hari</w>": 3177,
    "milit": 3178,
    "fitz": 3179,
    "iron": 3180,
    "oz</w>": 3181,
    "wy</w>": 3182,
    "lak</w>": 3183,
    "uro</w>": 3184,
    "ose</w>": 3185,
    "joh": 3186,
    "mal</w>": 3187,
    "nur": 3188,
    "pho": 3189,
    "jah</w>": 3190,
    "khu": 3191,
    "anu": 3192,
    "dino</w>": 3193,
    "tau</w>": 3194,
    "а</w>": 3195,
    "grac": 3196,
    "other": 3197,
    "human": 3198,
    "brain": 3199,
    "homme</w>": 3200,
    "ashi": 3201,
    "lav</w>": 3202,
    "kot</w>": 3203,
    "nu</w>": 3204,
    "shu</w>": 3205,
    "dani": 3206,
    "beek</w>": 3207,
    "laun": 3208,
    "wid": 3209,
    "stop": 3210,
    "vos</w>": 3211,
    "inka</w>": 3212,
    "ticism</w>": 3213,
    "ements</w>": 3214,
    "ft": 3215,
    "mini": 3216,
    "sop": 3217,
    "moor": 3218,
    "ech</w>": 3219,
    "zu</w>": 3220,
    "voor": 3221,
    "fron": 3222,
    "iler</w>": 3223,
    "sec</w>": 3224,
    "shir": 3225,
    "jä": 3226,
    "serv": 3227,
    "hun</w>": 3228,
    "ček</w>": 3229,
    "hm</w>": 3230,
    "yville</w>": 3231,
    "emen</w>": 3232,
    "fl</w>": 3233,
    "nou": 3234,
    "buri</w>": 3235,
    "aqu": 3236,
    "mos</w>": 3237,
    "jum": 3238,
    "lamp": 3239,
    "acu": 3240,
    "show": 3241,
    "hide": 3242,
    "tionist</w>": 3243,
    "giri</w>": 3244,
    "cron": 3245,
    "domin": 3246,
    "cros": 3247,
    "font": 3248,
    "gee</w>": 3249,
    "shel": 3250,
    ":": 3251,
    "ilia</w>": 3252,
    "wash": 3253,
    "guer": 3254,
    "opa</w>": 3255,
    "los": 3256,
    "ony</w>": 3257,
    "aker</w>": 3258,
    "tril": 3259,
    "dir": 3260,
    "kwa": 3261,
    "tey</w>": 3262,
    "oph": 3263,
    "nel</w>": 3264,
    "aru": 3265,
    "elia</w>": 3266,
    "schul": 3267,
    "gard</w>": 3268,
    "oud</w>": 3269,
    "atory</w>": 3270,
    "inck</w>": 3271,
    "bey": 3272,
    "alisation</w>": 3273,
    "master": 3274,
    "stand": 3275,
    "break": 3276,
    "sti</w>": 3277,
    "ind</w>": 3278,
    "lie": 3279,
    "fos": 3280,
    "mang": 3281,
    "kur</w>": 3282,
    "ital": 3283,
    "år": 3284,
    "lius</w>": 3285,
    "ener": 3286,
    "akh": 3287,
    "sak": 3288,
    "masa": 3289,
    "bir</w>": 3290,
    "ining</w>": 3291,
    "kha</w>": 3292,
    "fulness</w>": 3293,
    "lyn</w>": 3294,
    "rani</w>": 3295,
    ".": 3296,
    "aut</w>": 3297,
    "carr": 3298,
    "ick": 3299,
    "ading</w>": 3300,
    "aph": 3301,
    "bass": 3302,
    "fo</w>": 3303,
    "hill": 3304,
    "illi": 3305,
    "vac": 3306,
    "bog": 3307,
    "ovi": 3308,
    "agan</w>": 3309,
    "iss</w>": 3310,
    "psych": 3311,
    "rem</w>": 3312,
    "ogo</w>": 3313,
    "tman</w>": 3314,
    "rea</w>": 3315,
    "yd</w>": 3316,
    "yal</w>": 3317,
    "ture</w>": 3318,
    "sma</w>": 3319,
    "ely": 3320,
    "rin</w>": 3321,
    "eae</w>": 3322,
    "tur</w>": 3323,
    "thin": 3324,
    "nir</w>": 3325,
    "mí": 3326,
    "ðr</w>": 3327,
    "pd</w>": 3328,
    "pig": 3329,
    "kat</w>": 3330,
    "uch</w>": 3331,
    "kaf": 3332,
    "sup": 3333,
    "then": 3334,
    "gaard</w>": 3335,
    "lud": 3336,
    "cano</w>": 3337,
    "toshi": 3338,
    "gg</w>": 3339,
    "haus</w>": 3340,
    "thro": 3341,
    "mt": 3342,
    "det": 3343,
    "kass": 3344,
    "ssy</w>": 3345,
    "gny</w>": 3346,
    "tik</w>": 3347,
    "kah": 3348,
    "dai": 3349,
    "а": 3350,
    "has": 3351,
    "lus": 3352,
    "stro</w>": 3353,
    "alam": 3354,
    "pos</w>": 3355,
    "yl</w>": 3356,
    "fam": 3357,
    "itsu</w>": 3358,
    "cay": 3359,
    "gov": 3360,
    "spi": 3361,
    "escap": 3362,
    "kka</w>": 3363,
    "aero": 3364,
    "ross": 3365,
    "taro</w>": 3366,
    "song": 3367,
    "ambo</w>": 3368,
    "hem</w>": 3369,
    "cz": 3370,
    "kill": 3371,
    "jak": 3372,
    "hof</w>": 3373,
    "lai</w>": 3374,
    "dok": 3375,
    "def": 3376,
    "iser</w>": 3377,
    "sev": 3378,
    "vari": 3379,
    "epi": 3380,
    "dry": 3381,
    "nob": 3382,
    "cheng</w>": 3383,
    "dee": 3384,
    "park": 3385,
    "vre": 3386,
    "ais": 3387,
    "bby</w>": 3388,
    "eni</w>": 3389,
    "megal": 3390,
    "sche</w>": 3391,
    "ssen</w>": 3392,
    "heu": 3393,
    "vag": 3394,
    "spr": 3395,
    "nier</w>": 3396,
    "р": 3397,
    "ges": 3398,
    "suki</w>": 3399,
    "montal": 3400,
    "camer": 3401,
    "bb": 3402,
    "oni": 3403,
    "mm": 3404,
    "schö": 3405,
    "dur</w>": 3406,
    "о": 3407,
    "know": 3408,
    "nei": 3409,
    "kre": 3410,
    "ß": 3411,
    "idi": 3412,
    "zin</w>": 3413,
    "km": 3414,
    "izu</w>": 3415,
    "swar": 3416,
    "dh</w>": 3417,
    "eller</w>": 3418,
    "agne</w>": 3419,
    "noc": 3420,
    "tl</w>": 3421,
    "är": 3422,
    "miy": 3423,
    "fying</w>": 3424,
    "osaurs</w>": 3425,
    "leu": 3426,
    "ré</w>": 3427,
    "fot": 3428,
    "paw": 3429,
    "aden": 3430,
    "aru</w>": 3431,
    "gim": 3432,
    "yeong</w>": 3433,
    "ando</w>": 3434,
    "kari": 3435,
    "ison</w>": 3436,
    "loy": 3437,
    "what": 3438,
    "mö": 3439,
    "samp": 3440,
    "vig": 3441,
    "agen</w>": 3442,
    "kle</w>": 3443,
    "bble</w>": 3444,
    "ofen</w>": 3445,
    "grim": 3446,
    "fay": 3447,
    "nach</w>": 3448,
    "ayan</w>": 3449,
    "die": 3450,
    "ilo</w>": 3451,
    "was": 3452,
    "wski</w>": 3453,
    "chak": 3454,
    "yum": 3455,
    "dea": 3456,
    "alli</w>": 3457,
    "daw": 3458,
    "sek": 3459,
    "mai": 3460,
    "arab": 3461,
    "agh": 3462,
    "cun": 3463,
    "obo": 3464,
    "lette</w>": 3465,
    "hau": 3466,
    "tas": 3467,
    "uki</w>": 3468,
    "fuji": 3469,
    "œ": 3470,
    "kis</w>": 3471,
    "lar</w>": 3472,
    "gul</w>": 3473,
    "arri": 3474,
    "chner</w>": 3475,
    "bö": 3476,
    "pow": 3477,
    "ński</w>": 3478,
    "meh": 3479,
    "dg": 3480,
    "eun": 3481,
    "mand": 3482,
    "qa</w>": 3483,
    "hardt</w>": 3484,
    "eaux</w>": 3485,
    "gis": 3486,
    "ub": 3487,
    "ame": 3488,
    "nau</w>": 3489,
    "atra</w>": 3490,
    "kus": 3491,
    "gand": 3492,
    "rei": 3493,
    "ien</w>": 3494,
    "ghi</w>": 3495,
    "rington</w>": 3496,
    "fé": 3497,
    "kirchen</w>": 3498,
    "ík</w>": 3499,
    "khal": 3500,
    "hrer</w>": 3501,
    "lik</w>": 3502,
    "khi": 3503,
    "ique</w>": 3504,
    "shig": 3505,
    "kru": 3506,
    "omi</w>": 3507,
    "doll": 3508,
    "hang": 3509,
    "illes</w>": 3510,
    "zzy</w>": 3511,
    "omin": 3512,
    "storf</w>": 3513,
    "gour": 3514,
    "lik": 3515,
    "otte</w>": 3516,
    "encourt</w>": 3517,
    "scar": 3518,
    "kazu": 3519,
    "kand": 3520,
    "esh</w>": 3521,
    "oster": 3522,
    "ango</w>": 3523,
    "iya</w>": 3524,
    "emann</w>": 3525,
    "ø": 3526,
    "hiko</w>": 3527,
    "nette</w>": 3528,
    "ammi</w>": 3529,
    "mall": 3530,
    "ör": 3531,
    "chit": 3532,
    "ovsky</w>": 3533,
    "lew": 3534,
    "sum": 3535,
    "opoulos</w>": 3536,
    "fors</w>": 3537,
    "sele</w>": 3538,
    "grö": 3539,
    "onov</w>": 3540,
    "dik": 3541,
    "ková</w>": 3542,
    "'</w>": 3543,
    "\",</w>": 3544,
    "but</w>": 3545,
    "13</w>": 3546,
    "say</w>": 3547,
    "get</w>": 3548,
    "them</w>": 3549,
    "rock</w>": 3550,
    "ages</w>": 3551,
    "now</w>": 3552,
    "view</w>": 3553,
    "pad</w>": 3554,
    "space</w>": 3555,
    "plate</w>": 3556,
    "did</w>": 3557,
    "17</w>": 3558,
    "23</w>": 3559,
    "]</w>": 3560,
    "she</w>": 3561,
    "park</w>": 3562,
    "law</w>": 3563,
    "force</w>": 3564,
    "court</w>": 3565,
    "19</w>": 3566,
    "10</w>": 3567,
    "time</w>": 3568,
    "acts</w>": 3569,
    "singer</w>": 3570,
    "mc</w>": 3571,
    "wall</w>": 3572,
    "washing</w>": 3573,
    "hard</w>": 3574,
    "group</w>": 3575,
    "thus</w>": 3576,
    "pens</w>": 3577,
    "won</w>": 3578,
    "bush</w>": 3579,
    "roll</w>": 3580,
    "gang</w>": 3581,
    "anz</w>": 3582,
    "thorpe</w>": 3583,
    "pron": 3584,
    "eden</w>": 3585,
    "wings</w>": 3586,
    "kings</w>": 3587,
    "thy</w>": 3588,
    "16</w>": 3589,
    "light</w>": 3590,
    "far</w>": 3591,
    "hand</w>": 3592,
    "aling</w>": 3593,
    "aire</w>": 3594,
    "51</w>": 3595,
    "’</w>": 3596,
    "tree</w>": 3597,
    "core</w>": 3598,
    "44</w>": 3599,
    "54</w>": 3600,
    "omatic</w>": 3601,
    "otto</w>": 3602,
    "grams</w>": 3603,
    "forth</w>": 3604,
    "shell</w>": 3605,
    "3d</w>": 3606,
    "pole</w>": 3607,
    "diam": 3608,
    "sphere</w>": 3609,
    "wave</w>": 3610,
    "static</w>": 3611,
    "fields</w>": 3612,
    "imus</w>": 3613,
    "toid</w>": 3614,
    "pash": 3615,
    "taki</w>": 3616,
    "aman": 3617,
    "ullah</w>": 3618,
    "savi": 3619,
    "reich</w>": 3620,
    "6th</w>": 3621,
    "3rd</w>": 3622,
    "br</w>": 3623,
    "foot</w>": 3624,
    "bottom</w>": 3625,
    "ì</w>": 3626,
    "egg": 3627,
    "beard</w>": 3628,
    "64</w>": 3629,
    "tip</w>": 3630,
    "xx</w>": 3631,
    "eren</w>": 3632,
    "steen</w>": 3633,
    "lain</w>": 3634,
    "rio</w>": 3635,
    "mine</w>": 3636,
    "drop</w>": 3637,
    "oh</w>": 3638,
    "suit</w>": 3639,
    "castle</w>": 3640,
    "von</w>": 3641,
    "fit</w>": 3642,
    "cars</w>": 3643,
    "game</w>": 3644,
    "ural</w>": 3645,
    "jam</w>": 3646,
    "onym</w>": 3647,
    "yat</w>": 3648,
    "rid</w>": 3649,
    "cath": 3650,
    "row</w>": 3651,
    "boys</w>": 3652,
    "devi": 3653,
    "nova</w>": 3654,
    "meter</w>": 3655,
    "tails</w>": 3656,
    "blac": 3657,
    "prov": 3658,
    "53</w>": 3659,
    "hex": 3660,
    "stands</w>": 3661,
    "viruses</w>": 3662,
    "dane</w>": 3663,
    "ross</w>": 3664,
    "archaean</w>": 3665,
    "thermo": 3666,
    "semi": 3667,
    "bone</w>": 3668,
    "olin</w>": 3669,
    "mechan": 3670,
    "paw</w>": 3671,
    "tiv": 3672,
    "aid</w>": 3673,
    "eur</w>": 3674,
    "gging</w>": 3675,
    "yor": 3676,
    "ave</w>": 3677,
    "andy</w>": 3678,
    "sexual</w>": 3679,
    "monde</w>": 3680,
    "walker</w>": 3681,
    "ored</w>": 3682,
    "uss</w>": 3683,
    "mail</w>": 3684,
    "sians</w>": 3685,
    "ywood</w>": 3686,
    "meta": 3687,
    "grave</w>": 3688,
    "photo": 3689,
    "gut</w>": 3690,
    "tax": 3691,
    "ml</w>": 3692,
    "fels</w>": 3693,
    "grey": 3694,
    "xia</w>": 3695,
    "zhi</w>": 3696,
    "ège</w>": 3697,
    "bull": 3698,
    "hana</w>": 3699,
    "dot</w>": 3700,
    "roy</w>": 3701,
    "med</w>": 3702,
    "geo": 3703,
    "cap</w>": 3704,
    "camp</w>": 3705,
    "mez": 3706,
    "anic</w>": 3707,
    "nov</w>": 3708,
    "jon</w>": 3709,
    "rat</w>": 3710,
    "raz": 3711,
    "rico</w>": 3712,
    "matic</w>": 3713,
    "orth": 3714,
    "sively</w>": 3715,
    "physi": 3716,
    "ads</w>": 3717,
    "icity</w>": 3718,
    "fc</w>": 3719,
    "fies</w>": 3720,
    "ects</w>": 3721,
    "shall</w>": 3722,
    "mod": 3723,
    "ssi</w>": 3724,
    "pool</w>": 3725,
    "ced</w>": 3726,
    "equi": 3727,
    "cola</w>": 3728,
    "poe": 3729,
    "bling</w>": 3730,
    "bold</w>": 3731,
    "aging</w>": 3732,
    "prol": 3733,
    "motor": 3734,
    "hai</w>": 3735,
    "fold</w>": 3736,
    "dges</w>": 3737,
    "wire</w>": 3738,
    "lug": 3739,
    "class": 3740,
    "trac": 3741,
    "eco</w>": 3742,
    "lis</w>": 3743,
    "nd</w>": 3744,
    "mov": 3745,
    "mv</w>": 3746,
    "nä": 3747,
    "zoni</w>": 3748,
    "pac": 3749,
    "door": 3750,
    "owing</w>": 3751,
    "ticus</w>": 3752,
    "mittel": 3753,
    "und</w>": 3754,
    "dah": 3755,
    "delic": 3756,
    "olite</w>": 3757,
    "nina</w>": 3758,
    "00m</w>": 3759,
    "ð": 3760,
    "ór</w>": 3761,
    "jos</w>": 3762,
    "ym": 3763,
    "wes</w>": 3764,
    "hans": 3765,
    "atton</w>": 3766,
    "sam</w>": 3767,
    "tina</w>": 3768,
    "haw": 3769,
    "bers</w>": 3770,
    "esse</w>": 3771,
    "glad": 3772,
    "pas</w>": 3773,
    "hoe</w>": 3774,
    "alities</w>": 3775,
    "elled</w>": 3776,
    "nt</w>": 3777,
    "book": 3778,
    "bergen</w>": 3779,
    "schen": 3780,
    "dive</w>": 3781,
    "steel": 3782,
    "phot": 3783,
    "thu": 3784,
    "kamp</w>": 3785,
    "vert</w>": 3786,
    "ening</w>": 3787,
    "lei</w>": 3788,
    "fir": 3789,
    "jit</w>": 3790,
    "wing": 3791,
    "overs</w>": 3792,
    "jong</w>": 3793,
    "path": 3794,
    "para</w>": 3795,
    "sco": 3796,
    "lur": 3797,
    "ging": 3798,
    "breast": 3799,
    "fall": 3800,
    "dir</w>": 3801,
    "horst</w>": 3802,
    "sou</w>": 3803,
    "tsu</w>": 3804,
    "kun</w>": 3805,
    "urs</w>": 3806,
    "tee</w>": 3807,
    "gey</w>": 3808,
    "rain": 3809,
    "aco</w>": 3810,
    "ous": 3811,
    "wn</w>": 3812,
    "mak": 3813,
    "wei</w>": 3814,
    "zhu": 3815,
    "sive</w>": 3816,
    "pim": 3817,
    "oth": 3818,
    "führer</w>": 3819,
    "schule</w>": 3820,
    "sah": 3821,
    "kyō</w>": 3822,
    "osi": 3823,
    "grin": 3824,
    "wei": 3825,
    "seth</w>": 3826,
    "tionary</w>": 3827,
    "brig": 3828,
    "ele": 3829,
    "cog": 3830,
    "leigh</w>": 3831,
    "orm": 3832,
    "roth": 3833,
    "swan": 3834,
    "tow": 3835,
    "ingham</w>": 3836,
    "dham</w>": 3837,
    "yat": 3838,
    "eley</w>": 3839,
    "eps</w>": 3840,
    "bai</w>": 3841,
    "tively</w>": 3842,
    "track": 3843,
    "chem</w>": 3844,
    "locks</w>": 3845,
    "cof": 3846,
    "swin": 3847,
    "burne</w>": 3848,
    "onom": 3849,
    "masa</w>": 3850,
    "hou</w>": 3851,
    "mb": 3852,
    "boarding</w>": 3853,
    "sr": 3854,
    "thier</w>": 3855,
    "evsky</w>": 3856,
    "ô</w>": 3857,
    "ún</w>": 3858,
    "bbs</w>": 3859,
    "shy</w>": 3860,
    "dians</w>": 3861,
    "anum</w>": 3862,
    "metro": 3863,
    "excit": 3864,
    "dant</w>": 3865,
    "ili</w>": 3866,
    "tyrann": 3867,
    "eil": 3868,
    "wyn": 3869,
    "circum": 3870,
    "eme": 3871,
    "rel": 3872,
    "tá": 3873,
    "mega": 3874,
    "tara</w>": 3875,
    "palaeo": 3876,
    "lite</w>": 3877,
    "een</w>": 3878,
    "mers</w>": 3879,
    "anese</w>": 3880,
    "lak": 3881,
    "mala</w>": 3882,
    "elier</w>": 3883,
    "epa</w>": 3884,
    "bun</w>": 3885,
    "arium</w>": 3886,
    "hes": 3887,
    "ames</w>": 3888,
    "jung</w>": 3889,
    "monte": 3890,
    "cand": 3891,
    "atlan": 3892,
    "ards</w>": 3893,
    "cas</w>": 3894,
    "lation</w>": 3895,
    "thes": 3896,
    "wend": 3897,
    "imperi": 3898,
    "wed": 3899,
    "anning</w>": 3900,
    "pian": 3901,
    "sheng</w>": 3902,
    "bart</w>": 3903,
    "jug": 3904,
    "vey</w>": 3905,
    "cel</w>": 3906,
    "acy</w>": 3907,
    "+": 3908,
    "agi</w>": 3909,
    "nez</w>": 3910,
    "berman</w>": 3911,
    "tay": 3912,
    "tann": 3913,
    "woo": 3914,
    "ig</w>": 3915,
    "pelt</w>": 3916,
    "neop": 3917,
    "nh</w>": 3918,
    "ump</w>": 3919,
    "0m</w>": 3920,
    "aran</w>": 3921,
    "thy": 3922,
    "bey</w>": 3923,
    "music": 3924,
    "after": 3925,
    "nich": 3926,
    "bier": 3927,
    "cie</w>": 3928,
    "trou": 3929,
    "ike</w>": 3930,
    "toshi</w>": 3931,
    "staf": 3932,
    ";": 3933,
    "lans</w>": 3934,
    "dow": 3935,
    "davi": 3936,
    "shop": 3937,
    "yam</w>": 3938,
    "nico</w>": 3939,
    "push": 3940,
    "neville</w>": 3941,
    "gm</w>": 3942,
    "bic</w>": 3943,
    "aci</w>": 3944,
    "veg": 3945,
    "best": 3946,
    "city": 3947,
    "ote</w>": 3948,
    "braw": 3949,
    "alder": 3950,
    "singen</w>": 3951,
    "eras</w>": 3952,
    "ding": 3953,
    "oes</w>": 3954,
    "anya</w>": 3955,
    "rey</w>": 3956,
    "kag": 3957,
    "mayer</w>": 3958,
    "eye": 3959,
    "lingu": 3960,
    "uz</w>": 3961,
    "rah": 3962,
    "uv": 3963,
    "scre": 3964,
    "zz</w>": 3965,
    "kram": 3966,
    "amo</w>": 3967,
    "east": 3968,
    "rox": 3969,
    "tium</w>": 3970,
    "bach": 3971,
    "alg": 3972,
    "18": 3973,
    "shiv": 3974,
    "yad": 3975,
    "adri": 3976,
    "stor</w>": 3977,
    "dá": 3978,
    "ith": 3979,
    "amal": 3980,
    "alb": 3981,
    "tand": 3982,
    "gna</w>": 3983,
    "tivity</w>": 3984,
    "allu": 3985,
    "sho</w>": 3986,
    "tionists</w>": 3987,
    "antly</w>": 3988,
    "mour": 3989,
    "imper": 3990,
    "dov</w>": 3991,
    "aine</w>": 3992,
    "bread": 3993,
    "clin": 3994,
    "aco": 3995,
    "100": 3996,
    "bure": 3997,
    "autom": 3998,
    "emakers</w>": 3999,
    "emo</w>": 4000,
    "psycho": 4001,
    "500": 4002,
    "story": 4003,
    "paleo": 4004,
    "jiang</w>": 4005,
    "dium</w>": 4006,
    "heart": 4007,
    "ozoa</w>": 4008,
    "hypo": 4009,
    "aps</w>": 4010,
    "wer</w>": 4011,
    "vian</w>": 4012,
    "beu": 4013,
    "endra</w>": 4014,
    "oned</w>": 4015,
    "tle</w>": 4016,
    "brec": 4017,
    "ester</w>": 4018,
    "mec": 4019,
    "evers</w>": 4020,
    "ately</w>": 4021,
    "ala": 4022,
    "dun</w>": 4023,
    "audi": 4024,
    "omi": 4025,
    "awar": 4026,
    "stedt</w>": 4027,
    "bot</w>": 4028,
    "sco</w>": 4029,
    "weiler</w>": 4030,
    "erman</w>": 4031,
    "pha</w>": 4032,
    "uso</w>": 4033,
    "igan</w>": 4034,
    "oles</w>": 4035,
    "tain": 4036,
    "morph": 4037,
    "osi</w>": 4038,
    "georgi": 4039,
    "vog": 4040,
    "lum</w>": 4041,
    "roo": 4042,
    "lism</w>": 4043,
    "colom": 4044,
    "sas</w>": 4045,
    "seau</w>": 4046,
    "paci": 4047,
    "lol": 4048,
    "tation</w>": 4049,
    "gorg": 4050,
    "eur": 4051,
    "baum</w>": 4052,
    "rose": 4053,
    "bé</w>": 4054,
    "hob": 4055,
    "lich</w>": 4056,
    "drum": 4057,
    "gr</w>": 4058,
    "kt</w>": 4059,
    "sl</w>": 4060,
    "omas</w>": 4061,
    "if": 4062,
    "even": 4063,
    "tura</w>": 4064,
    "oxy": 4065,
    "sne": 4066,
    "okon": 4067,
    "gram": 4068,
    "tro</w>": 4069,
    "timo</w>": 4070,
    "greeng": 4071,
    "kovsky</w>": 4072,
    "itta</w>": 4073,
    "lap": 4074,
    "aye</w>": 4075,
    "mé</w>": 4076,
    "io": 4077,
    "vik": 4078,
    "phy</w>": 4079,
    "wed</w>": 4080,
    "lid": 4081,
    "zoa</w>": 4082,
    "prin": 4083,
    "cc": 4084,
    "zet": 4085,
    "gé": 4086,
    "ault</w>": 4087,
    "ender</w>": 4088,
    "alists</w>": 4089,
    "wana</w>": 4090,
    "hos</w>": 4091,
    "jian</w>": 4092,
    "hann": 4093,
    "omb</w>": 4094,
    "inae</w>": 4095,
    "agni</w>": 4096,
    "bk</w>": 4097,
    "game": 4098,
    "nyk</w>": 4099,
    "dot": 4100,
    "pant": 4101,
    "tc</w>": 4102,
    "tong": 4103,
    "virtu": 4104,
    "spur": 4105,
    "hash": 4106,
    "isch": 4107,
    "cook": 4108,
    "rine</w>": 4109,
    "sler</w>": 4110,
    "koll": 4111,
    "alus</w>": 4112,
    "tala</w>": 4113,
    "aa": 4114,
    "qur": 4115,
    "bann": 4116,
    "eph": 4117,
    "ld": 4118,
    "ongo</w>": 4119,
    "att</w>": 4120,
    "pod": 4121,
    "ord": 4122,
    "enstein</w>": 4123,
    "scheid</w>": 4124,
    "edy</w>": 4125,
    "hiro</w>": 4126,
    "wolf": 4127,
    "luci": 4128,
    "ecker": 4129,
    "dim": 4130,
    "bari</w>": 4131,
    "stran": 4132,
    "sri": 4133,
    "lers</w>": 4134,
    "pharmac": 4135,
    "cec": 4136,
    "zig": 4137,
    "heimer</w>": 4138,
    "vira</w>": 4139,
    "span": 4140,
    "с": 4141,
    "vre</w>": 4142,
    "holm": 4143,
    "gne</w>": 4144,
    "ete</w>": 4145,
    "dif": 4146,
    "lton</w>": 4147,
    "stere": 4148,
    "zano</w>": 4149,
    "tek</w>": 4150,
    "gho": 4151,
    "witt": 4152,
    "и": 4153,
    "ahi</w>": 4154,
    "navar": 4155,
    "stanis": 4156,
    "anto</w>": 4157,
    "chet": 4158,
    "castell": 4159,
    "rant</w>": 4160,
    "rup": 4161,
    "ardi": 4162,
    "dos": 4163,
    "stom": 4164,
    "acies</w>": 4165,
    "tian": 4166,
    "nitz</w>": 4167,
    "cock": 4168,
    "anim": 4169,
    "int": 4170,
    "elec": 4171,
    "eser</w>": 4172,
    "spot": 4173,
    "ail": 4174,
    "aku</w>": 4175,
    "geis": 4176,
    "ide": 4177,
    "yasu</w>": 4178,
    "unes</w>": 4179,
    "thar": 4180,
    "lae</w>": 4181,
    "mot": 4182,
    "asan</w>": 4183,
    "jaf": 4184,
    "oko</w>": 4185,
    "sphen": 4186,
    "nid": 4187,
    "deh</w>": 4188,
    "ofer</w>": 4189,
    "aja</w>": 4190,
    "parti": 4191,
    "spon": 4192,
    "champ": 4193,
    "won": 4194,
    "yō</w>": 4195,
    "iles</w>": 4196,
    "uchi</w>": 4197,
    "vä": 4198,
    "omy": 4199,
    "hammar</w>": 4200,
    "gn</w>": 4201,
    "ğ": 4202,
    "caer": 4203,
    "goy": 4204,
    "ân": 4205,
    "dum": 4206,
    "chab": 4207,
    "und": 4208,
    "yun": 4209,
    "enga</w>": 4210,
    "oye</w>": 4211,
    "bernar": 4212,
    "dak": 4213,
    "viv": 4214,
    "zza</w>": 4215,
    "khe": 4216,
    "edit": 4217,
    "aster": 4218,
    "itis</w>": 4219,
    "aram</w>": 4220,
    "ourt</w>": 4221,
    "base": 4222,
    "day": 4223,
    "ady</w>": 4224,
    "zers</w>": 4225,
    "kie": 4226,
    "ffer</w>": 4227,
    "doo": 4228,
    "wir": 4229,
    "jig": 4230,
    "achi</w>": 4231,
    "tis": 4232,
    "thel": 4233,
    "eles</w>": 4234,
    "sot": 4235,
    "aia</w>": 4236,
    "äl": 4237,
    "igh": 4238,
    "itas</w>": 4239,
    "pall": 4240,
    "eder</w>": 4241,
    "kü": 4242,
    "shul": 4243,
    "rex": 4244,
    "ū</w>": 4245,
    "vla": 4246,
    "sington</w>": 4247,
    "nett</w>": 4248,
    "wicz</w>": 4249,
    "eber": 4250,
    "ort": 4251,
    "ega</w>": 4252,
    "schu": 4253,
    "shre": 4254,
    "dark": 4255,
    "eria</w>": 4256,
    "blad</w>": 4257,
    "pf": 4258,
    "iden</w>": 4259,
    "dram": 4260,
    "atur": 4261,
    "albi": 4262,
    "kä": 4263,
    "elin</w>": 4264,
    "lek": 4265,
    "ack": 4266,
    "cot": 4267,
    "asca</w>": 4268,
    "ook</w>": 4269,
    "mei": 4270,
    "auri": 4271,
    "giu": 4272,
    "mati</w>": 4273,
    "ners</w>": 4274,
    "kumar</w>": 4275,
    "rish": 4276,
    "asco</w>": 4277,
    "stal</w>": 4278,
    "hart": 4279,
    "seid": 4280,
    "gros": 4281,
    "sö": 4282,
    "zier</w>": 4283,
    "hani</w>": 4284,
    "afa</w>": 4285,
    "roz": 4286,
    "oot</w>": 4287,
    "pey": 4288,
    "fow": 4289,
    "kus</w>": 4290,
    "ment": 4291,
    "otes</w>": 4292,
    "ligh": 4293,
    "kner</w>": 4294,
    "onians</w>": 4295,
    "kog": 4296,
    "unc": 4297,
    "rell</w>": 4298,
    "gli": 4299,
    "atti</w>": 4300,
    "sí": 4301,
    "aly": 4302,
    "koh": 4303,
    "е": 4304,
    "ganj</w>": 4305,
    "yle</w>": 4306,
    "ū": 4307,
    "mahi": 4308,
    "micha": 4309,
    "bani": 4310,
    "sob": 4311,
    "azz": 4312,
    "enger</w>": 4313,
    "amm": 4314,
    "châ": 4315,
    "jur": 4316,
    "liano</w>": 4317,
    "bitt</w>": 4318,
    "heim": 4319,
    "cler": 4320,
    "olus</w>": 4321,
    "cht</w>": 4322,
    "ise": 4323,
    "utt": 4324,
    "่</w>": 4325,
    "conn": 4326,
    "koo": 4327,
    "rans": 4328,
    "herr": 4329,
    "neo": 4330,
    "vr": 4331,
    "dong": 4332,
    "ander": 4333,
    "brunn</w>": 4334,
    "yya</w>": 4335,
    "unic": 4336,
    "hör": 4337,
    "isa": 4338,
    "ppa</w>": 4339,
    "gay": 4340,
    "yang": 4341,
    "akov</w>": 4342,
    "eke</w>": 4343,
    "kut": 4344,
    "bul</w>": 4345,
    "čić</w>": 4346,
    "oides</w>": 4347,
    "toku</w>": 4348,
    "ná": 4349,
    "simon": 4350,
    "ahan</w>": 4351,
    "ibo</w>": 4352,
    "ami": 4353,
    "nut": 4354,
    "gus": 4355,
    "ć": 4356,
    "itsch</w>": 4357,
    "zha": 4358,
    "jär": 4359,
    "sä": 4360,
    "nea": 4361,
    "sg": 4362,
    "vak": 4363,
    "chthys</w>": 4364,
    "ends</w>": 4365,
    "name</w>": 4366,
    "word</w>": 4367,
    "put</w>": 4368,
    "this</w>": 4369,
    ").</w>": 4370,
    ":</w>": 4371,
    "not</w>": 4372,
    "700</w>": 4373,
    "45</w>": 4374,
    "some</w>": 4375,
    "kind</w>": 4376,
    "\".</w>": 4377,
    "they</w>": 4378,
    "people</w>": 4379,
    "due</w>": 4380,
    "most</w>": 4381,
    "china</w>": 4382,
    "like</w>": 4383,
    "still</w>": 4384,
    "team</w>": 4385,
    "angle</w>": 4386,
    "sir</w>": 4387,
    "5th</w>": 4388,
    "weight</w>": 4389,
    "78</w>": 4390,
    "21</w>": 4391,
    "0</w>": 4392,
    "rain</w>": 4393,
    "ships</w>": 4394,
    "over</w>": 4395,
    "power</w>": 4396,
    "formations</w>": 4397,
    "groups</w>": 4398,
    "city</w>": 4399,
    "alan</w>": 4400,
    "obe</w>": 4401,
    "sara</w>": 4402,
    "crypto": 4403,
    "died</w>": 4404,
    "ended</w>": 4405,
    "41</w>": 4406,
    "apple</w>": 4407,
    "using</w>": 4408,
    "him</w>": 4409,
    "bill</w>": 4410,
    "alling</w>": 4411,
    "young</w>": 4412,
    "under</w>": 4413,
    "base</w>": 4414,
    "version</w>": 4415,
    "fat</w>": 4416,
    "bad</w>": 4417,
    "lot</w>": 4418,
    "structure</w>": 4419,
    "pest</w>": 4420,
    "face</w>": 4421,
    "15</w>": 4422,
    "state</w>": 4423,
    "nations</w>": 4424,
    "26</w>": 4425,
    "ways</w>": 4426,
    "sport</w>": 4427,
    "populated</w>": 4428,
    "shore</w>": 4429,
    "church</w>": 4430,
    "hold</w>": 4431,
    "wine</w>": 4432,
    "stand</w>": 4433,
    "workers</w>": 4434,
    "asia</w>": 4435,
    "stars</w>": 4436,
    "hall</w>": 4437,
    "top</w>": 4438,
    "games</w>": 4439,
    "gum</w>": 4440,
    "card</w>": 4441,
    "sees</w>": 4442,
    "14</w>": 4443,
    "dwell</w>": 4444,
    "body</w>": 4445,
    "18</w>": 4446,
    "gender</w>": 4447,
    "krus": 4448,
    "syl": 4449,
    "unn</w>": 4450,
    "graves</w>": 4451,
    "pie</w>": 4452,
    "ground</w>": 4453,
    "\"\"</w>": 4454,
    "\"\".</w>": 4455,
    "ending</w>": 4456,
    "55</w>": 4457,
    "chemistry</w>": 4458,
    "hair</w>": 4459,
    "charged</w>": 4460,
    "stated</w>": 4461,
    "sized</w>": 4462,
    "5s</w>": 4463,
    "amu</w>": 4464,
    "hit</w>": 4465,
    "organ</w>": 4466,
    "iran</w>": 4467,
    "aren</w>": 4468,
    "path</w>": 4469,
    "beds</w>": 4470,
    "fari": 4471,
    "feu": 4472,
    "ories</w>": 4473,
    "shah</w>": 4474,
    "fighters</w>": 4475,
    "fell</w>": 4476,
    "tner</w>": 4477,
    "azzi</w>": 4478,
    "4th</w>": 4479,
    "mash": 4480,
    "boot": 4481,
    "ask</w>": 4482,
    "pan</w>": 4483,
    "hole</w>": 4484,
    "yuan</w>": 4485,
    "map</w>": 4486,
    "peric": 4487,
    "tone</w>": 4488,
    "writer</w>": 4489,
    "\"-</w>": 4490,
    "39</w>": 4491,
    "shift</w>": 4492,
    "8th</w>": 4493,
    "46</w>": 4494,
    "active</w>": 4495,
    "$</w>": 4496,
    "channel</w>": 4497,
    "eter": 4498,
    "dog</w>": 4499,
    "masters</w>": 4500,
    "fights</w>": 4501,
    "spec": 4502,
    "chloride</w>": 4503,
    "lab</w>": 4504,
    "tech</w>": 4505,
    "gui</w>": 4506,
    "teens</w>": 4507,
    "deep</w>": 4508,
    "zeal": 4509,
    "tang</w>": 4510,
    "zhou</w>": 4511,
    "fled</w>": 4512,
    "collec": 4513,
    "paper": 4514,
    "boats</w>": 4515,
    "cross</w>": 4516,
    "fires</w>": 4517,
    "60s</w>": 4518,
    "”.</w>": 4519,
    "street</w>": 4520,
    "aci": 4521,
    "oven</w>": 4522,
    "pot</w>": 4523,
    "mit</w>": 4524,
    "corn</w>": 4525,
    "rous</w>": 4526,
    "sight</w>": 4527,
    "stick</w>": 4528,
    "luck</w>": 4529,
    "ride</w>": 4530,
    "butter": 4531,
    "48</w>": 4532,
    "onte</w>": 4533,
    "wet</w>": 4534,
    "angles</w>": 4535,
    "dec</w>": 4536,
    "diab": 4537,
    "helsing": 4538,
    "xen</w>": 4539,
    "passes</w>": 4540,
    "abra": 4541,
    "lining</w>": 4542,
    "trophic</w>": 4543,
    "hang</w>": 4544,
    "vice</w>": 4545,
    "lift</w>": 4546,
    "sat</w>": 4547,
    "febr": 4548,
    "yes</w>": 4549,
    "cope</w>": 4550,
    "nets</w>": 4551,
    "heel</w>": 4552,
    "coat</w>": 4553,
    "hood</w>": 4554,
    "chou": 4555,
    "fim</w>": 4556,
    "pee</w>": 4557,
    "erie</w>": 4558,
    "grounds</w>": 4559,
    "theism</w>": 4560,
    "ozu</w>": 4561,
    "evo": 4562,
    "pag": 4563,
    "idi</w>": 4564,
    "plane</w>": 4565,
    "genes</w>": 4566,
    "haven</w>": 4567,
    "tered</w>": 4568,
    "mol</w>": 4569,
    "kens</w>": 4570,
    "900</w>": 4571,
    "gel</w>": 4572,
    "yard</w>": 4573,
    "odia</w>": 4574,
    "film</w>": 4575,
    "conf": 4576,
    "titu": 4577,
    "voy": 4578,
    "wai": 4579,
    "mea</w>": 4580,
    "tres</w>": 4581,
    "miller</w>": 4582,
    "rna</w>": 4583,
    "lana</w>": 4584,
    "victor": 4585,
    "dm</w>": 4586,
    "inver": 4587,
    "rooms</w>": 4588,
    "sequ": 4589,
    "villa</w>": 4590,
    "fans</w>": 4591,
    "lui</w>": 4592,
    "uku</w>": 4593,
    "38</w>": 4594,
    "mia</w>": 4595,
    "espace</w>": 4596,
    "zilla</w>": 4597,
    "bug</w>": 4598,
    "skim": 4599,
    "drops</w>": 4600,
    "zig</w>": 4601,
    "polar</w>": 4602,
    "rus</w>": 4603,
    "mons</w>": 4604,
    "mac</w>": 4605,
    "dome</w>": 4606,
    "saud</w>": 4607,
    "decor": 4608,
    "theria</w>": 4609,
    "belle</w>": 4610,
    "yoko</w>": 4611,
    "ē": 4612,
    "tide</w>": 4613,
    "hail": 4614,
    "hippoc": 4615,
    "eon</w>": 4616,
    "osecond</w>": 4617,
    "riot</w>": 4618,
    "eo": 4619,
    "tio</w>": 4620,
    "max</w>": 4621,
    "quanti": 4622,
    "mill</w>": 4623,
    "ieu</w>": 4624,
    "borne</w>": 4625,
    "ophytes</w>": 4626,
    "emma</w>": 4627,
    "iting</w>": 4628,
    "downs</w>": 4629,
    "db</w>": 4630,
    "pepper": 4631,
    "meat": 4632,
    "defl": 4633,
    "test": 4634,
    "eled</w>": 4635,
    "boxes</w>": 4636,
    "ip</w>": 4637,
    "01</w>": 4638,
    "oras</w>": 4639,
    "–": 4640,
    "dah</w>": 4641,
    "beth</w>": 4642,
    "wig</w>": 4643,
    "ogue</w>": 4644,
    "esses</w>": 4645,
    "abduc": 4646,
    "lycop": 4647,
    "grove</w>": 4648,
    "dism</w>": 4649,
    "pick": 4650,
    "æthel": 4651,
    "bath</w>": 4652,
    "anders</w>": 4653,
    "yab": 4654,
    "ø</w>": 4655,
    "penny</w>": 4656,
    "omer": 4657,
    "nest</w>": 4658,
    "inu": 4659,
    "loo</w>": 4660,
    "amy</w>": 4661,
    "maa</w>": 4662,
    "iana</w>": 4663,
    "dad</w>": 4664,
    "tae</w>": 4665,
    "iu</w>": 4666,
    "moldov": 4667,
    "eanu</w>": 4668,
    "ô": 4669,
    "sve": 4670,
    "beng": 4671,
    "tick</w>": 4672,
    "feather</w>": 4673,
    "spitze</w>": 4674,
    "gp</w>": 4675,
    "utter</w>": 4676,
    "pour</w>": 4677,
    "zug": 4678,
    "pia</w>": 4679,
    "sall</w>": 4680,
    "iv</w>": 4681,
    "fk</w>": 4682,
    "bid</w>": 4683,
    "bahn</w>": 4684,
    "entation</w>": 4685,
    "eln</w>": 4686,
    "dora</w>": 4687,
    "0th</w>": 4688,
    "kata</w>": 4689,
    "cali": 4690,
    "alas": 4691,
    "cula</w>": 4692,
    "cw</w>": 4693,
    "dred</w>": 4694,
    "nick</w>": 4695,
    "keepers</w>": 4696,
    "bala</w>": 4697,
    "30s</w>": 4698,
    "pro</w>": 4699,
    "ranger</w>": 4700,
    "liga</w>": 4701,
    "öz": 4702,
    "chel</w>": 4703,
    "opp</w>": 4704,
    "ddle</w>": 4705,
    "offs</w>": 4706,
    "elton</w>": 4707,
    "hatt": 4708,
    "folk": 4709,
    "wang</w>": 4710,
    "eries</w>": 4711,
    "space": 4712,
    "comb</w>": 4713,
    "tata</w>": 4714,
    "posi": 4715,
    "hampton</w>": 4716,
    "’": 4717,
    "mation</w>": 4718,
    "acre</w>": 4719,
    "tians</w>": 4720,
    "dw": 4721,
    "iot</w>": 4722,
    "apis</w>": 4723,
    "tab</w>": 4724,
    "icon</w>": 4725,
    "dat</w>": 4726,
    "api</w>": 4727,
    "diana</w>": 4728,
    "50th</w>": 4729,
    "quil": 4730,
    "stad": 4731,
    "gl</w>": 4732,
    "rada</w>": 4733,
    "buda</w>": 4734,
    "ode</w>": 4735,
    "obi</w>": 4736,
    "vera</w>": 4737,
    "kyu</w>": 4738,
    "jet</w>": 4739,
    "taj": 4740,
    "eck": 4741,
    "jay</w>": 4742,
    "shō</w>": 4743,
    "cub": 4744,
    "riv": 4745,
    "alled</w>": 4746,
    "diya</w>": 4747,
    "domes": 4748,
    "free": 4749,
    "fertili": 4750,
    ">": 4751,
    "psittac": 4752,
    "organ": 4753,
    "analy": 4754,
    "refr": 4755,
    "ís</w>": 4756,
    "stu</w>": 4757,
    "nath</w>": 4758,
    "oly": 4759,
    "rung</w>": 4760,
    "amy": 4761,
    "pep": 4762,
    "jaya</w>": 4763,
    "oper": 4764,
    "rd</w>": 4765,
    "woods</w>": 4766,
    "malm</w>": 4767,
    "sala</w>": 4768,
    "ío</w>": 4769,
    "stun": 4770,
    "eld</w>": 4771,
    "lou</w>": 4772,
    "bility</w>": 4773,
    "shaw": 4774,
    "xes</w>": 4775,
    "cont": 4776,
    "kw": 4777,
    "gyeong": 4778,
    "roe</w>": 4779,
    "syndic": 4780,
    "kara": 4781,
    "kinder": 4782,
    "tort</w>": 4783,
    "tze</w>": 4784,
    "ode": 4785,
    "jing</w>": 4786,
    "ekman</w>": 4787,
    "ي</w>": 4788,
    "osauria</w>": 4789,
    "wald": 4790,
    "erl</w>": 4791,
    "dick</w>": 4792,
    "anal</w>": 4793,
    "vacc": 4794,
    "yad</w>": 4795,
    "moc": 4796,
    "ysis</w>": 4797,
    "ate": 4798,
    "èque</w>": 4799,
    "eul": 4800,
    "thorne</w>": 4801,
    "lington</w>": 4802,
    "baw": 4803,
    "kham": 4804,
    "brigh": 4805,
    "cole": 4806,
    "fare": 4807,
    "anor</w>": 4808,
    "sford</w>": 4809,
    "magh": 4810,
    "middle": 4811,
    "oke": 4812,
    "rick": 4813,
    "bridge": 4814,
    "wold</w>": 4815,
    "stow</w>": 4816,
    "thir": 4817,
    "upp": 4818,
    "eter</w>": 4819,
    "wim": 4820,
    "mus</w>": 4821,
    "fluctu": 4822,
    "bio</w>": 4823,
    "toh</w>": 4824,
    "pastor": 4825,
    "breit": 4826,
    "opus</w>": 4827,
    "rode</w>": 4828,
    "manu": 4829,
    "plain": 4830,
    "aug": 4831,
    "idal</w>": 4832,
    "metall": 4833,
    "string": 4834,
    "coffe": 4835,
    "ehouse</w>": 4836,
    "alem": 4837,
    "pods</w>": 4838,
    "dros</w>": 4839,
    "time": 4840,
    "amed</w>": 4841,
    "tice</w>": 4842,
    "guru</w>": 4843,
    "mai</w>": 4844,
    "tit</w>": 4845,
    "sina</w>": 4846,
    "vius</w>": 4847,
    "initi": 4848,
    "fm</w>": 4849,
    "garde</w>": 4850,
    "garh</w>": 4851,
    "islam": 4852,
    "sheh": 4853,
    "dang</w>": 4854,
    "kia</w>": 4855,
    "kr</w>": 4856,
    "puram</w>": 4857,
    "iro": 4858,
    "gs": 4859,
    "tana</w>": 4860,
    "vent</w>": 4861,
    "zana</w>": 4862,
    "oway</w>": 4863,
    "categor": 4864,
    "aton</w>": 4865,
    "cran": 4866,
    "aud": 4867,
    "moor</w>": 4868,
    "champ</w>": 4869,
    "metr": 4870,
    "eros</w>": 4871,
    "engo</w>": 4872,
    "bim": 4873,
    "fum": 4874,
    "inate</w>": 4875,
    "toler": 4876,
    "eds</w>": 4877,
    "ski": 4878,
    "cal</w>": 4879,
    "sympath": 4880,
    "ory": 4881,
    "tting</w>": 4882,
    "word": 4883,
    "optera</w>": 4884,
    "tress</w>": 4885,
    "ambu": 4886,
    "shou": 4887,
    "brock": 4888,
    "sci</w>": 4889,
    "wb</w>": 4890,
    "gir</w>": 4891,
    "mane</w>": 4892,
    "û": 4893,
    "neutr": 4894,
    "dé</w>": 4895,
    "dong</w>": 4896,
    "mee</w>": 4897,
    "hin</w>": 4898,
    "illumin": 4899,
    "otype</w>": 4900,
    "ə</w>": 4901,
    "jd</w>": 4902,
    "rath": 4903,
    "haplo": 4904,
    "pura</w>": 4905,
    "char</w>": 4906,
    "fr</w>": 4907,
    "cato</w>": 4908,
    "veness</w>": 4909,
    "tras</w>": 4910,
    "malin": 4911,
    "german": 4912,
    "teur</w>": 4913,
    "contempor": 4914,
    "eous</w>": 4915,
    "amphi": 4916,
    "ridae</w>": 4917,
    "arity</w>": 4918,
    "trum": 4919,
    "š</w>": 4920,
    "ü</w>": 4921,
    "kana</w>": 4922,
    "aji</w>": 4923,
    "este</w>": 4924,
    "hij": 4925,
    "mina</w>": 4926,
    "dze</w>": 4927,
    "в</w>": 4928,
    "и</w>": 4929,
    "л": 4930,
    "hawks</w>": 4931,
    "dari": 4932,
    "essa</w>": 4933,
    "copper": 4934,
    "gua</w>": 4935,
    "castel": 4936,
    "gem</w>": 4937,
    "spheric</w>": 4938,
    "nac": 4939,
    "switch": 4940,
    "lof": 4941,
    "tilla</w>": 4942,
    "bela</w>": 4943,
    "zio</w>": 4944,
    "brau": 4945,
    "tig": 4946,
    "vivi": 4947,
    "iman</w>": 4948,
    "tot": 4949,
    "duct</w>": 4950,
    "teh</w>": 4951,
    "yen": 4952,
    "ared</w>": 4953,
    "koski</w>": 4954,
    "miz": 4955,
    "ibi</w>": 4956,
    "ruz</w>": 4957,
    "roun": 4958,
    "bd</w>": 4959,
    "croft</w>": 4960,
    "erton</w>": 4961,
    "enzo</w>": 4962,
    "cyclo": 4963,
    "hong": 4964,
    "pered</w>": 4965,
    "christi": 4966,
    "hath": 4967,
    "shad": 4968,
    "ican</w>": 4969,
    "plot": 4970,
    "brecht</w>": 4971,
    "codice_": 4972,
    "yori</w>": 4973,
    "anch": 4974,
    "lated</w>": 4975,
    "barbar": 4976,
    "gea</w>": 4977,
    "scape</w>": 4978,
    "chrys": 4979,
    "bess": 4980,
    "kirk": 4981,
    "17": 4982,
    "bair": 4983,
    "î": 4984,
    "foss</w>": 4985,
    "nad</w>": 4986,
    "sty</w>": 4987,
    "tingen</w>": 4988,
    "gular</w>": 4989,
    "anni": 4990,
    "dman</w>": 4991,
    "owska</w>": 4992,
    "ń</w>": 4993,
    "buck</w>": 4994,
    "gert</w>": 4995,
    "raf</w>": 4996,
    "ilers</w>": 4997,
    "brou": 4998,
    "atal</w>": 4999,
    "sper": 5000,
    "dang": 5001,
    "rang</w>": 5002,
    "cr</w>": 5003,
    "bf</w>": 5004,
    "oti": 5005,
    "zim": 5006,
    "nation": 5007,
    "wat</w>": 5008,
    "cham</w>": 5009,
    "lep": 5010,
    "chas</w>": 5011,
    "ologically</w>": 5012,
    "clair": 5013,
    "dub": 5014,
    "gue</w>": 5015,
    "secre": 5016,
    "opathy</w>": 5017,
    "bick": 5018,
    "scru": 5019,
    "glos": 5020,
    "mutag": 5021,
    "ghts</w>": 5022,
    "finger": 5023,
    "idad</w>": 5024,
    "phen": 5025,
    "reson": 5026,
    "linger</w>": 5027,
    "scal": 5028,
    "bent": 5029,
    "musi": 5030,
    "nea</w>": 5031,
    "bei</w>": 5032,
    "velle</w>": 5033,
    "tenberg</w>": 5034,
    "meyer</w>": 5035,
    "acon": 5036,
    "exc": 5037,
    "vou": 5038,
    "chers</w>": 5039,
    "bok": 5040,
    "dina</w>": 5041,
    "chim": 5042,
    "oning</w>": 5043,
    "ib</w>": 5044,
    "gao</w>": 5045,
    "aded</w>": 5046,
    "swi": 5047,
    "dent</w>": 5048,
    "zations</w>": 5049,
    "mü": 5050,
    "agua</w>": 5051,
    "zil": 5052,
    "kunst": 5053,
    "icki</w>": 5054,
    "inet</w>": 5055,
    "fari</w>": 5056,
    "rist</w>": 5057,
    "tah</w>": 5058,
    "ós</w>": 5059,
    "spac": 5060,
    "arin</w>": 5061,
    "boun": 5062,
    "lass</w>": 5063,
    "jow": 5064,
    "žić</w>": 5065,
    "amen</w>": 5066,
    "frag": 5067,
    "forest": 5068,
    "vic</w>": 5069,
    "iras</w>": 5070,
    "dax</w>": 5071,
    "pah</w>": 5072,
    "esto</w>": 5073,
    "tua</w>": 5074,
    "plum": 5075,
    "orn</w>": 5076,
    "ables</w>": 5077,
    "td</w>": 5078,
    "unda</w>": 5079,
    "ytes</w>": 5080,
    "race": 5081,
    "ees</w>": 5082,
    "elis</w>": 5083,
    "giann": 5084,
    "tine</w>": 5085,
    "moun": 5086,
    "jil": 5087,
    "drop": 5088,
    "oan</w>": 5089,
    "queens": 5090,
    "guay": 5091,
    "lla</w>": 5092,
    "shahi</w>": 5093,
    "oste": 5094,
    "wada</w>": 5095,
    "lal</w>": 5096,
    "eat": 5097,
    "jor</w>": 5098,
    "lex</w>": 5099,
    "hawk": 5100,
    "elli": 5101,
    "brac": 5102,
    "flan": 5103,
    "barn": 5104,
    "kum</w>": 5105,
    "assa</w>": 5106,
    "shon": 5107,
    "brin": 5108,
    "shag": 5109,
    "burn": 5110,
    "marqu": 5111,
    "sor</w>": 5112,
    "dai</w>": 5113,
    "ces": 5114,
    "nuc": 5115,
    "abdul": 5116,
    "arma</w>": 5117,
    "inan</w>": 5118,
    "dez</w>": 5119,
    "ious</w>": 5120,
    "pta</w>": 5121,
    "dash</w>": 5122,
    "ratt</w>": 5123,
    "pass": 5124,
    "hurst</w>": 5125,
    "vail": 5126,
    "rit</w>": 5127,
    "materi": 5128,
    "æ": 5129,
    "dishon": 5130,
    "kiri</w>": 5131,
    "seh</w>": 5132,
    "wad</w>": 5133,
    "ulating</w>": 5134,
    "opter": 5135,
    "tein</w>": 5136,
    "iness</w>": 5137,
    "lings</w>": 5138,
    "endoc": 5139,
    "av</w>": 5140,
    "jana</w>": 5141,
    "mana</w>": 5142,
    "bina</w>": 5143,
    "aur</w>": 5144,
    "ttes</w>": 5145,
    "spra": 5146,
    "ometric</w>": 5147,
    "meer</w>": 5148,
    "waard</w>": 5149,
    "histor": 5150,
    "tiel</w>": 5151,
    "stud": 5152,
    "sids</w>": 5153,
    "gur</w>": 5154,
    "phobia</w>": 5155,
    "gum": 5156,
    "rop": 5157,
    "tain</w>": 5158,
    "aled</w>": 5159,
    "vat</w>": 5160,
    "constitu": 5161,
    "lough</w>": 5162,
    "olog": 5163,
    "quint": 5164,
    "س": 5165,
    "د</w>": 5166,
    "necro": 5167,
    "vez</w>": 5168,
    "revolu": 5169,
    "hotep</w>": 5170,
    "chia</w>": 5171,
    "chai</w>": 5172,
    "loe</w>": 5173,
    "reli": 5174,
    "vor</w>": 5175,
    "itra</w>": 5176,
    "abdel": 5177,
    "rians</w>": 5178,
    "mind": 5179,
    "gated</w>": 5180,
    "beat": 5181,
    "wak": 5182,
    "dling</w>": 5183,
    "40s</w>": 5184,
    "8s</w>": 5185,
    "madh": 5186,
    "tter</w>": 5187,
    "cup": 5188,
    "acia</w>": 5189,
    "nal</w>": 5190,
    "vaux</w>": 5191,
    "nc</w>": 5192,
    "peti": 5193,
    "thorn": 5194,
    "alter": 5195,
    "ety": 5196,
    "refu": 5197,
    "sik": 5198,
    "conver": 5199,
    "chow</w>": 5200,
    "whl</w>": 5201,
    "gari": 5202,
    "lipp": 5203,
    "ld</w>": 5204,
    "rela": 5205,
    "pl</w>": 5206,
    "sweat": 5207,
    "defen": 5208,
    "barr": 5209,
    "sfeld</w>": 5210,
    "aï": 5211,
    "awan</w>": 5212,
    "taka</w>": 5213,
    "pio</w>": 5214,
    "lations</w>": 5215,
    "rina</w>": 5216,
    "dering</w>": 5217,
    "adap": 5218,
    "tings</w>": 5219,
    "tok": 5220,
    "ales": 5221,
    "gaul": 5222,
    "khi</w>": 5223,
    "astra": 5224,
    "hauser</w>": 5225,
    "hagen</w>": 5226,
    "ò</w>": 5227,
    "fli": 5228,
    "fic</w>": 5229,
    "gett</w>": 5230,
    "jov": 5231,
    "nick": 5232,
    "cut": 5233,
    "contr": 5234,
    "oration</w>": 5235,
    "giac": 5236,
    "omin</w>": 5237,
    "pach": 5238,
    "too": 5239,
    "aam</w>": 5240,
    "sleep": 5241,
    "cem": 5242,
    "edi</w>": 5243,
    "sb</w>": 5244,
    "rubi": 5245,
    "shahr</w>": 5246,
    "zadeh</w>": 5247,
    "pred": 5248,
    "dey</w>": 5249,
    "hamn</w>": 5250,
    "zzle</w>": 5251,
    "tioned</w>": 5252,
    "crew": 5253,
    "benedic": 5254,
    "itti": 5255,
    "hia</w>": 5256,
    "ells</w>": 5257,
    "coon": 5258,
    "oji</w>": 5259,
    "feder": 5260,
    "rae</w>": 5261,
    "oceratops</w>": 5262,
    "bian</w>": 5263,
    "ssi": 5264,
    "ophores</w>": 5265,
    "katsu": 5266,
    "nica</w>": 5267,
    "tidae</w>": 5268,
    "raman</w>": 5269,
    "lod": 5270,
    "ht": 5271,
    "mari</w>": 5272,
    "onda</w>": 5273,
    "ske</w>": 5274,
    "gne": 5275,
    "pter": 5276,
    "ilis</w>": 5277,
    "spartei</w>": 5278,
    "xu": 5279,
    "sup</w>": 5280,
    "kaku</w>": 5281,
    "200": 5282,
    "gou</w>": 5283,
    "avo</w>": 5284,
    "utes</w>": 5285,
    "taxi": 5286,
    "chio</w>": 5287,
    "ogs</w>": 5288,
    "georg": 5289,
    "й</w>": 5290,
    "pati</w>": 5291,
    "tir": 5292,
    "carac": 5293,
    "cruci": 5294,
    "desi": 5295,
    "cade</w>": 5296,
    "inst": 5297,
    "zap": 5298,
    "stle</w>": 5299,
    "max": 5300,
    "tech": 5301,
    "ista</w>": 5302,
    "illon</w>": 5303,
    "rü": 5304,
    "rak</w>": 5305,
    "elem": 5306,
    "brid": 5307,
    "tivist</w>": 5308,
    "mix": 5309,
    "gai</w>": 5310,
    "eugen": 5311,
    "jol": 5312,
    "civil": 5313,
    "epe</w>": 5314,
    "nac</w>": 5315,
    "clip": 5316,
    "buch": 5317,
    "oki</w>": 5318,
    "shiki</w>": 5319,
    "kush": 5320,
    "bor</w>": 5321,
    "ecu": 5322,
    "chos": 5323,
    "gg": 5324,
    "oslav</w>": 5325,
    "leton</w>": 5326,
    "chron": 5327,
    "light": 5328,
    "vest": 5329,
    "marac": 5330,
    "samu": 5331,
    "brah": 5332,
    "apur</w>": 5333,
    "anist</w>": 5334,
    "emin": 5335,
    "uga</w>": 5336,
    "ślą": 5337,
    "crum": 5338,
    "tino</w>": 5339,
    "inqu": 5340,
    "shaf": 5341,
    "eti</w>": 5342,
    "aca": 5343,
    "turn": 5344,
    "dix</w>": 5345,
    "shun": 5346,
    "bill": 5347,
    "wonder": 5348,
    "mais": 5349,
    "ør": 5350,
    "tun</w>": 5351,
    "any": 5352,
    "ocki</w>": 5353,
    "yakov</w>": 5354,
    "onal</w>": 5355,
    "nex</w>": 5356,
    "ough": 5357,
    "mos": 5358,
    "math": 5359,
    "house": 5360,
    "plo": 5361,
    "tch": 5362,
    "bür": 5363,
    "stra</w>": 5364,
    "enz</w>": 5365,
    "wo</w>": 5366,
    "novel": 5367,
    "guchi</w>": 5368,
    "äki</w>": 5369,
    "rant": 5370,
    "owitz</w>": 5371,
    "fel</w>": 5372,
    "zzo</w>": 5373,
    "cloud": 5374,
    "scha": 5375,
    "petr": 5376,
    "urb": 5377,
    "direc": 5378,
    "abella</w>": 5379,
    "kee": 5380,
    "lí": 5381,
    "cata</w>": 5382,
    "у": 5383,
    "к": 5384,
    "н": 5385,
    "ь": 5386,
    "iaceae</w>": 5387,
    "mea": 5388,
    "fumar": 5389,
    "ophyta</w>": 5390,
    "ographer</w>": 5391,
    "vet": 5392,
    "rafi": 5393,
    "colle": 5394,
    "stron": 5395,
    "mis</w>": 5396,
    "vasil": 5397,
    "jaw": 5398,
    "strept": 5399,
    "eti": 5400,
    "saki</w>": 5401,
    "blau": 5402,
    "koop": 5403,
    "cob": 5404,
    "aller</w>": 5405,
    "deme": 5406,
    "bapti": 5407,
    "zip": 5408,
    "quel": 5409,
    "dhar": 5410,
    "michel": 5411,
    "frö": 5412,
    "alk": 5413,
    "franken": 5414,
    "ars": 5415,
    "gor</w>": 5416,
    "ired</w>": 5417,
    "aye": 5418,
    "eis": 5419,
    "ket": 5420,
    "tes": 5421,
    "lino</w>": 5422,
    "sier</w>": 5423,
    "eyn</w>": 5424,
    "andel</w>": 5425,
    "wart</w>": 5426,
    "smol": 5427,
    "meadow": 5428,
    "yellow": 5429,
    "thers</w>": 5430,
    "seur</w>": 5431,
    "bius</w>": 5432,
    "wig": 5433,
    "nings</w>": 5434,
    "bruck</w>": 5435,
    "das": 5436,
    "vania</w>": 5437,
    "wein": 5438,
    "fen</w>": 5439,
    "bend": 5440,
    "bech": 5441,
    "meng": 5442,
    "drac": 5443,
    "nath": 5444,
    "osauridae</w>": 5445,
    "mada</w>": 5446,
    "loids</w>": 5447,
    "amoto</w>": 5448,
    "oran</w>": 5449,
    "ake</w>": 5450,
    "turbo": 5451,
    "phon": 5452,
    "bré": 5453,
    "tigny</w>": 5454,
    "aha": 5455,
    "ziz": 5456,
    "evan</w>": 5457,
    "asi": 5458,
    "tiz": 5459,
    "iano</w>": 5460,
    "tsun": 5461,
    "ures</w>": 5462,
    "buk</w>": 5463,
    "ald</w>": 5464,
    "österreich": 5465,
    "gung": 5466,
    "edu": 5467,
    "derman</w>": 5468,
    "ddin</w>": 5469,
    "abe": 5470,
    "telev": 5471,
    "nj": 5472,
    "chang": 5473,
    "zal": 5474,
    "uris</w>": 5475,
    "hali": 5476,
    "tial</w>": 5477,
    "aram": 5478,
    "shad</w>": 5479,
    "ophile</w>": 5480,
    "eg</w>": 5481,
    "uel</w>": 5482,
    "sional</w>": 5483,
    "batt": 5484,
    "ingh": 5485,
    "ged": 5486,
    "ulla</w>": 5487,
    "amura</w>": 5488,
    "rall</w>": 5489,
    "dip": 5490,
    "lons</w>": 5491,
    "trun": 5492,
    "lix</w>": 5493,
    "fric": 5494,
    "40": 5495,
    "coun": 5496,
    "ark": 5497,
    "viri": 5498,
    "ull": 5499,
    "kura</w>": 5500,
    "odu": 5501,
    "vie": 5502,
    "eiro</w>": 5503,
    "riz</w>": 5504,
    "pist": 5505,
    "lene</w>": 5506,
    "hirom": 5507,
    "langen": 5508,
    "rid": 5509,
    "alpha": 5510,
    "clon": 5511,
    "escent</w>": 5512,
    "ud": 5513,
    "chas": 5514,
    "toko</w>": 5515,
    "sport": 5516,
    "ppers</w>": 5517,
    "chip": 5518,
    "vö": 5519,
    "sche": 5520,
    "noo": 5521,
    "hoch": 5522,
    "hof": 5523,
    "anza</w>": 5524,
    "thomas": 5525,
    "minim": 5526,
    "juli": 5527,
    "shausen</w>": 5528,
    "aten": 5529,
    "enn": 5530,
    "enac</w>": 5531,
    "arra": 5532,
    "thunder": 5533,
    "honey": 5534,
    "iny</w>": 5535,
    "dison</w>": 5536,
    "oura": 5537,
    "wara</w>": 5538,
    "aeus</w>": 5539,
    "zin": 5540,
    "zor</w>": 5541,
    "angen</w>": 5542,
    "hv": 5543,
    "ghi": 5544,
    "त</w>": 5545,
    "reich": 5546,
    "elson</w>": 5547,
    "shay": 5548,
    "jiro</w>": 5549,
    "lani</w>": 5550,
    "hito</w>": 5551,
    "hei</w>": 5552,
    "willi": 5553,
    "cheon</w>": 5554,
    "appa</w>": 5555,
    "burg": 5556,
    "gret</w>": 5557,
    "vari</w>": 5558,
    "eff</w>": 5559,
    "tona</w>": 5560,
    "tec</w>": 5561,
    "jaz": 5562,
    "kert</w>": 5563,
    "pá": 5564,
    "asi</w>": 5565,
    "person": 5566,
    "aline</w>": 5567,
    "prat": 5568,
    "zad</w>": 5569,
    "fili": 5570,
    "andi</w>": 5571,
    "aei</w>": 5572,
    "agawa</w>": 5573,
    "erland</w>": 5574,
    "ogan</w>": 5575,
    "oun</w>": 5576,
    "yers</w>": 5577,
    "deep": 5578,
    "issa</w>": 5579,
    "yeon</w>": 5580,
    "dō</w>": 5581,
    "angan</w>": 5582,
    "rov</w>": 5583,
    "dorff</w>": 5584,
    "atsu</w>": 5585,
    "oke</w>": 5586,
    "stede</w>": 5587,
    "zá": 5588,
    "atten": 5589,
    "emian</w>": 5590,
    "fn</w>": 5591,
    "kaz</w>": 5592,
    "ogen</w>": 5593,
    "jat": 5594,
    "loi</w>": 5595,
    "yur": 5596,
    "dara</w>": 5597,
    "agne": 5598,
    "ppi</w>": 5599,
    "tini</w>": 5600,
    "orig": 5601,
    "psy": 5602,
    "tho": 5603,
    "ktor</w>": 5604,
    "tier": 5605,
    "vu</w>": 5606,
    "rile</w>": 5607,
    "vier</w>": 5608,
    "cer</w>": 5609,
    "ías</w>": 5610,
    "ret</w>": 5611,
    "bn</w>": 5612,
    "holz</w>": 5613,
    "cyprin": 5614,
    "catal": 5615,
    "pug": 5616,
    "mob": 5617,
    "wac": 5618,
    "nip": 5619,
    "gau</w>": 5620,
    "khur": 5621,
    "shear": 5622,
    "bov": 5623,
    "braun": 5624,
    "glio</w>": 5625,
    "hya</w>": 5626,
    "chig": 5627,
    "asaki</w>": 5628,
    "bene": 5629,
    "sie": 5630,
    "stetten</w>": 5631,
    "twil</w>": 5632,
    "mün": 5633,
    "ym</w>": 5634,
    "ager</w>": 5635,
    "color": 5636,
    "fras": 5637,
    "kau</w>": 5638,
    "cag": 5639,
    "tn</w>": 5640,
    "vai": 5641,
    "astr": 5642,
    "eigen": 5643,
    "tach</w>": 5644,
    "veron": 5645,
    "scot": 5646,
    "wör": 5647,
    "cari": 5648,
    "niz": 5649,
    "mean": 5650,
    "oj": 5651,
    "aun": 5652,
    "chern": 5653,
    "bram": 5654,
    "lauter": 5655,
    "schel": 5656,
    "olan</w>": 5657,
    "roh": 5658,
    "ming": 5659,
    "oria</w>": 5660,
    "wic": 5661,
    "iman": 5662,
    "ė</w>": 5663,
    "ان</w>": 5664,
    "habi": 5665,
    "lent": 5666,
    "illac</w>": 5667,
    "pari": 5668,
    "ás</w>": 5669,
    "ener</w>": 5670,
    "ches": 5671,
    "ahara</w>": 5672,
    "lacer": 5673,
    "gyl": 5674,
    "koz": 5675,
    "kke</w>": 5676,
    "eir": 5677,
    "stau": 5678,
    "jel": 5679,
    "ried": 5680,
    "enberger</w>": 5681,
    "drag": 5682,
    "khin</w>": 5683,
    "encia</w>": 5684,
    "montan": 5685,
    "tson</w>": 5686,
    "pert</w>": 5687,
    "nun": 5688,
    "popul": 5689,
    "ık</w>": 5690,
    "afro": 5691,
    "leh</w>": 5692,
    "cé": 5693,
    "amata</w>": 5694,
    "ator": 5695,
    "filip": 5696,
    "ond": 5697,
    "isse</w>": 5698,
    "ophi": 5699,
    "umer": 5700,
    "alai</w>": 5701,
    "maq": 5702,
    "hora</w>": 5703,
    "baf": 5704,
    "dein": 5705,
    "beke</w>": 5706,
    "eed</w>": 5707,
    "spil": 5708,
    "chis": 5709,
    "sig</w>": 5710,
    "ær</w>": 5711,
    "rim": 5712,
    "tali</w>": 5713,
    "rata</w>": 5714,
    "nami": 5715,
    "mosk": 5716,
    "escens</w>": 5717,
    "rt": 5718,
    "thak": 5719,
    "chaz": 5720,
    "ongs</w>": 5721,
    "hoff": 5722,
    "nav": 5723,
    "you": 5724,
    "bart": 5725,
    "isma": 5726,
    "righ": 5727,
    "gav": 5728,
    "jec": 5729,
    "emic</w>": 5730,
    "sund</w>": 5731,
    "azu</w>": 5732,
    "liv": 5733,
    "jt": 5734,
    "chev</w>": 5735,
    "brat": 5736,
    "massi": 5737,
    "bidi</w>": 5738,
    "country": 5739,
    "aux": 5740,
    "vres</w>": 5741,
    "rog": 5742,
    "nig": 5743,
    "sak</w>": 5744,
    "uca</w>": 5745,
    "zhong": 5746,
    "anto": 5747,
    "catt": 5748,
    "sè": 5749,
    "arvi": 5750,
    "könig": 5751,
    "uwa</w>": 5752,
    "isy</w>": 5753,
    "acqu": 5754,
    "oak": 5755,
    "iton</w>": 5756,
    "avan</w>": 5757,
    "pau": 5758,
    "télé": 5759,
    "tei": 5760,
    "kuni": 5761,
    "mori": 5762,
    "rez": 5763,
    "sumi</w>": 5764,
    "matsu": 5765,
    "had": 5766,
    "uo</w>": 5767,
    "fluor": 5768,
    "ole": 5769,
    "aut": 5770,
    "willer</w>": 5771,
    "owa</w>": 5772,
    "flavi": 5773,
    "tham": 5774,
    "rome": 5775,
    "nie": 5776,
    "nup": 5777,
    "hyn": 5778,
    "anha</w>": 5779,
    "enti</w>": 5780,
    "zie": 5781,
    "kait": 5782,
    "sik</w>": 5783,
    "tib": 5784,
    "ink": 5785,
    "yong": 5786,
    "baj": 5787,
    "kina</w>": 5788,
    "dley</w>": 5789,
    "arai</w>": 5790,
    "deh": 5791,
    "ogi</w>": 5792,
    "chon</w>": 5793,
    "reis": 5794,
    "ont</w>": 5795,
    "alph": 5796,
    "anou": 5797,
    "annis</w>": 5798,
    "ffle</w>": 5799,
    "mk": 5800,
    "ël</w>": 5801,
    "azi": 5802,
    "slo": 5803,
    "boda</w>": 5804,
    "esque</w>": 5805,
    "kry": 5806,
    "п": 5807,
    "vidy": 5808,
    "suz": 5809,
    "hier": 5810,
    "zol": 5811,
    "oda": 5812,
    "ane": 5813,
    "woll": 5814,
    "ghe": 5815,
    "engel": 5816,
    "nol": 5817,
    "boul": 5818,
    "noy</w>": 5819,
    "ör</w>": 5820,
    "ira": 5821,
    "kv": 5822,
    "zuc": 5823,
    "bich": 5824,
    "ushi</w>": 5825,
    "ados</w>": 5826,
    "khor": 5827,
    "kava</w>": 5828,
    "inson</w>": 5829,
    "iza</w>": 5830,
    "kuz": 5831,
    "gü": 5832,
    "kost": 5833,
    "ysen</w>": 5834,
    "blood": 5835,
    "martin": 5836,
    "rhy": 5837,
    "ald": 5838,
    "jić</w>": 5839,
    "gian": 5840,
    "swind": 5841,
    "skiy</w>": 5842,
    "50": 5843,
    "yash": 5844,
    "edi": 5845,
    "xia": 5846,
    "ichthys</w>": 5847,
    "acha</w>": 5848,
    "yak": 5849,
    "eline</w>": 5850,
    "elet</w>": 5851,
    "ital</w>": 5852,
    "cp": 5853,
    "ondo</w>": 5854,
    "kac": 5855,
    "geer": 5856,
    "pn": 5857,
    "aid": 5858,
    "ore": 5859,
    "sau</w>": 5860,
    "jing": 5861,
    "ås</w>": 5862,
    "dney</w>": 5863,
    "schon": 5864,
    "sir": 5865,
    "ż": 5866,
    "rul": 5867,
    "ope</w>": 5868,
    "bous": 5869,
    "trip": 5870,
    "nesville</w>": 5871,
    "strup</w>": 5872,
    "venkat": 5873,
    "marij": 5874,
    "lm": 5875,
    "unbi": 5876,
    ".)</w>": 5877,
    "four</w>": 5878,
    "week</w>": 5879,
    "/</w>": 5880,
    "got</w>": 5881,
    "second</w>": 5882,
    "roman</w>": 5883,
    "start</w>": 5884,
    "22</w>": 5885,
    "winter</w>": 5886,
    "into</w>": 5887,
    "with</w>": 5888,
    "craft</w>": 5889,
    "arts</w>": 5890,
    "how</w>": 5891,
    "things</w>": 5892,
    ";</w>": 5893,
    "connect</w>": 5894,
    "had</w>": 5895,
    "tile</w>": 5896,
    "late</w>": 5897,
    "person</w>": 5898,
    "functions</w>": 5899,
    "scale</w>": 5900,
    "show</w>": 5901,
    "blocks</w>": 5902,
    "tly</w>": 5903,
    "dust</w>": 5904,
    "mass</w>": 5905,
    "acid</w>": 5906,
    "hot</w>": 5907,
    "life</w>": 5908,
    "times</w>": 5909,
    "been</w>": 5910,
    "eye</w>": 5911,
    "plus</w>": 5912,
    "evolution</w>": 5913,
    "free</w>": 5914,
    "once</w>": 5915,
    "turing</w>": 5916,
    "–</w>": 5917,
    "[</w>": 5918,
    "family</w>": 5919,
    "communications</w>": 5920,
    "million</w>": 5921,
    "60</w>": 5922,
    "queen</w>": 5923,
    "”</w>": 5924,
    "code": 5925,
    "breaking</w>": 5926,
    "24</w>": 5927,
    "tested</w>": 5928,
    "very</w>": 5929,
    "child</w>": 5930,
    "series</w>": 5931,
    "sold</w>": 5932,
    "older</w>": 5933,
    "graphic</w>": 5934,
    "rest</w>": 5935,
    "rise</w>": 5936,
    "200</w>": 5937,
    "control</w>": 5938,
    "weeds</w>": 5939,
    "loss</w>": 5940,
    "technical</w>": 5941,
    "milk</w>": 5942,
    "represented</w>": 5943,
    "performed</w>": 5944,
    "sign</w>": 5945,
    "fix</w>": 5946,
    "animation</w>": 5947,
    "27</w>": 5948,
    "85</w>": 5949,
    "gold</w>": 5950,
    "even</w>": 5951,
    "dry</w>": 5952,
    "west</w>": 5953,
    "thought</w>": 5954,
    "houses</w>": 5955,
    "sent</w>": 5956,
    "abel</w>": 5957,
    "banks</w>": 5958,
    "watch</w>": 5959,
    "baby</w>": 5960,
    "told</w>": 5961,
    "loaf</w>": 5962,
    "fleet</w>": 5963,
    "sail</w>": 5964,
    "broke</w>": 5965,
    "grain</w>": 5966,
    "160</w>": 5967,
    "100</w>": 5968,
    "trade</w>": 5969,
    "90s</w>": 5970,
    "actors</w>": 5971,
    "2000</w>": 5972,
    "balla": 5973,
    "wide</w>": 5974,
    "pop</w>": 5975,
    "\")</w>": 5976,
    "abc</w>": 5977,
    "stations</w>": 5978,
    "actor</w>": 5979,
    "heath</w>": 5980,
    "sports</w>": 5981,
    "slam</w>": 5982,
    "rated</w>": 5983,
    "athlete</w>": 5984,
    "read</w>": 5985,
    "add</w>": 5986,
    "ounces</w>": 5987,
    "meet</w>": 5988,
    "nasa</w>": 5989,
    "chief</w>": 5990,
    "lists</w>": 5991,
    "eve</w>": 5992,
    "tries</w>": 5993,
    "walking</w>": 5994,
    "bets</w>": 5995,
    "down</w>": 5996,
    "waters</w>": 5997,
    "wheel</w>": 5998,
    "instead</w>": 5999,
    "speed</w>": 6000,
    "casting</w>": 6001,
    "cast</w>": 6002,
    "conce": 6003,
    "guard</w>": 6004,
    "homin": 6005,
    "hear": 6006,
    "11</w>": 6007,
    "sides</w>": 6008,
    "stern</w>": 6009,
    "evo</w>": 6010,
    "bred</w>": 6011,
    "90</w>": 6012,
    "soft</w>": 6013,
    "vestris</w>": 6014,
    "nut</w>": 6015,
    "knife</w>": 6016,
    "cut</w>": 6017,
    "skin</w>": 6018,
    "oideae</w>": 6019,
    "dae": 6020,
    "cure</w>": 6021,
    "42</w>": 6022,
    "43</w>": 6023,
    "zero</w>": 6024,
    "graph</w>": 6025,
    "dependent</w>": 6026,
    "piece</w>": 6027,
    "electric</w>": 6028,
    "400</w>": 6029,
    "block</w>": 6030,
    "fixed</w>": 6031,
    "stable</w>": 6032,
    "kinetic</w>": 6033,
    "82</w>": 6034,
    "lead</w>": 6035,
    "takes</w>": 6036,
    "bang</w>": 6037,
    "bodies</w>": 6038,
    "bright</w>": 6039,
    "ocentrism</w>": 6040,
    "eding</w>": 6041,
    "rocke": 6042,
    "section</w>": 6043,
    "digi": 6044,
    "bridges</w>": 6045,
    "tower</w>": 6046,
    "post</w>": 6047,
    "wright</w>": 6048,
    "pei</w>": 6049,
    "khan</w>": 6050,
    "bones</w>": 6051,
    "dates</w>": 6052,
    "liver</w>": 6053,
    "heart</w>": 6054,
    "brain</w>": 6055,
    "600</w>": 6056,
    "belt</w>": 6057,
    "rocks</w>": 6058,
    "surface</w>": 6059,
    "regi": 6060,
    "fir</w>": 6061,
    "bears</w>": 6062,
    "dogs</w>": 6063,
    "cats</w>": 6064,
    "gone</w>": 6065,
    "ayi</w>": 6066,
    "builders</w>": 6067,
    "flows</w>": 6068,
    "texts</w>": 6069,
    "anians</w>": 6070,
    "7th</w>": 6071,
    "rose</w>": 6072,
    "anj</w>": 6073,
    "999</w>": 6074,
    "conservative</w>": 6075,
    "hamid</w>": 6076,
    "argen": 6077,
    "tierra</w>": 6078,
    "polo</w>": 6079,
    "österreich</w>": 6080,
    "dig</w>": 6081,
    "rae": 6082,
    "cake</w>": 6083,
    "date</w>": 6084,
    "tots</w>": 6085,
    "oral</w>": 6086,
    "otrophic</w>": 6087,
    "web</w>": 6088,
    "phones</w>": 6089,
    "cards</w>": 6090,
    "cases</w>": 6091,
    "owed</w>": 6092,
    "heated</w>": 6093,
    "fried</w>": 6094,
    "links</w>": 6095,
    "bees</w>": 6096,
    "wax</w>": 6097,
    "mites</w>": 6098,
    "dock</w>": 6099,
    "pier</w>": 6100,
    "qing</w>": 6101,
    "spell</w>": 6102,
    "70</w>": 6103,
    "berries</w>": 6104,
    "arp</w>": 6105,
    "rats</w>": 6106,
    "enter</w>": 6107,
    "biology</w>": 6108,
    "34</w>": 6109,
    "hills</w>": 6110,
    "pierre</w>": 6111,
    "deus</w>": 6112,
    "linck</w>": 6113,
    "screen</w>": 6114,
    "spa</w>": 6115,
    "forest</w>": 6116,
    "illas</w>": 6117,
    "crime</w>": 6118,
    "2nd</w>": 6119,
    "cup</w>": 6120,
    "150</w>": 6121,
    "acids</w>": 6122,
    "bases</w>": 6123,
    "toxic</w>": 6124,
    "burns</w>": 6125,
    "suits</w>": 6126,
    "check</w>": 6127,
    "bits</w>": 6128,
    "brand</w>": 6129,
    "sac</w>": 6130,
    "intel</w>": 6131,
    "lap</w>": 6132,
    "0s</w>": 6133,
    "share</w>": 6134,
    "dated</w>": 6135,
    "marco</w>": 6136,
    "qin</w>": 6137,
    "clan": 6138,
    "quan</w>": 6139,
    "sino</w>": 6140,
    "tivi": 6141,
    "zation</w>": 6142,
    "market</w>": 6143,
    "news</w>": 6144,
    "bounded</w>": 6145,
    "printing</w>": 6146,
    "fei</w>": 6147,
    "hung</w>": 6148,
    "dragon</w>": 6149,
    "holding</w>": 6150,
    "61</w>": 6151,
    "viii</w>": 6152,
    "tube</w>": 6153,
    "mental</w>": 6154,
    "apes</w>": 6155,
    "fishes</w>": 6156,
    "marriage</w>": 6157,
    "rites</w>": 6158,
    "ease</w>": 6159,
    "tern</w>": 6160,
    "lean</w>": 6161,
    "round</w>": 6162,
    "christ</w>": 6163,
    "parks</w>": 6164,
    "oil</w>": 6165,
    "chat</w>": 6166,
    "girls</w>": 6167,
    "ought</w>": 6168,
    "page</w>": 6169,
    "differenti": 6170,
    "70s</w>": 6171,
    "draw</w>": 6172,
    "sums</w>": 6173,
    "acting</w>": 6174,
    "sexuality</w>": 6175,
    "kest</w>": 6176,
    "evangel": 6177,
    "52</w>": 6178,
    "sale</w>": 6179,
    "trip</w>": 6180,
    "winds</w>": 6181,
    "owns</w>": 6182,
    "rent</w>": 6183,
    "script</w>": 6184,
    "temp": 6185,
    "ility</w>": 6186,
    "diar": 6187,
    "losing</w>": 6188,
    "hydrate</w>": 6189,
    "occupied</w>": 6190,
    "dress</w>": 6191,
    "tales</w>": 6192,
    "aqua</w>": 6193,
    "83</w>": 6194,
    "ationism</w>": 6195,
    "stress</w>": 6196,
    "martin</w>": 6197,
    "stall</w>": 6198,
    "press</w>": 6199,
    "bias</w>": 6200,
    "32</w>": 6201,
    "oxide</w>": 6202,
    "joe</w>": 6203,
    "cat</w>": 6204,
    "storm</w>": 6205,
    "autotrophs</w>": 6206,
    "rium</w>": 6207,
    "stroke</w>": 6208,
    "74</w>": 6209,
    "faq</w>": 6210,
    "?</w>": 6211,
    "anguil": 6212,
    "breed</w>": 6213,
    "tuna</w>": 6214,
    "toes</w>": 6215,
    "hoof</w>": 6216,
    "wear</w>": 6217,
    "sals</w>": 6218,
    "xiv</w>": 6219,
    "36</w>": 6220,
    "verne</w>": 6221,
    "guy</w>": 6222,
    "staff</w>": 6223,
    "guide</w>": 6224,
    "ritz</w>": 6225,
    "81</w>": 6226,
    "arc</w>": 6227,
    "lahti</w>": 6228,
    "till</w>": 6229,
    "800</w>": 6230,
    "omen": 6231,
    "valued</w>": 6232,
    "!\"</w>": 6233,
    "chair</w>": 6234,
    "ryan</w>": 6235,
    "theists</w>": 6236,
    "believers</w>": 6237,
    "transc": 6238,
    "plex</w>": 6239,
    "rotta</w>": 6240,
    "rig</w>": 6241,
    "amin</w>": 6242,
    "tax</w>": 6243,
    "77</w>": 6244,
    "barred</w>": 6245,
    "walk</w>": 6246,
    "lava</w>": 6247,
    "65</w>": 6248,
    "anced</w>": 6249,
    "corro": 6250,
    "haber</w>": 6251,
    "org</w>": 6252,
    "bald</w>": 6253,
    "bog</w>": 6254,
    "atite</w>": 6255,
    "iso</w>": 6256,
    "'\"</w>": 6257,
    "goa</w>": 6258,
    "lok</w>": 6259,
    "250</w>": 6260,
    "rains</w>": 6261,
    "moll": 6262,
    "coding</w>": 6263,
    "aids</w>": 6264,
    "gates</w>": 6265,
    "jun</w>": 6266,
    "nara</w>": 6267,
    "mt</w>": 6268,
    "cherry</w>": 6269,
    "kyu": 6270,
    "allen</w>": 6271,
    "inherit": 6272,
    "hue</w>": 6273,
    "planes</w>": 6274,
    "autop": 6275,
    "roth</w>": 6276,
    "microme": 6277,
    "necks</w>": 6278,
    "tional</w>": 6279,
    "itors</w>": 6280,
    "infr": 6281,
    "baker</w>": 6282,
    "ahu</w>": 6283,
    "bags</w>": 6284,
    "hunt</w>": 6285,
    "</</w>": 6286,
    "train</w>": 6287,
    "heat": 6288,
    "folia</w>": 6289,
    "arom": 6290,
    "umen</w>": 6291,
    "sung</w>": 6292,
    "virgin": 6293,
    "impres": 6294,
    "chords</w>": 6295,
    "walks</w>": 6296,
    "sol</w>": 6297,
    "shop</w>": 6298,
    "pc</w>": 6299,
    "wikit": 6300,
    "ulus</w>": 6301,
    "frame</w>": 6302,
    "moer": 6303,
    "apar": 6304,
    "m1</w>": 6305,
    "rows</w>": 6306,
    "quita</w>": 6307,
    "awi": 6308,
    "shirts</w>": 6309,
    "umar</w>": 6310,
    "madra": 6311,
    "jaw</w>": 6312,
    "shoe</w>": 6313,
    "mr</w>": 6314,
    "kiss</w>": 6315,
    "vard</w>": 6316,
    "alman": 6317,
    "acs</w>": 6318,
    "hail</w>": 6319,
    "iris</w>": 6320,
    "\"'</w>": 6321,
    "deck</w>": 6322,
    "vii</w>": 6323,
    "fees</w>": 6324,
    "ulations</w>": 6325,
    "soy</w>": 6326,
    "pg</w>": 6327,
    "oll</w>": 6328,
    "reduc": 6329,
    "lighting</w>": 6330,
    "neo</w>": 6331,
    "hui</w>": 6332,
    "ape</w>": 6333,
    "turb": 6334,
    "faction</w>": 6335,
    "conservatism</w>": 6336,
    "onism</w>": 6337,
    "univer": 6338,
    "flies</w>": 6339,
    "6s</w>": 6340,
    "leuc": 6341,
    "thre": 6342,
    "jö": 6343,
    "gland</w>": 6344,
    "chord</w>": 6345,
    "modi": 6346,
    "fier</w>": 6347,
    "requ": 6348,
    "chuan</w>": 6349,
    "inter</w>": 6350,
    "tao</w>": 6351,
    "wagon</w>": 6352,
    "door</w>": 6353,
    "hertz</w>": 6354,
    "ound</w>": 6355,
    "defec": 6356,
    "qed</w>": 6357,
    "fiable</w>": 6358,
    "thesis</w>": 6359,
    "idity</w>": 6360,
    "chann": 6361,
    "tch</w>": 6362,
    "assembled</w>": 6363,
    "crimin": 6364,
    "bular</w>": 6365,
    "±</w>": 6366,
    "holders</w>": 6367,
    "dish": 6368,
    "liner</w>": 6369,
    "arte</w>": 6370,
    "tm</w>": 6371,
    "manga": 6372,
    "appreci": 6373,
    "some": 6374,
    "isot": 6375,
    "age": 6376,
    "tionals</w>": 6377,
    "108</w>": 6378,
    "odd": 6379,
    "backed</w>": 6380,
    "positional</w>": 6381,
    "jective</w>": 6382,
    "rot</w>": 6383,
    "rica</w>": 6384,
    "antonio</w>": 6385,
    "stas</w>": 6386,
    "pico</w>": 6387,
    "phase</w>": 6388,
    "acute</w>": 6389,
    "bag</w>": 6390,
    "rif": 6391,
    "zimbabwe</w>": 6392,
    "guarded</w>": 6393,
    "folds</w>": 6394,
    "oro": 6395,
    "extru": 6396,
    "bump": 6397,
    "2m</w>": 6398,
    "drill</w>": 6399,
    "pack</w>": 6400,
    "ice": 6401,
    "breaker</w>": 6402,
    "straw</w>": 6403,
    "stairs</w>": 6404,
    "a1</w>": 6405,
    "thaler</w>": 6406,
    "yen</w>": 6407,
    "mash</w>": 6408,
    "cid": 6409,
    "rim</w>": 6410,
    "bali</w>": 6411,
    "rida</w>": 6412,
    "aches</w>": 6413,
    "frau": 6414,
    "pide</w>": 6415,
    "shun</w>": 6416,
    "mad</w>": 6417,
    "individu": 6418,
    "ânia</w>": 6419,
    "constan": 6420,
    "devalu": 6421,
    "mw</w>": 6422,
    "cans</w>": 6423,
    "ulf</w>": 6424,
    "aland</w>": 6425,
    "ibrahi": 6426,
    "decim": 6427,
    "lac</w>": 6428,
    "didier</w>": 6429,
    "rer</w>": 6430,
    "knobs</w>": 6431,
    "illing</w>": 6432,
    "mates</w>": 6433,
    "tür": 6434,
    "dö": 6435,
    "keb": 6436,
    "fia</w>": 6437,
    "müller</w>": 6438,
    "tenbach</w>": 6439,
    "hus</w>": 6440,
    "paraphra": 6441,
    "jil</w>": 6442,
    "wolf</w>": 6443,
    "tram</w>": 6444,
    "musik</w>": 6445,
    "deutscher</w>": 6446,
    "activation</w>": 6447,
    "anno</w>": 6448,
    "roller</w>": 6449,
    "hap": 6450,
    "iter": 6451,
    "ultra": 6452,
    "lima</w>": 6453,
    "alberto</w>": 6454,
    "grün": 6455,
    "breads</w>": 6456,
    "lung</w>": 6457,
    "amides</w>": 6458,
    "leuk": 6459,
    "brian</w>": 6460,
    "sied": 6461,
    "ishi": 6462,
    "sap</w>": 6463,
    "shino</w>": 6464,
    "80": 6465,
    "þ": 6466,
    "esson</w>": 6467,
    "haf": 6468,
    "jón</w>": 6469,
    "orial</w>": 6470,
    "dean</w>": 6471,
    "hy</w>": 6472,
    "tag</w>": 6473,
    "fork": 6474,
    "york": 6475,
    "eton</w>": 6476,
    "coats</w>": 6477,
    "chester</w>": 6478,
    "maid</w>": 6479,
    "tyre</w>": 6480,
    "f1</w>": 6481,
    "serie</w>": 6482,
    "shirt</w>": 6483,
    "kingly</w>": 6484,
    "chang</w>": 6485,
    "matt</w>": 6486,
    "pat</w>": 6487,
    "rams</w>": 6488,
    "phil</w>": 6489,
    "zoll": 6490,
    "verein</w>": 6491,
    "wel</w>": 6492,
    "wheel": 6493,
    "atari</w>": 6494,
    "matched</w>": 6495,
    "loid</w>": 6496,
    "knights</w>": 6497,
    "gupta</w>": 6498,
    "bc": 6499,
    "kaia</w>": 6500,
    "bank": 6501,
    "joy</w>": 6502,
    "worthy</w>": 6503,
    "blade</w>": 6504,
    "lun</w>": 6505,
    "xian</w>": 6506,
    "sium</w>": 6507,
    "kabu": 6508,
    "hawk</w>": 6509,
    "mich</w>": 6510,
    "thora</w>": 6511,
    "pis</w>": 6512,
    "ür": 6513,
    "compatibility</w>": 6514,
    "tool": 6515,
    "doc</w>": 6516,
    "worms</w>": 6517,
    "shots</w>": 6518,
    "six": 6519,
    "scrap": 6520,
    "excav": 6521,
    "eable</w>": 6522,
    "stock": 6523,
    "yh": 6524,
    "holt</w>": 6525,
    "pv": 6526,
    "friesland</w>": 6527,
    "lev</w>": 6528,
    "ovych</w>": 6529,
    "yus": 6530,
    "ça</w>": 6531,
    "sloven": 6532,
    "ská</w>": 6533,
    "vá": 6534,
    "roku</w>": 6535,
    "holder</w>": 6536,
    "tooth</w>": 6537,
    "chandra</w>": 6538,
    "shea": 6539,
    "bean</w>": 6540,
    "oam</w>": 6541,
    "itch</w>": 6542,
    "rie": 6543,
    "goku</w>": 6544,
    "stereotyp": 6545,
    "correspon": 6546,
    "bap": 6547,
    "cataly": 6548,
    "norm": 6549,
    "ake": 6550,
    "zam</w>": 6551,
    "riga</w>": 6552,
    "kova</w>": 6553,
    "priori": 6554,
    "tized</w>": 6555,
    "yov</w>": 6556,
    "aired</w>": 6557,
    "brooke</w>": 6558,
    "ude</w>": 6559,
    "thaw": 6560,
    "sić</w>": 6561,
    "stap": 6562,
    "cg</w>": 6563,
    "{</w>": 6564,
    "mnem": 6565,
    "laying</w>": 6566,
    "peac": 6567,
    "ocks</w>": 6568,
    "cliff</w>": 6569,
    "solo</w>": 6570,
    "maniraptor": 6571,
    "bird": 6572,
    "dain</w>": 6573,
    "pseudo": 6574,
    "rex</w>": 6575,
    "pyro": 6576,
    "platy": 6577,
    "inging</w>": 6578,
    "fielders</w>": 6579,
    "odi</w>": 6580,
    "wc</w>": 6581,
    "rial</w>": 6582,
    "seer</w>": 6583,
    "cardi": 6584,
    "gastroenter": 6585,
    "oscopy</w>": 6586,
    "mack</w>": 6587,
    "fla</w>": 6588,
    "-)</w>": 6589,
    "determin": 6590,
    "vani": 6591,
    "xx": 6592,
    "fred</w>": 6593,
    "glen</w>": 6594,
    "flos": 6595,
    "deutsch": 6596,
    "aus</w>": 6597,
    "1a</w>": 6598,
    "ymes</w>": 6599,
    "strand</w>": 6600,
    "length": 6601,
    "transliter": 6602,
    "bench</w>": 6603,
    "par</w>": 6604,
    "söder": 6605,
    "ridd": 6606,
    "tola</w>": 6607,
    "colo": 6608,
    "side": 6609,
    "boo</w>": 6610,
    "flic": 6611,
    "cor</w>": 6612,
    "nock</w>": 6613,
    "knot": 6614,
    "jom</w>": 6615,
    "alar</w>": 6616,
    "alise</w>": 6617,
    "gue": 6618,
    "mba</w>": 6619,
    "hler</w>": 6620,
    "interfer": 6621,
    "supre": 6622,
    "jen</w>": 6623,
    "astrocy": 6624,
    "focus": 6625,
    "tric</w>": 6626,
    "loff</w>": 6627,
    "ials</w>": 6628,
    "anen</w>": 6629,
    "hira</w>": 6630,
    "sura</w>": 6631,
    "ن</w>": 6632,
    "sed": 6633,
    "saurisch": 6634,
    "viertel</w>": 6635,
    "inn</w>": 6636,
    "miser": 6637,
    "fü": 6638,
    "aglio</w>": 6639,
    "frott": 6640,
    "bates</w>": 6641,
    "inating</w>": 6642,
    "fores": 6643,
    "raw": 6644,
    "ass</w>": 6645,
    "aff</w>": 6646,
    "shat": 6647,
    "antiqu": 6648,
    "skyi</w>": 6649,
    "opsis</w>": 6650,
    "nelle</w>": 6651,
    "ahan": 6652,
    "lucci</w>": 6653,
    "puy": 6654,
    "ogies</w>": 6655,
    "stering</w>": 6656,
    "ution</w>": 6657,
    "ophone</w>": 6658,
    "camel": 6659,
    "carn": 6660,
    "clev": 6661,
    "edon</w>": 6662,
    "eden": 6663,
    "kenham</w>": 6664,
    "arden</w>": 6665,
    "sworthy</w>": 6666,
    "hyde</w>": 6667,
    "frac": 6668,
    "knut": 6669,
    "lade</w>": 6670,
    "little": 6671,
    "annes</w>": 6672,
    "ull</w>": 6673,
    "norman": 6674,
    "tery</w>": 6675,
    "sfield</w>": 6676,
    "timore</w>": 6677,
    "poul": 6678,
    "stot": 6679,
    "stow": 6680,
    "thong</w>": 6681,
    "tton</w>": 6682,
    "winc": 6683,
    "hooks</w>": 6684,
    "cellu": 6685,
    "vig</w>": 6686,
    "tore</w>": 6687,
    "trio</w>": 6688,
    "cristof": 6689,
    "enda</w>": 6690,
    "mona</w>": 6691,
    "signor": 6692,
    "limon": 6693,
    "owe</w>": 6694,
    "opathic</w>": 6695,
    "faul": 6696,
    "allo": 6697,
    "liners</w>": 6698,
    "dest</w>": 6699,
    "leaved</w>": 6700,
    "atop": 6701,
    "ggs</w>": 6702,
    "labor": 6703,
    "enge</w>": 6704,
    "klo": 6705,
    "eth</w>": 6706,
    "#": 6707,
    "goers</w>": 6708,
    "shman</w>": 6709,
    "alab": 6710,
    "saj": 6711,
    "rana</w>": 6712,
    "holme</w>": 6713,
    "omni": 6714,
    "potent</w>": 6715,
    "hk</w>": 6716,
    "blitz</w>": 6717,
    "enes</w>": 6718,
    "ditch</w>": 6719,
    "tonic</w>": 6720,
    "sola</w>": 6721,
    "bora</w>": 6722,
    "eks</w>": 6723,
    "swell</w>": 6724,
    "lifts</w>": 6725,
    "mrc</w>": 6726,
    "baz</w>": 6727,
    "ornis</w>": 6728,
    "seong</w>": 6729,
    "wai</w>": 6730,
    "lang</w>": 6731,
    "phan</w>": 6732,
    "apo</w>": 6733,
    "itos</w>": 6734,
    "oum</w>": 6735,
    "navi</w>": 6736,
    "ape": 6737,
    "enthal</w>": 6738,
    "wander": 6739,
    "villan": 6740,
    "inari</w>": 6741,
    "consol": 6742,
    "litt": 6743,
    "lewood</w>": 6744,
    "curr": 6745,
    "eer</w>": 6746,
    "bard</w>": 6747,
    "xii</w>": 6748,
    "consum": 6749,
    "sme": 6750,
    "mtv</w>": 6751,
    "illard</w>": 6752,
    "ghorn</w>": 6753,
    "acious</w>": 6754,
    "50s</w>": 6755,
    "tted</w>": 6756,
    "ghter</w>": 6757,
    "galerie</w>": 6758,
    "alexand": 6759,
    "poth": 6760,
    "parthen": 6761,
    "lds</w>": 6762,
    "ò": 6763,
    "ciut": 6764,
    "bla</w>": 6765,
    "kola</w>": 6766,
    "sulf": 6767,
    "brim": 6768,
    "monon": 6769,
    "feld": 6770,
    "alum": 6771,
    "stoc": 6772,
    "mush": 6773,
    "hod": 6774,
    "lt</w>": 6775,
    "fers</w>": 6776,
    "andr": 6777,
    "catcher</w>": 6778,
    "indic": 6779,
    "essio</w>": 6780,
    "zum</w>": 6781,
    "ricar": 6782,
    "nee</w>": 6783,
    "wah": 6784,
    "mae</w>": 6785,
    "mara</w>": 6786,
    "dana</w>": 6787,
    "bom</w>": 6788,
    "spor</w>": 6789,
    "ê</w>": 6790,
    "fuck</w>": 6791,
    "symmetric</w>": 6792,
    "conju": 6793,
    "qs</w>": 6794,
    "fera</w>": 6795,
    "weather": 6796,
    "lim</w>": 6797,
    "chok</w>": 6798,
    "tong</w>": 6799,
    "kaya</w>": 6800,
    "kama</w>": 6801,
    "bear": 6802,
    "brahman": 6803,
    "yav": 6804,
    "yog": 6805,
    "ologies</w>": 6806,
    "smar": 6807,
    "varna</w>": 6808,
    "ego</w>": 6809,
    "umin": 6810,
    "valle</w>": 6811,
    "inia</w>": 6812,
    "gill</w>": 6813,
    "reel</w>": 6814,
    "tempor": 6815,
    "lids</w>": 6816,
    "shey</w>": 6817,
    "č</w>": 6818,
    "ș</w>": 6819,
    "rema": 6820,
    "araf": 6821,
    "kok</w>": 6822,
    "awi</w>": 6823,
    "gras</w>": 6824,
    "kuno</w>": 6825,
    "kko</w>": 6826,
    "revolution": 6827,
    "expres": 6828,
    "sion": 6829,
    "paras": 6830,
    "cott</w>": 6831,
    "г": 6832,
    "н</w>": 6833,
    "у</w>": 6834,
    "agh</w>": 6835,
    "aspir": 6836,
    "aan</w>": 6837,
    "reichs": 6838,
    "eras": 6839,
    "khali</w>": 6840,
    "oop</w>": 6841,
    "ms": 6842,
    "still": 6843,
    "ied</w>": 6844,
    "esser</w>": 6845,
    "sharp": 6846,
    "inning</w>": 6847,
    "atum</w>": 6848,
    "kono": 6849,
    "rhyth": 6850,
    "ancies</w>": 6851,
    "sives</w>": 6852,
    "nai</w>": 6853,
    "amps</w>": 6854,
    "predic": 6855,
    "fon</w>": 6856,
    "kuma": 6857,
    "akan</w>": 6858,
    "flakes</w>": 6859,
    "vagin": 6860,
    "orte</w>": 6861,
    "bois": 6862,
    "iden": 6863,
    "chez</w>": 6864,
    "reti": 6865,
    "suka</w>": 6866,
    "eki</w>": 6867,
    "cing</w>": 6868,
    "appl": 6869,
    "hase</w>": 6870,
    "jal</w>": 6871,
    "stel": 6872,
    "uber</w>": 6873,
    "_</w>": 6874,
    "5mm</w>": 6875,
    "purit": 6876,
    "rei</w>": 6877,
    "aisha</w>": 6878,
    "wee</w>": 6879,
    "cly": 6880,
    "blow": 6881,
    "rave</w>": 6882,
    "frey</w>": 6883,
    "ign</w>": 6884,
    "som</w>": 6885,
    "ellan": 6886,
    "alkane</w>": 6887,
    "yclic</w>": 6888,
    "bund</w>": 6889,
    "mop": 6890,
    "nate</w>": 6891,
    "flip": 6892,
    "bob": 6893,
    "annie</w>": 6894,
    "ouan</w>": 6895,
    "zine</w>": 6896,
    "ub</w>": 6897,
    "multiv": 6898,
    "linville</w>": 6899,
    "sling</w>": 6900,
    "mila</w>": 6901,
    "smore</w>": 6902,
    "shack": 6903,
    "maier</w>": 6904,
    "duc</w>": 6905,
    "clay": 6906,
    "cet": 6907,
    "weed</w>": 6908,
    "minas</w>": 6909,
    "ieta</w>": 6910,
    "gis</w>": 6911,
    "hee</w>": 6912,
    "thering</w>": 6913,
    "chka</w>": 6914,
    "oidea</w>": 6915,
    "leaf": 6916,
    "laz": 6917,
    "oise</w>": 6918,
    "retrof": 6919,
    "oll": 6920,
    "ovs</w>": 6921,
    "read": 6922,
    "neum": 6923,
    "happ": 6924,
    "appel</w>": 6925,
    "hili</w>": 6926,
    "iq": 6927,
    "teri</w>": 6928,
    "orin</w>": 6929,
    "zak</w>": 6930,
    "buds</w>": 6931,
    "destruc": 6932,
    "dern</w>": 6933,
    "stammheim</w>": 6934,
    "travel": 6935,
    "lara</w>": 6936,
    "nos</w>": 6937,
    "olds</w>": 6938,
    "foo": 6939,
    "nels</w>": 6940,
    "rm</w>": 6941,
    "trim": 6942,
    "cale</w>": 6943,
    "vesi</w>": 6944,
    "ainen</w>": 6945,
    "mir</w>": 6946,
    "sachsen</w>": 6947,
    "astra</w>": 6948,
    "kah</w>": 6949,
    "bak</w>": 6950,
    "ر": 6951,
    "ي": 6952,
    "nep</w>": 6953,
    "bram</w>": 6954,
    "kei</w>": 6955,
    "displa": 6956,
    "chair": 6957,
    "consu": 6958,
    "kao</w>": 6959,
    "grou": 6960,
    "ichthy": 6961,
    "iger</w>": 6962,
    "teris</w>": 6963,
    "bye</w>": 6964,
    "lorenz": 6965,
    "acle</w>": 6966,
    "rish</w>": 6967,
    "amon</w>": 6968,
    "colum": 6969,
    "cred": 6970,
    "oft</w>": 6971,
    "neck": 6972,
    "thra": 6973,
    "stered</w>": 6974,
    "eper</w>": 6975,
    "pless</w>": 6976,
    "bm</w>": 6977,
    "arachn": 6978,
    "ische</w>": 6979,
    "anson</w>": 6980,
    "veng": 6981,
    "natur": 6982,
    "enic</w>": 6983,
    "metropol": 6984,
    "passi": 6985,
    "lump": 6986,
    "ential</w>": 6987,
    "imax</w>": 6988,
    "gung</w>": 6989,
    "philic</w>": 6990,
    "link": 6991,
    "yland</w>": 6992,
    "tiva</w>": 6993,
    "atch</w>": 6994,
    "irie</w>": 6995,
    "therapists</w>": 6996,
    "ined</w>": 6997,
    "peta</w>": 6998,
    "dist</w>": 6999,
    "tome": 7000,
    "baki</w>": 7001,
    "doom</w>": 7002,
    "rh</w>": 7003,
    "stet": 7004,
    "mex</w>": 7005,
    "gged</w>": 7006,
    "gashi</w>": 7007,
    "dido</w>": 7008,
    "mother": 7009,
    "cker</w>": 7010,
    "netta</w>": 7011,
    "schaft</w>": 7012,
    "entis</w>": 7013,
    "beit": 7014,
    "synchron": 7015,
    "elin": 7016,
    "zag": 7017,
    "inta</w>": 7018,
    "quir": 7019,
    "shef": 7020,
    "fea</w>": 7021,
    "hon</w>": 7022,
    "dous</w>": 7023,
    "temper": 7024,
    "odont</w>": 7025,
    "pped</w>": 7026,
    "cq</w>": 7027,
    "sf</w>": 7028,
    "spla": 7029,
    "cito</w>": 7030,
    "mart</w>": 7031,
    "pont</w>": 7032,
    "adas</w>": 7033,
    "hoy": 7034,
    "bein</w>": 7035,
    "ims</w>": 7036,
    "huis</w>": 7037,
    "ruth": 7038,
    "stat</w>": 7039,
    "risch</w>": 7040,
    "kol</w>": 7041,
    "lake": 7042,
    "wra": 7043,
    "meri": 7044,
    "pere": 7045,
    "cele": 7046,
    "ench</w>": 7047,
    "vim</w>": 7048,
    "prosel": 7049,
    "acry": 7050,
    "otherium</w>": 7051,
    "gad</w>": 7052,
    "dius</w>": 7053,
    "storia</w>": 7054,
    "bol</w>": 7055,
    "ï</w>": 7056,
    "reno</w>": 7057,
    "angi</w>": 7058,
    "ayas</w>": 7059,
    "gilber": 7060,
    "barba": 7061,
    "anization</w>": 7062,
    "engen</w>": 7063,
    "kk</w>": 7064,
    "sprou": 7065,
    "recre": 7066,
    "ismatic</w>": 7067,
    "wali</w>": 7068,
    "ayat</w>": 7069,
    "ston": 7070,
    "apple": 7071,
    "kreis": 7072,
    "endel</w>": 7073,
    "tow</w>": 7074,
    "brok": 7075,
    "sena</w>": 7076,
    "dist": 7077,
    "emp": 7078,
    "skier</w>": 7079,
    "reciproc": 7080,
    "cot</w>": 7081,
    "dys": 7082,
    "phia</w>": 7083,
    "dness</w>": 7084,
    "qui</w>": 7085,
    "battle": 7086,
    "rado</w>": 7087,
    "hadi</w>": 7088,
    "chain": 7089,
    "rah</w>": 7090,
    "inski</w>": 7091,
    "gt</w>": 7092,
    "chman</w>": 7093,
    "eness</w>": 7094,
    "gott": 7095,
    "nant</w>": 7096,
    "ù</w>": 7097,
    "fant": 7098,
    "torqu": 7099,
    "fana": 7100,
    "heed</w>": 7101,
    "lut</w>": 7102,
    "moy</w>": 7103,
    "anal": 7104,
    "urin": 7105,
    "barber": 7106,
    "icter": 7107,
    "coa</w>": 7108,
    "lau</w>": 7109,
    "shakes</w>": 7110,
    "john": 7111,
    "cyn": 7112,
    "ë": 7113,
    "ocar": 7114,
    "spermat": 7115,
    "boll": 7116,
    "ophilia</w>": 7117,
    "ped": 7118,
    "mort": 7119,
    "simp": 7120,
    "truc": 7121,
    "pipe": 7122,
    "fx</w>": 7123,
    "lair</w>": 7124,
    "ijssel": 7125,
    "rost": 7126,
    "tomy</w>": 7127,
    "schmidt</w>": 7128,
    "tempo</w>": 7129,
    "tless</w>": 7130,
    "dp</w>": 7131,
    "spermia</w>": 7132,
    "anat</w>": 7133,
    "tram": 7134,
    "diap": 7135,
    "ln</w>": 7136,
    "detain": 7137,
    "whe": 7138,
    "etty</w>": 7139,
    "bras": 7140,
    "megap": 7141,
    "nihil": 7142,
    "candi": 7143,
    "dit</w>": 7144,
    "uous</w>": 7145,
    "ulated</w>": 7146,
    "kani": 7147,
    "gher</w>": 7148,
    "thea</w>": 7149,
    "osphere</w>": 7150,
    "hoff</w>": 7151,
    "marti": 7152,
    "palla": 7153,
    "dash": 7154,
    "hola</w>": 7155,
    "slav": 7156,
    "germin": 7157,
    "comb": 7158,
    "gles</w>": 7159,
    "ayo</w>": 7160,
    "gée</w>": 7161,
    "ghan": 7162,
    "brook": 7163,
    "zee": 7164,
    "brugge</w>": 7165,
    "meh</w>": 7166,
    "asso</w>": 7167,
    "grape": 7168,
    "maire</w>": 7169,
    "dx</w>": 7170,
    "etus</w>": 7171,
    "shav": 7172,
    "lein</w>": 7173,
    "cee</w>": 7174,
    "scho": 7175,
    "dade</w>": 7176,
    "sly</w>": 7177,
    "flick</w>": 7178,
    "diss": 7179,
    "ingual</w>": 7180,
    "tah": 7181,
    "ochi</w>": 7182,
    "hair": 7183,
    "doin</w>": 7184,
    "oms</w>": 7185,
    "snor": 7186,
    "sms</w>": 7187,
    "ning": 7188,
    "sim</w>": 7189,
    "from": 7190,
    "idri": 7191,
    "juni": 7192,
    "mccar": 7193,
    "siness</w>": 7194,
    "fontaine</w>": 7195,
    "ateur</w>": 7196,
    "idler</w>": 7197,
    "augu": 7198,
    "badar": 7199,
    "kongo</w>": 7200,
    "dep": 7201,
    "devan</w>": 7202,
    "xis</w>": 7203,
    "usu": 7204,
    "coll": 7205,
    "undu": 7206,
    "asis</w>": 7207,
    "orph": 7208,
    "astro": 7209,
    "milk": 7210,
    "gak</w>": 7211,
    "hini</w>": 7212,
    "noth": 7213,
    "helm": 7214,
    "arum</w>": 7215,
    "engel</w>": 7216,
    "parted</w>": 7217,
    "kuta</w>": 7218,
    "mustaf": 7219,
    "opolis</w>": 7220,
    "yadi</w>": 7221,
    "decrimin": 7222,
    "leyman</w>": 7223,
    "fords</w>": 7224,
    "rott": 7225,
    "depend": 7226,
    "molos": 7227,
    "gp": 7228,
    "giz": 7229,
    "abby</w>": 7230,
    "ween</w>": 7231,
    "frank": 7232,
    "thra</w>": 7233,
    "chag": 7234,
    "jira</w>": 7235,
    "demo": 7236,
    "baud</w>": 7237,
    "nf</w>": 7238,
    "rhin": 7239,
    "graaf</w>": 7240,
    "न</w>": 7241,
    "fleur</w>": 7242,
    "wand</w>": 7243,
    "homa</w>": 7244,
    "tines</w>": 7245,
    "anco</w>": 7246,
    "ril": 7247,
    "$": 7248,
    "els": 7249,
    "disp": 7250,
    "von": 7251,
    "erz": 7252,
    "fjord</w>": 7253,
    "mx": 7254,
    "moire</w>": 7255,
    "tability</w>": 7256,
    "bae</w>": 7257,
    "sud</w>": 7258,
    "fw</w>": 7259,
    "oci": 7260,
    "goth</w>": 7261,
    "jit": 7262,
    "dz</w>": 7263,
    "tak</w>": 7264,
    "spy": 7265,
    "actu": 7266,
    "π": 7267,
    "oil": 7268,
    "pala</w>": 7269,
    "kor</w>": 7270,
    "roid</w>": 7271,
    "sana</w>": 7272,
    "mandi": 7273,
    "clou": 7274,
    "caz": 7275,
    "zoo": 7276,
    "shot": 7277,
    "kie</w>": 7278,
    "kp</w>": 7279,
    "00s</w>": 7280,
    "ün": 7281,
    "theor": 7282,
    "fix": 7283,
    "oney</w>": 7284,
    "trium</w>": 7285,
    "♭": 7286,
    "tó": 7287,
    "ofi": 7288,
    "issu": 7289,
    "ml": 7290,
    "chl</w>": 7291,
    "liss</w>": 7292,
    "lark</w>": 7293,
    "ghaz": 7294,
    "konar": 7295,
    "kora</w>": 7296,
    "cote</w>": 7297,
    "appel": 7298,
    "yai</w>": 7299,
    "gerland</w>": 7300,
    "dero</w>": 7301,
    "lumin": 7302,
    "jef": 7303,
    "ilam</w>": 7304,
    "proph": 7305,
    "pon</w>": 7306,
    "enting</w>": 7307,
    "corpor": 7308,
    "valent</w>": 7309,
    "sn</w>": 7310,
    "actinide</w>": 7311,
    "osus</w>": 7312,
    "alis": 7313,
    "0000</w>": 7314,
    "laga</w>": 7315,
    "alte</w>": 7316,
    "witz</w>": 7317,
    "ossola</w>": 7318,
    "gev": 7319,
    "spe</w>": 7320,
    "dela</w>": 7321,
    "put": 7322,
    "anj": 7323,
    "isers</w>": 7324,
    "salv": 7325,
    "tie": 7326,
    "aeans</w>": 7327,
    "omer</w>": 7328,
    "xton</w>": 7329,
    "vocation</w>": 7330,
    "rebu": 7331,
    "ences</w>": 7332,
    "gag": 7333,
    "arina</w>": 7334,
    "nast": 7335,
    "casta": 7336,
    "confeder": 7337,
    "famil": 7338,
    "aura</w>": 7339,
    "evin</w>": 7340,
    "artic": 7341,
    "prot": 7342,
    "js</w>": 7343,
    "racy</w>": 7344,
    "atro": 7345,
    "hallucin": 7346,
    "riya</w>": 7347,
    "fast": 7348,
    "nani</w>": 7349,
    "plea": 7350,
    "furi": 7351,
    "meridi": 7352,
    "guil": 7353,
    "vall</w>": 7354,
    "epic": 7355,
    "deira</w>": 7356,
    "shar</w>": 7357,
    "wain</w>": 7358,
    "wok</w>": 7359,
    "alam</w>": 7360,
    "gaon</w>": 7361,
    "ipur</w>": 7362,
    "tizing</w>": 7363,
    "mul</w>": 7364,
    "okin": 7365,
    "pees</w>": 7366,
    "स</w>": 7367,
    "ician</w>": 7368,
    "kul</w>": 7369,
    "osh</w>": 7370,
    "ace": 7371,
    "orpha</w>": 7372,
    "ophore</w>": 7373,
    "exer": 7374,
    "cant</w>": 7375,
    "marit": 7376,
    "perfec": 7377,
    "rene</w>": 7378,
    "ghar</w>": 7379,
    "gastro": 7380,
    "ifera</w>": 7381,
    "sensa": 7382,
    "panzer": 7383,
    "quadr": 7384,
    "egen</w>": 7385,
    "dne": 7386,
    "auch</w>": 7387,
    "hev": 7388,
    "haga</w>": 7389,
    "mang</w>": 7390,
    "acro": 7391,
    "illary</w>": 7392,
    "afric": 7393,
    "opol": 7394,
    "rossi": 7395,
    "yin</w>": 7396,
    "pai</w>": 7397,
    "thic": 7398,
    "cers</w>": 7399,
    "tv": 7400,
    "drib": 7401,
    "yaz": 7402,
    "steiner</w>": 7403,
    "netto</w>": 7404,
    "stful</w>": 7405,
    "gna": 7406,
    "hab</w>": 7407,
    "moris": 7408,
    "jō</w>": 7409,
    "jes</w>": 7410,
    "haran</w>": 7411,
    "tif</w>": 7412,
    "clé": 7413,
    "illé</w>": 7414,
    "dmitri": 7415,
    "ouchi</w>": 7416,
    "journ": 7417,
    "dest": 7418,
    "tains</w>": 7419,
    "alistic</w>": 7420,
    "rud</w>": 7421,
    "koku": 7422,
    "concep": 7423,
    "dev</w>": 7424,
    "branch": 7425,
    "kni": 7426,
    "intelli": 7427,
    "alber": 7428,
    "muñ": 7429,
    "stam</w>": 7430,
    "towicz</w>": 7431,
    "hendr": 7432,
    "oty": 7433,
    "itating</w>": 7434,
    "masch": 7435,
    "eas": 7436,
    "emul": 7437,
    "kito</w>": 7438,
    "bishop": 7439,
    "nil</w>": 7440,
    "amt</w>": 7441,
    "esti": 7442,
    "vec": 7443,
    "rut</w>": 7444,
    "twood</w>": 7445,
    "eos</w>": 7446,
    "entals</w>": 7447,
    "pill": 7448,
    "uto</w>": 7449,
    "pele": 7450,
    "gladi": 7451,
    "schem": 7452,
    "eq</w>": 7453,
    "dextr": 7454,
    "kow</w>": 7455,
    "delle</w>": 7456,
    "beth": 7457,
    "sist": 7458,
    "griff</w>": 7459,
    "penn": 7460,
    "mati": 7461,
    "ister": 7462,
    "ew</w>": 7463,
    "bana</w>": 7464,
    "emaking</w>": 7465,
    "onville</w>": 7466,
    "apoc": 7467,
    "rev": 7468,
    "vap": 7469,
    "encers</w>": 7470,
    "iary</w>": 7471,
    "tude</w>": 7472,
    "holtz</w>": 7473,
    "tene</w>": 7474,
    "bola</w>": 7475,
    "lisse</w>": 7476,
    "incor": 7477,
    "azione</w>": 7478,
    "santal": 7479,
    "ulation</w>": 7480,
    "hän": 7481,
    "kirche</w>": 7482,
    "info": 7483,
    "helen": 7484,
    "anid</w>": 7485,
    "meda</w>": 7486,
    "agonist</w>": 7487,
    "usis</w>": 7488,
    "mium</w>": 7489,
    "get": 7490,
    "acus</w>": 7491,
    "hak": 7492,
    "ingu": 7493,
    "amor": 7494,
    "atives</w>": 7495,
    "tugh": 7496,
    "wri": 7497,
    "vali</w>": 7498,
    "ïs</w>": 7499,
    "karna</w>": 7500,
    "goli": 7501,
    "ayu</w>": 7502,
    "eury": 7503,
    "henri": 7504,
    "lai": 7505,
    "veli</w>": 7506,
    "aeg": 7507,
    "veni</w>": 7508,
    "opes</w>": 7509,
    "phus</w>": 7510,
    "kline</w>": 7511,
    "raman": 7512,
    "kosi</w>": 7513,
    "bux": 7514,
    "khan": 7515,
    "oon</w>": 7516,
    "pik": 7517,
    "mard</w>": 7518,
    "hum</w>": 7519,
    "ester": 7520,
    "wark</w>": 7521,
    "rique</w>": 7522,
    "anser": 7523,
    "tante</w>": 7524,
    "abra</w>": 7525,
    "phor": 7526,
    "amine</w>": 7527,
    "vali": 7528,
    "erin": 7529,
    "dike</w>": 7530,
    "sius</w>": 7531,
    "oyama</w>": 7532,
    "hd": 7533,
    "paral": 7534,
    "mys": 7535,
    "esch": 7536,
    "gala</w>": 7537,
    "delph": 7538,
    "shoo": 7539,
    "tila</w>": 7540,
    "gray": 7541,
    "smoo": 7542,
    "heide</w>": 7543,
    "snake": 7544,
    "c3</w>": 7545,
    "summar": 7546,
    "kem</w>": 7547,
    "ān</w>": 7548,
    "felic": 7549,
    "beto</w>": 7550,
    "kiko</w>": 7551,
    "magi": 7552,
    "trix</w>": 7553,
    "deton": 7554,
    "aders</w>": 7555,
    "pakh": 7556,
    "short": 7557,
    "ianism</w>": 7558,
    "cutaneous</w>": 7559,
    "busters</w>": 7560,
    "keng</w>": 7561,
    "lido</w>": 7562,
    "syn</w>": 7563,
    "kling</w>": 7564,
    "stic</w>": 7565,
    "arte": 7566,
    "winkel</w>": 7567,
    "gish</w>": 7568,
    "meer": 7569,
    "valle": 7570,
    "kos</w>": 7571,
    "spal": 7572,
    "weser": 7573,
    "markt</w>": 7574,
    "bergis": 7575,
    "deon</w>": 7576,
    "kerk</w>": 7577,
    "omo</w>": 7578,
    "kyr": 7579,
    "azo</w>": 7580,
    "escence</w>": 7581,
    "män": 7582,
    "taip": 7583,
    "…": 7584,
    "ravi": 7585,
    "hir</w>": 7586,
    "thiru": 7587,
    "ilova</w>": 7588,
    "anova</w>": 7589,
    "baix": 7590,
    "mater": 7591,
    "fied</w>": 7592,
    "hani": 7593,
    "outine</w>": 7594,
    "2a</w>": 7595,
    "puy</w>": 7596,
    "lign": 7597,
    "dragon": 7598,
    "silk": 7599,
    "acion</w>": 7600,
    "hava</w>": 7601,
    "dienst</w>": 7602,
    "fai</w>": 7603,
    "lte</w>": 7604,
    "itap": 7605,
    "elos</w>": 7606,
    "tans</w>": 7607,
    "kell": 7608,
    "revi": 7609,
    "doi</w>": 7610,
    "lax": 7611,
    "mage</w>": 7612,
    "zewski</w>": 7613,
    "elu": 7614,
    "perf": 7615,
    "cim": 7616,
    "alta": 7617,
    "entina</w>": 7618,
    "rone</w>": 7619,
    "ankylosau": 7620,
    "nod": 7621,
    "protru": 7622,
    "balti": 7623,
    "olk</w>": 7624,
    "vann": 7625,
    "boni": 7626,
    "tima</w>": 7627,
    "phe</w>": 7628,
    "plex": 7629,
    "anag": 7630,
    "agna</w>": 7631,
    "tron": 7632,
    "valli</w>": 7633,
    "tites</w>": 7634,
    "artax": 7635,
    "seraf": 7636,
    "retro": 7637,
    "kuro": 7638,
    "tatsu": 7639,
    "ampu": 7640,
    "kauf": 7641,
    "breiten": 7642,
    "bao</w>": 7643,
    "crof": 7644,
    "okawa</w>": 7645,
    "mó": 7646,
    "iling</w>": 7647,
    "quets</w>": 7648,
    "ová</w>": 7649,
    "ą": 7650,
    "tite</w>": 7651,
    "tten": 7652,
    "polit": 7653,
    "cann": 7654,
    "esi</w>": 7655,
    "samar": 7656,
    "toon</w>": 7657,
    "anap": 7658,
    "youts</w>": 7659,
    "engle": 7660,
    "elas": 7661,
    "hel</w>": 7662,
    "dach</w>": 7663,
    "furt</w>": 7664,
    "ires</w>": 7665,
    "nepom": 7666,
    "wre": 7667,
    "gerd</w>": 7668,
    "umal</w>": 7669,
    "andro</w>": 7670,
    "entr": 7671,
    "auber": 7672,
    "gro</w>": 7673,
    "oidal</w>": 7674,
    "sona</w>": 7675,
    "zhsky</w>": 7676,
    "ities</w>": 7677,
    "brach": 7678,
    "metal": 7679,
    "schne": 7680,
    "ishi</w>": 7681,
    "buff": 7682,
    "waz": 7683,
    "arek</w>": 7684,
    "bis</w>": 7685,
    "vil</w>": 7686,
    "trig": 7687,
    "mazz": 7688,
    "tville</w>": 7689,
    "blers</w>": 7690,
    "preis</w>": 7691,
    "aus": 7692,
    "eka</w>": 7693,
    "ordin": 7694,
    "leib": 7695,
    "tland</w>": 7696,
    "ococci</w>": 7697,
    "lumi": 7698,
    "sturm": 7699,
    "kirch": 7700,
    "dii</w>": 7701,
    "incur": 7702,
    "ux": 7703,
    "asha</w>": 7704,
    "esley</w>": 7705,
    "alle</w>": 7706,
    "ovenator</w>": 7707,
    "nop": 7708,
    "eratops</w>": 7709,
    "fyodor": 7710,
    "ovna</w>": 7711,
    "toph": 7712,
    "rug": 7713,
    "dontosaurus</w>": 7714,
    "pterodacty": 7715,
    "ills</w>": 7716,
    "tway</w>": 7717,
    "uran</w>": 7718,
    "hynchus</w>": 7719,
    "rodon</w>": 7720,
    "cá": 7721,
    "odons</w>": 7722,
    "saur": 7723,
    "hry": 7724,
    "eger</w>": 7725,
    "pressuri": 7726,
    "hren": 7727,
    "hime</w>": 7728,
    "amph": 7729,
    "fiers</w>": 7730,
    "stir": 7731,
    "chau</w>": 7732,
    "seki": 7733,
    "dasy": 7734,
    "pamp": 7735,
    "ounded</w>": 7736,
    "abilis</w>": 7737,
    "hov": 7738,
    "alon</w>": 7739,
    "manti": 7740,
    "jara</w>": 7741,
    "therizin": 7742,
    "bier</w>": 7743,
    "donts</w>": 7744,
    "chun": 7745,
    "himi</w>": 7746,
    "athel": 7747,
    "hyp": 7748,
    "ssel</w>": 7749,
    "tists</w>": 7750,
    "heit": 7751,
    "tov</w>": 7752,
    "akers</w>": 7753,
    "touch": 7754,
    "techn": 7755,
    "anov</w>": 7756,
    "]": 7757,
    "mey</w>": 7758,
    "resh</w>": 7759,
    "smithing</w>": 7760,
    "beau</w>": 7761,
    "taku": 7762,
    "heng": 7763,
    "dier</w>": 7764,
    "kashima</w>": 7765,
    "varman</w>": 7766,
    "gór": 7767,
    "sanc": 7768,
    "cci</w>": 7769,
    "spokes": 7770,
    "dena</w>": 7771,
    "ppy</w>": 7772,
    "jubil": 7773,
    "nog": 7774,
    "gic</w>": 7775,
    "metz": 7776,
    "ő</w>": 7777,
    "bibli": 7778,
    "ferro": 7779,
    "evna</w>": 7780,
    "patron": 7781,
    "jé": 7782,
    "coat": 7783,
    "urst</w>": 7784,
    "shige</w>": 7785,
    "reis</w>": 7786,
    "hå": 7787,
    "endor": 7788,
    "thon": 7789,
    "cather": 7790,
    "blon": 7791,
    "chri": 7792,
    "rach": 7793,
    "p2</w>": 7794,
    "ware": 7795,
    "huber</w>": 7796,
    "akis</w>": 7797,
    "tili": 7798,
    "wet": 7799,
    "oder": 7800,
    "nist</w>": 7801,
    "ved</w>": 7802,
    "ctu</w>": 7803,
    "tuple</w>": 7804,
    "dola</w>": 7805,
    "iol": 7806,
    "éry</w>": 7807,
    "proven": 7808,
    "teng": 7809,
    "rip": 7810,
    "mô": 7811,
    "dings</w>": 7812,
    "sca</w>": 7813,
    "seki</w>": 7814,
    "crom": 7815,
    "feng</w>": 7816,
    "leen</w>": 7817,
    "boi": 7818,
    "jeri</w>": 7819,
    "mih": 7820,
    "dered</w>": 7821,
    "juda": 7822,
    "magnific": 7823,
    "effer</w>": 7824,
    "cten": 7825,
    "ariate</w>": 7826,
    "vå": 7827,
    "moham": 7828,
    "contra": 7829,
    "pani</w>": 7830,
    "ferrera</w>": 7831,
    "ghar": 7832,
    "ewald</w>": 7833,
    "beach": 7834,
    "wr</w>": 7835,
    "ller</w>": 7836,
    "evi</w>": 7837,
    "kele</w>": 7838,
    "shor": 7839,
    "evey</w>": 7840,
    "obel": 7841,
    "tna</w>": 7842,
    "flin": 7843,
    "zim</w>": 7844,
    "kreuz": 7845,
    "rella</w>": 7846,
    "holl": 7847,
    "montre": 7848,
    "othe": 7849,
    "hofer</w>": 7850,
    "kom</w>": 7851,
    "slow": 7852,
    "ای": 7853,
    "rac</w>": 7854,
    "muri</w>": 7855,
    "hor</w>": 7856,
    "aha</w>": 7857,
    "mut</w>": 7858,
    "nefer": 7859,
    "thu</w>": 7860,
    "indi</w>": 7861,
    "jy": 7862,
    "emaker</w>": 7863,
    "apop": 7864,
    "ción</w>": 7865,
    "zé</w>": 7866,
    "seo</w>": 7867,
    "semin": 7868,
    "classi": 7869,
    "aras</w>": 7870,
    "ostro": 7871,
    "rai": 7872,
    "و": 7873,
    "johann": 7874,
    "lek</w>": 7875,
    "olia</w>": 7876,
    "iste</w>": 7877,
    "amen": 7878,
    "cig": 7879,
    "elas</w>": 7880,
    "garten</w>": 7881,
    "dée</w>": 7882,
    "pavel": 7883,
    "fren": 7884,
    "assé</w>": 7885,
    "archi": 7886,
    "arn</w>": 7887,
    "eco": 7888,
    "miya</w>": 7889,
    "jad</w>": 7890,
    "mell": 7891,
    "sua</w>": 7892,
    "manit": 7893,
    "vili</w>": 7894,
    "earth": 7895,
    "jas</w>": 7896,
    "hachi": 7897,
    "tivism</w>": 7898,
    "evens</w>": 7899,
    "noon": 7900,
    "schir": 7901,
    "fani</w>": 7902,
    "mizu": 7903,
    "guri</w>": 7904,
    "arag": 7905,
    "vc</w>": 7906,
    "serge": 7907,
    "xa</w>": 7908,
    "boi</w>": 7909,
    "có": 7910,
    "memor": 7911,
    "ord</w>": 7912,
    "zik</w>": 7913,
    "kamp": 7914,
    "shil": 7915,
    "qvist</w>": 7916,
    "imperson": 7917,
    "ameth": 7918,
    "ryu": 7919,
    "benders</w>": 7920,
    "fong</w>": 7921,
    "duk</w>": 7922,
    "veena</w>": 7923,
    "csi</w>": 7924,
    "uva</w>": 7925,
    "tto</w>": 7926,
    "dali": 7927,
    "alle": 7928,
    "wd</w>": 7929,
    "spo": 7930,
    "keri</w>": 7931,
    "nr": 7932,
    "fabric": 7933,
    "chie</w>": 7934,
    "istan</w>": 7935,
    "kesh</w>": 7936,
    "gib": 7937,
    "deen</w>": 7938,
    "shov": 7939,
    "ryd</w>": 7940,
    "{\"</w>": 7941,
    "beh": 7942,
    "takam": 7943,
    "moto": 7944,
    "otani</w>": 7945,
    "uti": 7946,
    "sali": 7947,
    "erun": 7948,
    "illu": 7949,
    "hak</w>": 7950,
    "iwa</w>": 7951,
    "tsur": 7952,
    "amas": 7953,
    "azzo</w>": 7954,
    "stine</w>": 7955,
    "elly</w>": 7956,
    "bena</w>": 7957,
    "iah</w>": 7958,
    "pedi": 7959,
    "ijn</w>": 7960,
    "homos": 7961,
    "marck</w>": 7962,
    "halla</w>": 7963,
    "saras": 7964,
    "abr": 7965,
    "bez": 7966,
    "coni</w>": 7967,
    "maul": 7968,
    "gent</w>": 7969,
    "evel": 7970,
    "zas": 7971,
    "kuma</w>": 7972,
    "wul": 7973,
    "nai": 7974,
    "kham</w>": 7975,
    "poli</w>": 7976,
    "hipp": 7977,
    "tified</w>": 7978,
    "kne": 7979,
    "takan": 7980,
    "oosa</w>": 7981,
    "tles</w>": 7982,
    "telli</w>": 7983,
    "lage</w>": 7984,
    "kkila</w>": 7985,
    "endo</w>": 7986,
    "cip": 7987,
    "resp": 7988,
    "enten": 7989,
    "austral": 7990,
    "ennes</w>": 7991,
    "staufen</w>": 7992,
    "auer": 7993,
    "rhi": 7994,
    "muth</w>": 7995,
    "herman": 7996,
    "tou</w>": 7997,
    "sis": 7998,
    "daw</w>": 7999,
    "mast": 8000,
    "conven": 8001,
    "plagi": 8002,
    "novo": 8003,
    "bod": 8004,
    "ewa</w>": 8005,
    "lessly</w>": 8006,
    "nt": 8007,
    "hok</w>": 8008,
    "suc": 8009,
    "ror": 8010,
    "wod": 8011,
    "zis": 8012,
    "teat": 8013,
    "pont": 8014,
    "mullan</w>": 8015,
    "arre": 8016,
    "ved": 8017,
    "foll": 8018,
    "hofen</w>": 8019,
    "athi</w>": 8020,
    "brey</w>": 8021,
    "lig</w>": 8022,
    "sutt": 8023,
    "ortho": 8024,
    "chom": 8025,
    "ao": 8026,
    "gene": 8027,
    "erio</w>": 8028,
    "ison": 8029,
    "litz</w>": 8030,
    "montec": 8031,
    "mühle": 8032,
    "schw": 8033,
    "kuk</w>": 8034,
    "erlinsbach</w>": 8035,
    "chall": 8036,
    "fuku": 8037,
    "conc": 8038,
    "cana</w>": 8039,
    "phys": 8040,
    "ambar</w>": 8041,
    "pab": 8042,
    "chara</w>": 8043,
    "abb": 8044,
    "aksh": 8045,
    "veen</w>": 8046,
    "nos": 8047,
    "haru</w>": 8048,
    "onna</w>": 8049,
    "bözberg</w>": 8050,
    "kirch</w>": 8051,
    "etz": 8052,
    "recur": 8053,
    "leim": 8054,
    "dahl": 8055,
    "job": 8056,
    "chs</w>": 8057,
    "maiz": 8058,
    "cev": 8059,
    "whor": 8060,
    "icos": 8061,
    "ogno</w>": 8062,
    "tov": 8063,
    "merry": 8064,
    "stina</w>": 8065,
    "ogna</w>": 8066,
    "toff</w>": 8067,
    "ness": 8068,
    "kini</w>": 8069,
    "maham": 8070,
    "gass": 8071,
    "api": 8072,
    "ece</w>": 8073,
    "prom": 8074,
    "oshima</w>": 8075,
    "3i</w>": 8076,
    "scher": 8077,
    "amma</w>": 8078,
    "navi": 8079,
    "blue": 8080,
    "smann</w>": 8081,
    "bik</w>": 8082,
    "stre</w>": 8083,
    "bsa</w>": 8084,
    "caus": 8085,
    "angeli</w>": 8086,
    "ghel</w>": 8087,
    "alek": 8088,
    "idan</w>": 8089,
    "wahl": 8090,
    "brad": 8091,
    "quick": 8092,
    "selle</w>": 8093,
    "scram": 8094,
    "blat": 8095,
    "feather": 8096,
    "badi</w>": 8097,
    "tran</w>": 8098,
    "bau</w>": 8099,
    "dü": 8100,
    "rl</w>": 8101,
    "gali": 8102,
    "lc</w>": 8103,
    "merer</w>": 8104,
    "lewi": 8105,
    "rober": 8106,
    "rous": 8107,
    "vir</w>": 8108,
    "tane": 8109,
    "kashi</w>": 8110,
    "stava</w>": 8111,
    "iac</w>": 8112,
    "taw": 8113,
    "allam</w>": 8114,
    "inten": 8115,
    "broken": 8116,
    "orden</w>": 8117,
    "aza</w>": 8118,
    "brus": 8119,
    "leopol": 8120,
    "mand</w>": 8121,
    "zhen": 8122,
    "cke</w>": 8123,
    "ák</w>": 8124,
    "ycles</w>": 8125,
    "chow": 8126,
    "enton</w>": 8127,
    "agram</w>": 8128,
    "balak": 8129,
    "phul": 8130,
    "zir": 8131,
    "haj": 8132,
    "hawa</w>": 8133,
    "arlo</w>": 8134,
    "lais</w>": 8135,
    "zs</w>": 8136,
    "jose": 8137,
    "smith": 8138,
    "weg</w>": 8139,
    "dette</w>": 8140,
    "neh": 8141,
    "fert</w>": 8142,
    "obu</w>": 8143,
    "birth": 8144,
    "elsen": 8145,
    "taur": 8146,
    "dasht</w>": 8147,
    "adia</w>": 8148,
    "fakh": 8149,
    "gnac</w>": 8150,
    "thé": 8151,
    "ę": 8152,
    "bres</w>": 8153,
    "bere": 8154,
    "custom": 8155,
    "chett</w>": 8156,
    "primi": 8157,
    "sht</w>": 8158,
    "rajap": 8159,
    "igl</w>": 8160,
    "ông</w>": 8161,
    "uph": 8162,
    "gwa</w>": 8163,
    "use": 8164,
    "dex": 8165,
    "ulu": 8166,
    "tex": 8167,
    "teu": 8168,
    "entino</w>": 8169,
    "raf": 8170,
    "ins": 8171,
    "wp</w>": 8172,
    "ningham</w>": 8173,
    "næ": 8174,
    "rack": 8175,
    "teru": 8176,
    "region": 8177,
    "cory": 8178,
    "neau</w>": 8179,
    "asen</w>": 8180,
    "kuri": 8181,
    "suri": 8182,
    "sauro": 8183,
    "wali": 8184,
    "cks</w>": 8185,
    "lü": 8186,
    "yal": 8187,
    "khar</w>": 8188,
    "kovac</w>": 8189,
    "shal</w>": 8190,
    "onti</w>": 8191,
    "sut": 8192,
    "skel": 8193,
    "ymon</w>": 8194,
    "tep</w>": 8195,
    "onidae</w>": 8196,
    "centro": 8197,
    "amaz": 8198,
    "kney</w>": 8199,
    "bri</w>": 8200,
    "ffs</w>": 8201,
    "oog</w>": 8202,
    "igned</w>": 8203,
    "fig": 8204,
    "d3</w>": 8205,
    "bosheth</w>": 8206,
    "serine</w>": 8207,
    "wij": 8208,
    "drecht</w>": 8209,
    "adu</w>": 8210,
    "hut": 8211,
    "yser</w>": 8212,
    "pang": 8213,
    "palae": 8214,
    "hing": 8215,
    "litis</w>": 8216,
    "kazu</w>": 8217,
    "fb</w>": 8218,
    "amia</w>": 8219,
    "road": 8220,
    "chiri": 8221,
    "loy</w>": 8222,
    "egi</w>": 8223,
    "makh": 8224,
    "budd": 8225,
    "gop": 8226,
    "madhu": 8227,
    "mcken": 8228,
    "tsev</w>": 8229,
    "iji</w>": 8230,
    "pedia</w>": 8231,
    "bakh": 8232,
    "omus": 8233,
    "palat": 8234,
    "strasse</w>": 8235,
    "xo</w>": 8236,
    "hne</w>": 8237,
    "brot</w>": 8238,
    "dobro": 8239,
    "longu": 8240,
    "bula</w>": 8241,
    "alik</w>": 8242,
    "cré": 8243,
    "otta": 8244,
    "jb</w>": 8245,
    "adar</w>": 8246,
    "myr": 8247,
    "parad": 8248,
    "argu": 8249,
    "tigen</w>": 8250,
    "sieg": 8251,
    "rig": 8252,
    "noor": 8253,
    "cb": 8254,
    "patt": 8255,
    "oth</w>": 8256,
    "construc": 8257,
    "inier</w>": 8258,
    "gc": 8259,
    "ilin": 8260,
    "ecki</w>": 8261,
    "ellar</w>": 8262,
    "monté": 8263,
    "stay": 8264,
    "mone</w>": 8265,
    "osse</w>": 8266,
    "aster</w>": 8267,
    "vien": 8268,
    "nois</w>": 8269,
    "tzel</w>": 8270,
    "orch": 8271,
    "amie</w>": 8272,
    "phan": 8273,
    "dio": 8274,
    "athle": 8275,
    "grad</w>": 8276,
    "kamer": 8277,
    "rest": 8278,
    "yel": 8279,
    "pax": 8280,
    "ples</w>": 8281,
    "tip": 8282,
    "nang": 8283,
    "lys": 8284,
    "chad": 8285,
    "rubin": 8286,
    "yana</w>": 8287,
    "ร": 8288,
    "lle": 8289,
    "mount": 8290,
    "enon</w>": 8291,
    "tyr": 8292,
    "ières</w>": 8293,
    "scotts": 8294,
    "vigny</w>": 8295,
    "ché": 8296,
    "nieu": 8297,
    "thou": 8298,
    "rieux</w>": 8299,
    "ône</w>": 8300,
    "naz</w>": 8301,
    "joux</w>": 8302,
    "katsu</w>": 8303,
    "stake": 8304,
    "neux</w>": 8305,
    "sept": 8306,
    "foul": 8307,
    "terie</w>": 8308,
    "nières</w>": 8309,
    "elles</w>": 8310,
    "moom": 8311,
    "mend": 8312,
    "logan": 8313,
    "pess": 8314,
    "oku": 8315,
    "falc": 8316,
    "gawa</w>": 8317,
    "quinc": 8318,
    "shige": 8319,
    "eroy</w>": 8320,
    "ées</w>": 8321,
    "sières</w>": 8322,
    "lass": 8323,
    "ș": 8324,
    "typ": 8325,
    "kki</w>": 8326,
    "osuke</w>": 8327,
    "šić</w>": 8328,
    "kett": 8329,
    "ulli</w>": 8330,
    "cheong": 8331,
    "auchi</w>": 8332,
    "zwe": 8333,
    "igen</w>": 8334,
    "nak": 8335,
    "ammer</w>": 8336,
    "sugar": 8337,
    "bies</w>": 8338,
    "soo": 8339,
    "eto</w>": 8340,
    "loz": 8341,
    "oca</w>": 8342,
    "osau": 8343,
    "power": 8344,
    "ophyllum</w>": 8345,
    "cash": 8346,
    "idel</w>": 8347,
    "wader</w>": 8348,
    "lever": 8349,
    "sidi": 8350,
    "puff": 8351,
    "avil": 8352,
    "ević</w>": 8353,
    "dić</w>": 8354,
    "ogawa</w>": 8355,
    "its": 8356,
    "decagon</w>": 8357,
    "rhom": 8358,
    "insk</w>": 8359,
    "onen</w>": 8360,
    "rau": 8361,
    "atas</w>": 8362,
    "wp": 8363,
    "nish</w>": 8364,
    "ttin</w>": 8365,
    "stann": 8366,
    "shuk": 8367,
    "vijay": 8368,
    "sivity</w>": 8369,
    "kiku": 8370,
    "thali</w>": 8371,
    "nori": 8372,
    "akawa</w>": 8373,
    "elan</w>": 8374,
    "hashi</w>": 8375,
    "oco</w>": 8376,
    "burgo</w>": 8377,
    "itali": 8378,
    "ijo</w>": 8379,
    "jus": 8380,
    "niemi</w>": 8381,
    "boj": 8382,
    "simus</w>": 8383,
    "mula</w>": 8384,
    "tsar": 8385,
    "ppo</w>": 8386,
    "tek": 8387,
    "wou": 8388,
    "inal</w>": 8389,
    "landa</w>": 8390,
    "quillo</w>": 8391,
    "dwar": 8392,
    "onan</w>": 8393,
    "cazen": 8394,
    "icks</w>": 8395,
    "linski</w>": 8396,
    "samo": 8397,
    "pink": 8398,
    "äs</w>": 8399,
    "dros": 8400,
    "hess": 8401,
    "erz</w>": 8402,
    "morgen": 8403,
    "auri</w>": 8404,
    "pequ": 8405,
    "olahti</w>": 8406,
    "bá": 8407,
    "osteus</w>": 8408,
    "hack": 8409,
    "wol</w>": 8410,
    "magu": 8411,
    "arist": 8412,
    "atinga</w>": 8413,
    "kil</w>": 8414,
    "nus</w>": 8415,
    "bret": 8416,
    "titan": 8417,
    "corne": 8418,
    "pert": 8419,
    "senti": 8420,
    "abai</w>": 8421,
    "м": 8422,
    "aira</w>": 8423,
    "wati</w>": 8424,
    "chū": 8425,
    "skie</w>": 8426,
    "flin</w>": 8427,
    "dzhi": 8428,
    "todor": 8429,
    "hub": 8430,
    "gale": 8431,
    "nof": 8432,
    "jko</w>": 8433,
    "amus</w>": 8434,
    "tof": 8435,
    "pua</w>": 8436,
    "erd</w>": 8437,
    "fieri</w>": 8438,
    "elver": 8439,
    "gf": 8440,
    "hite</w>": 8441,
    "irai</w>": 8442,
    "chandra": 8443,
    "kovic</w>": 8444,
    "hey": 8445,
    "kla</w>": 8446,
    "torn": 8447,
    "seri": 8448,
    "waj</w>": 8449,
    "idazole</w>": 8450,
    "rhein": 8451,
    "ika": 8452,
    "olf</w>": 8453,
    "yō": 8454,
    "efeld</w>": 8455,
    "tsville</w>": 8456,
    "acco</w>": 8457,
    "lli</w>": 8458,
    "sre": 8459,
    "jis": 8460,
    "lel": 8461,
    "stico</w>": 8462,
    "asu</w>": 8463,
    "chū</w>": 8464,
    "villon</w>": 8465,
    "iren</w>": 8466,
    "enheim</w>": 8467,
    "lad": 8468,
    "dron</w>": 8469,
    "ksi</w>": 8470,
    "anur": 8471,
    "mof": 8472,
    "heff": 8473,
    "klein": 8474,
    "bhi": 8475,
    "wath": 8476,
    "kó</w>": 8477,
    "retten": 8478,
    "kuy": 8479,
    "jem": 8480,
    "mok": 8481,
    "ckel</w>": 8482,
    "imer</w>": 8483,
    "shei": 8484,
    "lá": 8485,
    "dano</w>": 8486,
    "geoc": 8487,
    "krasn": 8488,
    "kav": 8489,
    "hol</w>": 8490,
    "salmi</w>": 8491,
    "nz": 8492,
    "ellan</w>": 8493,
    "zman</w>": 8494,
    "oti</w>": 8495,
    "kulam</w>": 8496,
    "petal": 8497,
    "siat</w>": 8498,
    "qadi": 8499,
    "beren": 8500,
    "niv": 8501,
    "aim": 8502,
    "doux</w>": 8503,
    "sidae</w>": 8504,
    "anie</w>": 8505,
    "eber</w>": 8506,
    "eq": 8507,
    "lule</w>": 8508,
    "úa</w>": 8509,
    "hura</w>": 8510,
    "iniformes</w>": 8511,
    "boga": 8512,
    "rol</w>": 8513,
    "khari</w>": 8514,
    "erbach</w>": 8515,
    "erson</w>": 8516,
    "tjun": 8517,
    "yay": 8518,
    "nal": 8519,
    "ew": 8520,
    "chry": 8521,
    "uru": 8522,
    "guerri": 8523,
    "lepp": 8524,
    "ní": 8525,
    "pok</w>": 8526,
    "telle</w>": 8527,
    "lé</w>": 8528,
    "evia</w>": 8529,
    "kker</w>": 8530,
    "fog": 8531,
    "aeol": 8532,
    "nington</w>": 8533,
    "58": 8534,
    "dravi": 8535,
    "vish</w>": 8536,
    "kumar": 8537,
    "zl</w>": 8538,
    "krist": 8539,
    "är</w>": 8540,
    "ån": 8541,
    "olli</w>": 8542,
    "haku": 8543,
    "stin": 8544,
    "jö</w>": 8545,
    "jep": 8546,
    "sjö": 8547,
    "т": 8548,
    "fy": 8549,
    "drie</w>": 8550,
    "malay": 8551,
    "shif": 8552,
    "moz": 8553,
    "tama": 8554,
    "kimber": 8555,
    "ải</w>": 8556,
    "ally": 8557,
    "chie": 8558,
    "koff</w>": 8559,
    "zaria</w>": 8560,
    "owo</w>": 8561,
    "nberg</w>": 8562,
    "shita</w>": 8563,
    "emili": 8564,
    "zach": 8565,
    "aven": 8566,
    "jeng</w>": 8567,
    "wich": 8568,
    "ʼ": 8569,
    "eru</w>": 8570,
    "banc": 8571,
    "kup": 8572,
    "lager": 8573,
    "onis</w>": 8574,
    "andri": 8575,
    "gea": 8576,
    "nus": 8577,
    "vat": 8578,
    "cef": 8579,
    "guri": 8580,
    "duri</w>": 8581,
    "siri": 8582,
    "hammer": 8583,
    "léon": 8584,
    "kare</w>": 8585,
    "yem": 8586,
    "tikov</w>": 8587,
    "khanov</w>": 8588,
    "oura</w>": 8589,
    "bayev</w>": 8590,
    "thang": 8591,
    "lot": 8592,
    "stocken</w>": 8593,
    "thurnen</w>": 8594,
    "lahi</w>": 8595,
    "dhan": 8596,
    "eca</w>": 8597,
    "gill": 8598,
    "kong": 8599,
    "gué": 8600,
    "naj": 8601,
    "eme</w>": 8602,
    "lut": 8603,
    "mee": 8604,
    "preet</w>": 8605,
    "lati": 8606,
    "bish": 8607,
    "sax": 8608,
    "dhol": 8609,
    "hari": 8610,
    "cutt</w>": 8611,
    "derson</w>": 8612,
    "tine": 8613,
    "voort</w>": 8614,
    "kheim</w>": 8615,
    "mott": 8616,
    "broek</w>": 8617,
    "schwil</w>": 8618,
    "krum": 8619,
    "wini</w>": 8620,
    "muhi": 8621,
    "ér": 8622,
    "dele</w>": 8623,
    "otus</w>": 8624,
    "osin": 8625,
    "shov</w>": 8626,
    "kuij": 8627,
    "leima</w>": 8628,
    "tʰ": 8629,
    "ꯕ</w>": 8630,
    "akpa</w>": 8631,
    "lein": 8632,
    "untri": 8633,
    "krishna": 8634,
    "antis</w>": 8635,
    "ahir": 8636,
    "r211": 8637,
    "between</w>": 8638,
    "may</w>": 8639,
    "have</w>": 8640,
    "30</w>": 8641,
    "same</w>": 8642,
    "years</w>": 8643,
    "each</w>": 8644,
    "other</w>": 8645,
    "last</w>": 8646,
    "35</w>": 8647,
    "after</w>": 8648,
    "before</w>": 8649,
    "spring</w>": 8650,
    "greek</w>": 8651,
    "love</w>": 8652,
    "held</w>": 8653,
    "asian</w>": 8654,
    "western</w>": 8655,
    "sunday</w>": 8656,
    "25</w>": 8657,
    "central</w>": 8658,
    "european</w>": 8659,
    "night</w>": 8660,
    "marking</w>": 8661,
    "example</w>": 8662,
    "bring</w>": 8663,
    ".\"</w>": 8664,
    "coming</w>": 8665,
    "named</w>": 8666,
    "about</w>": 8667,
    "numa</w>": 8668,
    "writers</w>": 8669,
    "determined</w>": 8670,
    "consul</w>": 8671,
    "91</w>": 8672,
    "activity</w>": 8673,
    "diverse</w>": 8674,
    "human</w>": 8675,
    "author</w>": 8676,
    "experience</w>": 8677,
    "sense</w>": 8678,
    "bowl</w>": 8679,
    "used</w>": 8680,
    "hope</w>": 8681,
    "inner</w>": 8682,
    "drawing</w>": 8683,
    "done</w>": 8684,
    "division</w>": 8685,
    "design</w>": 8686,
    "certain</w>": 8687,
    "wish</w>": 8688,
    "case</w>": 8689,
    "rather</w>": 8690,
    "than</w>": 8691,
    "cave</w>": 8692,
    "india</w>": 8693,
    "rome</w>": 8694,
    "bible</w>": 8695,
    "glass</w>": 8696,
    "walls</w>": 8697,
    "painted</w>": 8698,
    "religious</w>": 8699,
    "allowed</w>": 8700,
    "too</w>": 8701,
    "figures</w>": 8702,
    "include</w>": 8703,
    "value</w>": 8704,
    "letter</w>": 8705,
    "α</w>": 8706,
    "lower</w>": 8707,
    "ā</w>": 8708,
    "sound</w>": 8709,
    "note</w>": 8710,
    "written</w>": 8711,
    "writing</w>": 8712,
    "modified</w>": 8713,
    "language</w>": 8714,
    "father</w>": 8715,
    "known</w>": 8716,
    "basis</w>": 8717,
    "live</w>": 8718,
    "outer</w>": 8719,
    "need</w>": 8720,
    "send</w>": 8721,
    "plants</w>": 8722,
    "act</w>": 8723,
    "soon</w>": 8724,
    "will</w>": 8725,
    "home</w>": 8726,
    "!</w>": 8727,
    "weather</w>": 8728,
    "huge</w>": 8729,
    "dying</w>": 8730,
    "sails</w>": 8731,
    "motion</w>": 8732,
    "matics</w>": 8733,
    "hydrogen</w>": 8734,
    "changed</w>": 8735,
    "billion</w>": 8736,
    "rapid</w>": 8737,
    "during</w>": 8738,
    "heavy</w>": 8739,
    "iron</w>": 8740,
    "parts</w>": 8741,
    "states</w>": 8742,
    "america</w>": 8743,
    "\":</w>": 8744,
    "country</w>": 8745,
    "sole</w>": 8746,
    "place</w>": 8747,
    "coast</w>": 8748,
    "computer</w>": 8749,
    "mother</w>": 8750,
    "went</w>": 8751,
    "shadow</w>": 8752,
    "going</w>": 8753,
    "edward</w>": 8754,
    "1st</w>": 8755,
    "1907</w>": 8756,
    "regarded</w>": 8757,
    "grapher</w>": 8758,
    "modern</w>": 8759,
    "break</w>": 8760,
    "german</w>": 8761,
    "possibly</w>": 8762,
    "estimated</w>": 8763,
    "royal</w>": 8764,
    "chemical</w>": 8765,
    "eating</w>": 8766,
    "computers</w>": 8767,
    "tell</w>": 8768,
    "code</w>": 8769,
    "gc</w>": 8770,
    "&</w>": 8771,
    "engine</w>": 8772,
    "starting</w>": 8773,
    "pilot</w>": 8774,
    "sex</w>": 8775,
    "taking</w>": 8776,
    "drive</w>": 8777,
    "grew</w>": 8778,
    "2012</w>": 8779,
    "suspected</w>": 8780,
    "prime</w>": 8781,
    "winning</w>": 8782,
    "american</w>": 8783,
    "you</w>": 8784,
    "album</w>": 8785,
    "33</w>": 8786,
    "selling</w>": 8787,
    "rug</w>": 8788,
    "acted</w>": 8789,
    "smith</w>": 8790,
    "played</w>": 8791,
    "chad</w>": 8792,
    "twin</w>": 8793,
    "minutes</w>": 8794,
    "teachers</w>": 8795,
    "rapper</w>": 8796,
    "sang</w>": 8797,
    "songs</w>": 8798,
    "products</w>": 8799,
    "type</w>": 8800,
    "pork</w>": 8801,
    "cane</w>": 8802,
    "keeping</w>": 8803,
    "food</w>": 8804,
    "raw</w>": 8805,
    "major</w>": 8806,
    "sure</w>": 8807,
    "development</w>": 8808,
    "area</w>": 8809,
    "iraq</w>": 8810,
    "horses</w>": 8811,
    "planting</w>": 8812,
    "soil</w>": 8813,
    "population</w>": 8814,
    "grown</w>": 8815,
    "farmers</w>": 8816,
    "buy</w>": 8817,
    "productive</w>": 8818,
    "kill</w>": 8819,
    "bugs</w>": 8820,
    "good</w>": 8821,
    "plant</w>": 8822,
    "breeding</w>": 8823,
    "genetic</w>": 8824,
    "engineering</w>": 8825,
    "eat</w>": 8826,
    "production</w>": 8827,
    "here</w>": 8828,
    "markets</w>": 8829,
    "stalk</w>": 8830,
    "jobs</w>": 8831,
    "mentally</w>": 8832,
    "building</w>": 8833,
    "operation</w>": 8834,
    "order</w>": 8835,
    "adds</w>": 8836,
    "counting</w>": 8837,
    "related</w>": 8838,
    "terms</w>": 8839,
    "right</w>": 8840,
    "tom</w>": 8841,
    "sally</w>": 8842,
    "east</w>": 8843,
    "120</w>": 8844,
    "desert</w>": 8845,
    "%</w>": 8846,
    "flower</w>": 8847,
    "continent</w>": 8848,
    "emu</w>": 8849,
    "combined</w>": 8850,
    "iii</w>": 8851,
    "south</w>": 8852,
    "=</w>": 8853,
    "inland</w>": 8854,
    "].</w>": 8855,
    "record</w>": 8856,
    "tides</w>": 8857,
    "season</w>": 8858,
    "plain</w>": 8859,
    "trees</w>": 8860,
    "big</w>": 8861,
    "level</w>": 8862,
    "bark</w>": 8863,
    "buildings</w>": 8864,
    "bows</w>": 8865,
    "spear": 8866,
    "spear</w>": 8867,
    "explored</w>": 8868,
    "hms</w>": 8869,
    "scientists</w>": 8870,
    "dr</w>": 8871,
    "mast</w>": 8872,
    "saw</w>": 8873,
    "full</w>": 8874,
    "fishing</w>": 8875,
    "seeds</w>": 8876,
    "fruit</w>": 8877,
    "leader</w>": 8878,
    "botany</w>": 8879,
    "unknown</w>": 8880,
    "flat</w>": 8881,
    "harbour</w>": 8882,
    "george</w>": 8883,
    "sort</w>": 8884,
    "builder</w>": 8885,
    "brick</w>": 8886,
    "hut</w>": 8887,
    "whar": 8888,
    "fine</w>": 8889,
    "standing</w>": 8890,
    "spread</w>": 8891,
    "herd</w>": 8892,
    "might</w>": 8893,
    "blue</w>": 8894,
    "rugged</w>": 8895,
    "brothers</w>": 8896,
    "run</w>": 8897,
    "1855</w>": 8898,
    "self</w>": 8899,
    "women</w>": 8900,
    "turks</w>": 8901,
    "fill</w>": 8902,
    "election</w>": 8903,
    "wars</w>": 8904,
    "80s</w>": 8905,
    "hawke</w>": 8906,
    "want</w>": 8907,
    "david</w>": 8908,
    "main</w>": 8909,
    "religion</w>": 8910,
    "deers</w>": 8911,
    "peter</w>": 8912,
    "bands</w>": 8913,
    "gees</w>": 8914,
    "folk</w>": 8915,
    "barry</w>": 8916,
    "dame</w>": 8917,
    "\"),</w>": 8918,
    "services</w>": 8919,
    "radio</w>": 8920,
    "directed</w>": 8921,
    "hanging</w>": 8922,
    "cate</w>": 8923,
    "organised</w>": 8924,
    "football</w>": 8925,
    "cycling</w>": 8926,
    "rowing</w>": 8927,
    "swimming</w>": 8928,
    "horse</w>": 8929,
    "racing</w>": 8930,
    "ranked</w>": 8931,
    "annual</w>": 8932,
    "lw</w>": 8933,
    "based</w>": 8934,
    "specific</w>": 8935,
    "forms</w>": 8936,
    "bats</w>": 8937,
    "remarkable</w>": 8938,
    "essential</w>": 8939,
    "species</w>": 8940,
    "hear</w>": 8941,
    "media</w>": 8942,
    "gets</w>": 8943,
    "speak</w>": 8944,
    "frequently</w>": 8945,
    "both</w>": 8946,
    "dropping</w>": 8947,
    "sounding</w>": 8948,
    "recognizable</w>": 8949,
    "ticity</w>": 8950,
    "semi</w>": 8951,
    "heard</w>": 8952,
    "described</w>": 8953,
    "trout</w>": 8954,
    "carp</w>": 8955,
    "exemp": 8956,
    "angel</w>": 8957,
    "qur</w>": 8958,
    "suggest</w>": 8959,
    "ranks</w>": 8960,
    "cheru": 8961,
    "bim</w>": 8962,
    "sword</w>": 8963,
    "adam</w>": 8964,
    "garden</w>": 8965,
    "stops</w>": 8966,
    "trick</w>": 8967,
    "fighting</w>": 8968,
    "covering</w>": 8969,
    "punished</w>": 8970,
    "kingdom</w>": 8971,
    "priest</w>": 8972,
    "thou</w>": 8973,
    "manship</w>": 8974,
    "thee</w>": 8975,
    "descending</w>": 8976,
    "wheels</w>": 8977,
    "color</w>": 8978,
    "amber</w>": 8979,
    "mating</w>": 8980,
    "creation</w>": 8981,
    "decision</w>": 8982,
    "allah</w>": 8983,
    "arabic</w>": 8984,
    "prophets</w>": 8985,
    "fail</w>": 8986,
    "considered</w>": 8987,
    "evil</w>": 8988,
    "justice</w>": 8989,
    "clean</w>": 8990,
    "faced</w>": 8991,
    "helpful</w>": 8992,
    "measure</w>": 8993,
    "appreciated</w>": 8994,
    "indians</w>": 8995,
    "tribes</w>": 8996,
    "hurt</w>": 8997,
    "leave</w>": 8998,
    "cultural</w>": 8999,
    "connected</w>": 9000,
    "bering</w>": 9001,
    "bp</w>": 9002,
    "announced</w>": 9003,
    "plan</w>": 9004,
    "monument</w>": 9005,
    "practice</w>": 9006,
    "67</w>": 9007,
    "maya</w>": 9008,
    "left</w>": 9009,
    "vians</w>": 9010,
    "elected</w>": 9011,
    "green</w>": 9012,
    "fruits</w>": 9013,
    "significance</w>": 9014,
    "seed</w>": 9015,
    "onto</w>": 9016,
    "root": 9017,
    "attacked</w>": 9018,
    "bacteria</w>": 9019,
    "49</w>": 9020,
    "leaf</w>": 9021,
    "thick</w>": 9022,
    "98</w>": 9023,
    "sii</w>": 9024,
    "cultivated</w>": 9025,
    "ið": 9026,
    "ellis</w>": 9027,
    "claims</w>": 9028,
    "nuts</w>": 9029,
    "firm</w>": 9030,
    "sour</w>": 9031,
    "sauce</w>": 9032,
    "beer</w>": 9033,
    "dna</w>": 9034,
    "',</w>": 9035,
    "tart</w>": 9036,
    "shipping</w>": 9037,
    "522</w>": 9038,
    "3000</w>": 9039,
    "reported</w>": 9040,
    "acres</w>": 9041,
    "47</w>": 9042,
    "faith</w>": 9043,
    "‎,</w>": 9044,
    "yet</w>": 9045,
    "graphs</w>": 9046,
    "input</w>": 9047,
    "values</w>": 9048,
    "dividing</w>": 9049,
    "linear</w>": 9050,
    "9th</w>": 9051,
    "840</w>": 9052,
    "designing</w>": 9053,
    "cell</w>": 9054,
    "phone</w>": 9055,
    "looks</w>": 9056,
    "steep": 9057,
    "math</w>": 9058,
    "seem</w>": 9059,
    "seless</w>": 9060,
    "understand</w>": 9061,
    "axi": 9062,
    "declared</w>": 9063,
    "distributed</w>": 9064,
    "atom</w>": 9065,
    "doing</w>": 9066,
    "charge</w>": 9067,
    "radioactive</w>": 9068,
    "defined</w>": 9069,
    "formed</w>": 9070,
    "pollen</w>": 9071,
    "noble</w>": 9072,
    "plum</w>": 9073,
    "model</w>": 9074,
    "stuck</w>": 9075,
    "foil</w>": 9076,
    "measures</w>": 9077,
    "particle</w>": 9078,
    "recorded</w>": 9079,
    "chain</w>": 9080,
    "ions</w>": 9081,
    "99</w>": 9082,
    "radiation</w>": 9083,
    "beta</w>": 9084,
    "gamma</w>": 9085,
    "bombs</w>": 9086,
    "fusion</w>": 9087,
    "amounts</w>": 9088,
    "converted</w>": 9089,
    "56</w>": 9090,
    "nickel</w>": 9091,
    "62</w>": 9092,
    "shells</w>": 9093,
    "burst</w>": 9094,
    "complicated</w>": 9095,
    "circle</w>": 9096,
    "spin</w>": 9097,
    "numbered</w>": 9098,
    "2s</w>": 9099,
    "2p</w>": 9100,
    "3s</w>": 9101,
    "4s</w>": 9102,
    "counted</w>": 9103,
    "94</w>": 9104,
    "relative</w>": 9105,
    "metallic</w>": 9106,
    "direction</w>": 9107,
    "agnetic</w>": 9108,
    "lithium</w>": 9109,
    "least</w>": 9110,
    "stop</w>": 9111,
    "existed</w>": 9112,
    "seconds</w>": 9113,
    "concerned</w>": 9114,
    "eyes</w>": 9115,
    "drew</w>": 9116,
    "estimate</w>": 9117,
    "isaac</w>": 9118,
    "gravity</w>": 9119,
    "uranus</w>": 9120,
    "source</w>": 9121,
    "noise</w>": 9122,
    "waves</w>": 9123,
    "alien</w>": 9124,
    "sites</w>": 9125,
    "drell</w>": 9126,
    "skies</w>": 9127,
    "blocked</w>": 9128,
    "solar</w>": 9129,
    "length</w>": 9130,
    "integration</w>": 9131,
    "track</w>": 9132,
    "nights</w>": 9133,
    "lens</w>": 9134,
    "data</w>": 9135,
    "pulse</w>": 9136,
    "holes</w>": 9137,
    "92</w>": 9138,
    "formation</w>": 9139,
    "planetary</w>": 9140,
    "office</w>": 9141,
    "roads</w>": 9142,
    "designs</w>": 9143,
    "structural</w>": 9144,
    "speeds</w>": 9145,
    "blown</w>": 9146,
    "architectural</w>": 9147,
    "invent</w>": 9148,
    "burton</w>": 9149,
    "completed</w>": 9150,
    "paris</w>": 9151,
    "notes</w>": 9152,
    "organs</w>": 9153,
    "involved</w>": 9154,
    "physiology</w>": 9155,
    "vesta</w>": 9156,
    "mars</w>": 9157,
    "goods</w>": 9158,
    "appoint</w>": 9159,
    "kush</w>": 9160,
    "snow</w>": 9161,
    "valuable</w>": 9162,
    "winters</w>": 9163,
    "pine</w>": 9164,
    "eagles</w>": 9165,
    "signs</w>": 9166,
    "skull</w>": 9167,
    "aryan</w>": 9168,
    "medes</w>": 9169,
    "conquered</w>": 9170,
    "ruled</w>": 9171,
    "giant</w>": 9172,
    "anids</w>": 9173,
    "ghor</w>": 9174,
    ",\"</w>": 9175,
    "agra</w>": 9176,
    "suri</w>": 9177,
    "1919</w>": 9178,
    "communist</w>": 9179,
    "95</w>": 9180,
    "strict</w>": 9181,
    "laden</w>": 9182,
    "members</w>": 9183,
    "interest</w>": 9184,
    "freedom</w>": 9185,
    "ghani</w>": 9186,
    "touches</w>": 9187,
    "silver</w>": 9188,
    "cruz</w>": 9189,
    "inca</w>": 9190,
    "falling</w>": 9191,
    "ordered</w>": 9192,
    "provinc": 9193,
    "document</w>": 9194,
    "alps</w>": 9195,
    "schall": 9196,
    "anton</w>": 9197,
    ".,</w>": 9198,
    "jr</w>": 9199,
    "fried": 9200,
    "wagner</w>": 9201,
    "torte</w>": 9202,
    "tafel": 9203,
    "spitz</w>": 9204,
    "...\"</w>": 9205,
    "status</w>": 9206,
    "></w>": 9207,
    "buried</w>": 9208,
    "museum</w>": 9209,
    "entered</w>": 9210,
    "specialties</w>": 9211,
    "hoo</w>": 9212,
    "deals</w>": 9213,
    "issues</w>": 9214,
    "branch</w>": 9215,
    "interpretation</w>": 9216,
    "dug</w>": 9217,
    "metazoa</w>": 9218,
    "cells</w>": 9219,
    "zoology</w>": 9220,
    "cellular</w>": 9221,
    "dolphin</w>": 9222,
    "vector</w>": 9223,
    "calculated</w>": 9224,
    "warte</w>": 9225,
    "pigs</w>": 9226,
    "pig</w>": 9227,
    "ready</w>": 9228,
    "rouge</w>": 9229,
    "filled</w>": 9230,
    "disk</w>": 9231,
    "flash</w>": 9232,
    "chips</w>": 9233,
    "user</w>": 9234,
    "users</w>": 9235,
    "strapping</w>": 9236,
    "boots</w>": 9237,
    "leg</w>": 9238,
    "rating</w>": 9239,
    "allow</w>": 9240,
    "aim</w>": 9241,
    "organise</w>": 9242,
    "owners</w>": 9243,
    "falls</w>": 9244,
    "idated</w>": 9245,
    "supervised</w>": 9246,
    "lasts</w>": 9247,
    "cured</w>": 9248,
    "wash</w>": 9249,
    "°</w>": 9250,
    "71</w>": 9251,
    "saturated</w>": 9252,
    ".'</w>": 9253,
    "muffin</w>": 9254,
    "shrubs</w>": 9255,
    "lays</w>": 9256,
    "daughters</w>": 9257,
    "mobility</w>": 9258,
    "‘</w>": 9259,
    "beip": 9260,
    "botanists</w>": 9261,
    "melons</w>": 9262,
    "lack</w>": 9263,
    "sable</w>": 9264,
    "male</w>": 9265,
    "cool</w>": 9266,
    "class</w>": 9267,
    "bacterium</w>": 9268,
    "enters</w>": 9269,
    "struck</w>": 9270,
    "trust</w>": 9271,
    "fathers</w>": 9272,
    "?\"</w>": 9273,
    "ecology</w>": 9274,
    "slow</w>": 9275,
    "berlin</w>": 9276,
    "rubber</w>": 9277,
    "143</w>": 9278,
    "geographical</w>": 9279,
    "²</w>": 9280,
    "armed</w>": 9281,
    "leo</w>": 9282,
    "keland</w>": 9283,
    "ilya</w>": 9284,
    "gain</w>": 9285,
    "ensor</w>": 9286,
    "temps</w>": 9287,
    "fame</w>": 9288,
    "hoover": 9289,
    "phonic</w>": 9290,
    "menon</w>": 9291,
    "franco</w>": 9292,
    "comics</w>": 9293,
    "leir</w>": 9294,
    "bites</w>": 9295,
    "busch</w>": 9296,
    "bev</w>": 9297,
    "judo</w>": 9298,
    "cyclists</w>": 9299,
    "player</w>": 9300,
    "ickx</w>": 9301,
    "memorial</w>": 9302,
    "classic</w>": 9303,
    "elders</w>": 9304,
    "belo</w>": 9305,
    "alegre</w>": 9306,
    "chemists</w>": 9307,
    "processed</w>": 9308,
    "metals</w>": 9309,
    "analytical</w>": 9310,
    "organic</w>": 9311,
    "inorganic</w>": 9312,
    "iniest</w>": 9313,
    "heating</w>": 9314,
    "leads</w>": 9315,
    "stoichi": 9316,
    "weights</w>": 9317,
    "mole</w>": 9318,
    "63</w>": 9319,
    "molar</w>": 9320,
    "134</w>": 9321,
    "chromates</w>": 9322,
    "reading</w>": 9323,
    "sorting</w>": 9324,
    "playing</w>": 9325,
    "electronics</w>": 9326,
    "store</w>": 9327,
    "personal</w>": 9328,
    "article</w>": 9329,
    "writes</w>": 9330,
    "flow</w>": 9331,
    "theater</w>": 9332,
    "loom</w>": 9333,
    "bored</w>": 9334,
    "leased</w>": 9335,
    "rocket</w>": 9336,
    "draft</w>": 9337,
    "manchester</w>": 9338,
    "004</w>": 9339,
    "frames</w>": 9340,
    "alarm</w>": 9341,
    "programmed</w>": 9342,
    "digit</w>": 9343,
    "communication</w>": 9344,
    "online</w>": 9345,
    "runs</w>": 9346,
    "owner</w>": 9347,
    "ears</w>": 9348,
    "voice</w>": 9349,
    "crust</w>": 9350,
    "andia</w>": 9351,
    "93</w>": 9352,
    "130</w>": 9353,
    "~</w>": 9354,
    "layer</w>": 9355,
    "layers</w>": 9356,
    "linked</w>": 9357,
    "bile</w>": 9358,
    "zhō": 9359,
    "loyal</w>": 9360,
    "latter</w>": 9361,
    "migration</w>": 9362,
    "currency</w>": 9363,
    "hong</w>": 9364,
    "shek</w>": 9365,
    "liu</w>": 9366,
    "industrialization</w>": 9367,
    "vast</w>": 9368,
    "route</w>": 9369,
    "pla</w>": 9370,
    "compass</w>": 9371,
    "59</w>": 9372,
    "respected</w>": 9373,
    "wong</w>": 9374,
    "huang</w>": 9375,
    "qu</w>": 9376,
    "sad</w>": 9377,
    "rice</w>": 9378,
    "cakes</w>": 9379,
    "parent</w>": 9380,
    "none</w>": 9381,
    "thin</w>": 9382,
    "believes</w>": 9383,
    "existing</w>": 9384,
    "imit": 9385,
    "accurately</w>": 9386,
    "arism</w>": 9387,
    "ostics</w>": 9388,
    "hypoc": 9389,
    "organizing</w>": 9390,
    "moore</w>": 9391,
    "crush</w>": 9392,
    "attack</w>": 9393,
    "leaders</w>": 9394,
    "quote</w>": 9395,
    "siege</w>": 9396,
    "invention</w>": 9397,
    ".<</w>": 9398,
    "seat</w>": 9399,
    "260</w>": 9400,
    "dura</w>": 9401,
    "baptized</w>": 9402,
    "nave</w>": 9403,
    "deacon</w>": 9404,
    "apse</w>": 9405,
    "course</w>": 9406,
    "cart</w>": 9407,
    "transport</w>": 9408,
    "buses</w>": 9409,
    "pf</w>": 9410,
    "housing</w>": 9411,
    "grid</w>": 9412,
    "leaning</w>": 9413,
    "delegate</w>": 9414,
    "”,</w>": 9415,
    "organising</w>": 9416,
    "qq</w>": 9417,
    "text</w>": 9418,
    "guns</w>": 9419,
    "victim": 9420,
    "root</w>": 9421,
    "behavior</w>": 9422,
    "otis</w>": 9423,
    "starch</w>": 9424,
    "knowing</w>": 9425,
    "tangent</w>": 9426,
    "divide</w>": 9427,
    ")\"</w>": 9428,
    "coin</w>": 9429,
    "electr": 9430,
    "plays</w>": 9431,
    "mask</w>": 9432,
    "pain</w>": 9433,
    "mock</w>": 9434,
    "merri": 9435,
    "dream</w>": 9436,
    "trash</w>": 9437,
    "exagger": 9438,
    "levy</w>": 9439,
    "philosop": 9440,
    "vision</w>": 9441,
    "()</w>": 9442,
    "interpreted</w>": 9443,
    "persons</w>": 9444,
    "icalism</w>": 9445,
    "goat</w>": 9446,
    "pasteurized</w>": 9447,
    "\"(</w>": 9448,
    ")\".</w>": 9449,
    "giving</w>": 9450,
    "bending</w>": 9451,
    "carta</w>": 9452,
    "articles</w>": 9453,
    "dimensional</w>": 9454,
    "fox</w>": 9455,
    "fidel</w>": 9456,
    "rhythms</w>": 9457,
    "mocks</w>": 9458,
    "ulture</w>": 9459,
    "serving</w>": 9460,
    "sustainable</w>": 9461,
    "tropical</w>": 9462,
    "drivers</w>": 9463,
    "carriage</w>": 9464,
    "adult</w>": 9465,
    "dimension</w>": 9466,
    "tropic</w>": 9467,
    "aviva</w>": 9468,
    "dances</w>": 9469,
    "fun</w>": 9470,
    "'.</w>": 9471,
    "teacher</w>": 9472,
    "olos</w>": 9473,
    "battled</w>": 9474,
    ")),</w>": 9475,
    "infection</w>": 9476,
    "needle</w>": 9477,
    "vein</w>": 9478,
    "spaces</w>": 9479,
    "emes</w>": 9480,
    "legs</w>": 9481,
    "danes</w>": 9482,
    "mette</w>": 9483,
    "76</w>": 9484,
    "statistics</w>": 9485,
    "poles</w>": 9486,
    "hams</w>": 9487,
    "ør</w>": 9488,
    "quest</w>": 9489,
    "killer</w>": 9490,
    "kirk</w>": 9491,
    "lars</w>": 9492,
    "candy</w>": 9493,
    "sailing</w>": 9494,
    "annihil": 9495,
    "kuru</w>": 9496,
    "payments</w>": 9497,
    "sleep</w>": 9498,
    "kick</w>": 9499,
    "honda</w>": 9500,
    "180</w>": 9501,
    "510</w>": 9502,
    "etna</w>": 9503,
    "diversity</w>": 9504,
    "hired</w>": 9505,
    "categories</w>": 9506,
    "chronology</w>": 9507,
    "osciences</w>": 9508,
    "365</w>": 9509,
    "arm</w>": 9510,
    "locked</w>": 9511,
    "theia</w>": 9512,
    "sheets</w>": 9513,
    "silicon</w>": 9514,
    "sulfur</w>": 9515,
    "volcanic</w>": 9516,
    "shock</w>": 9517,
    "laid</w>": 9518,
    "plates</w>": 9519,
    "volcanoes</w>": 9520,
    "rift</w>": 9521,
    "03</w>": 9522,
    "sq</w>": 9523,
    "bent</w>": 9524,
    "drug</w>": 9525,
    "soft": 9526,
    "admit": 9527,
    "slavic</w>": 9528,
    "bleed</w>": 9529,
    "semen</w>": 9530,
    "fluids</w>": 9531,
    "mucosal</w>": 9532,
    "secretion</w>": 9533,
    "fluid</w>": 9534,
    "throat</w>": 9535,
    "mouths</w>": 9536,
    "prior</w>": 9537,
    "spare</w>": 9538,
    "anthropology</w>": 9539,
    "affected</w>": 9540,
    "relates</w>": 9541,
    "models</w>": 9542,
    "fixes</w>": 9543,
    "pb</w>": 9544,
    "alloys</w>": 9545,
    "backing</w>": 9546,
    "wail</w>": 9547,
    "salah</w>": 9548,
    "e2</w>": 9549,
    "logged</w>": 9550,
    "writ": 9551,
    "eup</w>": 9552,
    "factory</w>": 9553,
    "neck</w>": 9554,
    "strokes</w>": 9555,
    "score</w>": 9556,
    "scores</w>": 9557,
    "match</w>": 9558,
    "violet</w>": 9559,
    "fak</w>": 9560,
    "burden</w>": 9561,
    "afford</w>": 9562,
    "enhanc": 9563,
    "pans</w>": 9564,
    "spoon</w>": 9565,
    "classes</w>": 9566,
    "fins</w>": 9567,
    "weigh</w>": 9568,
    "pools</w>": 9569,
    "mud</w>": 9570,
    "tivate</w>": 9571,
    "eel</w>": 9572,
    "nose</w>": 9573,
    "thrust</w>": 9574,
    "median</w>": 9575,
    "lactic</w>": 9576,
    "builds</w>": 9577,
    ":-</w>": 9578,
    "chase</w>": 9579,
    "hide</w>": 9580,
    "spot</w>": 9581,
    "sells</w>": 9582,
    "bait</w>": 9583,
    "koi</w>": 9584,
    "metatar": 9585,
    "secondary</w>": 9586,
    "tives</w>": 9587,
    "louis</w>": 9588,
    "109</w>": 9589,
    "96</w>": 9590,
    "101</w>": 9591,
    "veto</w>": 9592,
    "arms</w>": 9593,
    "supplied</w>": 9594,
    "missions</w>": 9595,
    "inflation</w>": 9596,
    ")).</w>": 9597,
    "univers": 9598,
    "riding</w>": 9599,
    "monte</w>": 9600,
    "maup": 9601,
    "stend": 9602,
    "champs</w>": 9603,
    "baron</w>": 9604,
    "roux</w>": 9605,
    "genius</w>": 9606,
    "1903</w>": 9607,
    "olive</w>": 9608,
    "58</w>": 9609,
    "pori</w>": 9610,
    "skiing</w>": 9611,
    "cent</w>": 9612,
    "swan</w>": 9613,
    "bear</w>": 9614,
    "deer</w>": 9615,
    "37</w>": 9616,
    "melt</w>": 9617,
    "frost</w>": 9618,
    "odin</w>": 9619,
    "strike</w>": 9620,
    "svea": 9621,
    "connections</w>": 9622,
    "voting</w>": 9623,
    "ocarp</w>": 9624,
    "pit</w>": 9625,
    "fertilised</w>": 9626,
    "evolutionary</w>": 9627,
    "flora</w>": 9628,
    "charts</w>": 9629,
    "shores</w>": 9630,
    "distribute</w>": 9631,
    "sections</w>": 9632,
    "jars</w>": 9633,
    "perfect</w>": 9634,
    "ghost</w>": 9635,
    "consciously</w>": 9636,
    "incarnations</w>": 9637,
    "rama</w>": 9638,
    "krishna</w>": 9639,
    "kali</w>": 9640,
    "kami</w>": 9641,
    "ontological</w>": 9642,
    "formulated</w>": 9643,
    "modal</w>": 9644,
    "520</w>": 9645,
    "nm</w>": 9646,
    "wiki</w>": 9647,
    "fair</w>": 9648,
    "ergo</w>": 9649,
    "inc</w>": 9650,
    "alto</w>": 9651,
    "nephew</w>": 9652,
    "57</w>": 9653,
    "critics</w>": 9654,
    "earn</w>": 9655,
    "spherical</w>": 9656,
    "packed</w>": 9657,
    "generations</w>": 9658,
    "parallel</w>": 9659,
    "associate</w>": 9660,
    "initiated</w>": 9661,
    "atee</w>": 9662,
    "herm</w>": 9663,
    "scripts</w>": 9664,
    "pre</w>": 9665,
    "abilities</w>": 9666,
    "ports</w>": 9667,
    "load</w>": 9668,
    "quays</w>": 9669,
    "francisco</w>": 9670,
    "tops</w>": 9671,
    "hool": 9672,
    "awe</w>": 9673,
    "uokalani</w>": 9674,
    "nene</w>": 9675,
    "`</w>": 9676,
    "szo": 9677,
    "luis</w>": 9678,
    "bass</w>": 9679,
    "iber": 9680,
    "funded</w>": 9681,
    "alkali</w>": 9682,
    "dissociation</w>": 9683,
    "reacts</w>": 9684,
    "cation</w>": 9685,
    "inflam": 9686,
    "/)</w>": 9687,
    "glow</w>": 9688,
    "detected</w>": 9689,
    "bulbs</w>": 9690,
    "cosis</w>": 9691,
    "linux</w>": 9692,
    "php</w>": 9693,
    "genetically</w>": 9694,
    "phe": 9695,
    "gene</w>": 9696,
    "styling</w>": 9697,
    "179</w>": 9698,
    "525</w>": 9699,
    "astic</w>": 9700,
    "230</w>": 9701,
    "maiden</w>": 9702,
    "--</w>": 9703,
    "skills</w>": 9704,
    "tiger</w>": 9705,
    "allocated</w>": 9706,
    "funds</w>": 9707,
    "agency</w>": 9708,
    "])</w>": 9709,
    "blanc</w>": 9710,
    "como</w>": 9711,
    "350</w>": 9712,
    "enta</w>": 9713,
    "753</w>": 9714,
    "duce</w>": 9715,
    "fluent</w>": 9716,
    "print</w>": 9717,
    "presses</w>": 9718,
    "haem": 9719,
    "gall</w>": 9720,
    "smu": 9721,
    "sticks</w>": 9722,
    "144</w>": 9723,
    "exposure</w>": 9724,
    "quart</w>": 9725,
    "weapon</w>": 9726,
    "terrorism</w>": 9727,
    "hind</w>": 9728,
    "sabha</w>": 9729,
    "69</w>": 9730,
    "trophy</w>": 9731,
    "chess</w>": 9732,
    "zoans</w>": 9733,
    "epidemiology</w>": 9734,
    "hiv</w>": 9735,
    "bout</w>": 9736,
    "asma</w>": 9737,
    "reed</w>": 9738,
    "aught</w>": 9739,
    "bound</w>": 9740,
    "solem": 9741,
    "ainu</w>": 9742,
    "conquer</w>": 9743,
    "hiroshima</w>": 9744,
    "qr</w>": 9745,
    "suzuki</w>": 9746,
    "anime</w>": 9747,
    "serves</w>": 9748,
    "268</w>": 9749,
    "dinal</w>": 9750,
    "142</w>": 9751,
    "icy</w>": 9752,
    "aï</w>": 9753,
    "reza</w>": 9754,
    "justified</w>": 9755,
    "skill</w>": 9756,
    "lord</w>": 9757,
    "animated</w>": 9758,
    "lua</w>": 9759,
    "lying</w>": 9760,
    "washed</w>": 9761,
    "combat</w>": 9762,
    "84</w>": 9763,
    "minute</w>": 9764,
    "connecting</w>": 9765,
    "setting</w>": 9766,
    "powered</w>": 9767,
    "matur": 9768,
    "oi": 9769,
    "copy</w>": 9770,
    "diploid</w>": 9771,
    "step</w>": 9772,
    "amino</w>": 9773,
    "assembl": 9774,
    "engage</w>": 9775,
    "civilized</w>": 9776,
    "congress": 9777,
    "140</w>": 9778,
    "mood</w>": 9779,
    "courses</w>": 9780,
    "lubric": 9781,
    "decimal</w>": 9782,
    "centres</w>": 9783,
    "decisive</w>": 9784,
    "pitch</w>": 9785,
    "£</w>": 9786,
    "millilit": 9787,
    "001</w>": 9788,
    "limes</w>": 9789,
    "therapy</w>": 9790,
    "alike</w>": 9791,
    "antarctic</w>": 9792,
    "piano</w>": 9793,
    "tonality</w>": 9794,
    "serve</w>": 9795,
    "div": 9796,
    "yew</w>": 9797,
    "finger</w>": 9798,
    "playable</w>": 9799,
    "monk</w>": 9800,
    "string</w>": 9801,
    "bow</w>": 9802,
    "viola</w>": 9803,
    "dynamics</w>": 9804,
    "lied</w>": 9805,
    "tunes</w>": 9806,
    "tables</w>": 9807,
    "scott</w>": 9808,
    "buddy</w>": 9809,
    "tones</w>": 9810,
    "naming</w>": 9811,
    "malls</w>": 9812,
    "mah</w>": 9813,
    "stood</w>": 9814,
    "arid</w>": 9815,
    "csa</w>": 9816,
    "gran</w>": 9817,
    "studios</w>": 9818,
    "'),</w>": 9819,
    "location</w>": 9820,
    "villeneuve</w>": 9821,
    "tva</w>": 9822,
    "kahu": 9823,
    "papa</w>": 9824,
    "weighed</w>": 9825,
    "convertible</w>": 9826,
    "xbox</w>": 9827,
    "cams</w>": 9828,
    "generation</w>": 9829,
    "sony</w>": 9830,
    "unity</w>": 9831,
    "fellow</w>": 9832,
    "jazeera</w>": 9833,
    "shari": 9834,
    "shia</w>": 9835,
    "bans</w>": 9836,
    "invited</w>": 9837,
    "reality</w>": 9838,
    "facial</w>": 9839,
    "°": 9840,
    "hydrogen": 9841,
    "240</w>": 9842,
    "viewed</w>": 9843,
    "wakes</w>": 9844,
    "precise</w>": 9845,
    "metaphor": 9846,
    "\"<</w>": 9847,
    "reader</w>": 9848,
    "?\".</w>": 9849,
    "beam</w>": 9850,
    "eric</w>": 9851,
    "183</w>": 9852,
    "titan</w>": 9853,
    "mares</w>": 9854,
    "replen": 9855,
    "02</w>": 9856,
    "002</w>": 9857,
    "eris</w>": 9858,
    "traces</w>": 9859,
    "wells</w>": 9860,
    "broadcast</w>": 9861,
    "macin": 9862,
    "8000</w>": 9863,
    "sur</w>": 9864,
    "psychologists</w>": 9865,
    "wahhab": 9866,
    "blah</w>": 9867,
    "wu</w>": 9868,
    "nightly</w>": 9869,
    "qad": 9870,
    "informed</w>": 9871,
    "257</w>": 9872,
    "gregated</w>": 9873,
    "menstrual</w>": 9874,
    "ear</w>": 9875,
    "chains</w>": 9876,
    "snake</w>": 9877,
    "ogy</w>": 9878,
    "grade</w>": 9879,
    "chea": 9880,
    "owl</w>": 9881,
    "izzy</w>": 9882,
    "ē</w>": 9883,
    "typing</w>": 9884,
    "670</w>": 9885,
    "phosphate</w>": 9886,
    "bare</w>": 9887,
    "sios</w>": 9888,
    "infini": 9889,
    "buss</w>": 9890,
    "stem</w>": 9891,
    "usable</w>": 9892,
    "availability</w>": 9893,
    "galle</w>": 9894,
    "eggen</w>": 9895,
    "radio": 9896,
    "750</w>": 9897,
    "wizard</w>": 9898,
    "roche</w>": 9899,
    "stamp</w>": 9900,
    "alley</w>": 9901,
    "sheet</w>": 9902,
    "creek</w>": 9903,
    "maine</w>": 9904,
[...]
